WIDTH = 24;
DEPTH=1024;

ADDRESS_RADIX=UNS;
DATA_RADIX=HEX;

CONTENT BEGIN
0	:	000000F6;
1	:	0000028C;
2	:	0000185D;
3	:	00003FDA;
4	:	000055B8;
5	:	00004617;
6	:	00001063;
7	:	0000114C;
8	:	000000DA;
9	:	00FFFFD9;
10	:	00FFFDA0;
11	:	00FFFB2E;
12	:	00FFFB26;
13	:	000007C9;
14	:	00000EF1;
15	:	0000262A;
16	:	0000105F;
17	:	00000492;
18	:	000004EF;
19	:	000005FE;
20	:	00FFFF8F;
21	:	00FFFE81;
22	:	00FFF50F;
23	:	00FFF3AE;
24	:	00FFE6A1;
25	:	00FFDB3B;
26	:	00FFF4C6;
27	:	00000775;
28	:	000002DA;
29	:	0000058F;
30	:	00FFFCF6;
31	:	00FFF6EA;
32	:	00000470;
33	:	00FFEF93;
34	:	00000BED;
35	:	00FFEB41;
36	:	00FFDF69;
37	:	00FFF23D;
38	:	00FFF6D9;
39	:	000008E5;
40	:	000018B5;
41	:	0000047E;
42	:	00FFFF89;
43	:	00FFFDDF;
44	:	00000145;
45	:	00000464;
46	:	00000DE7;
47	:	00FFF7EE;
48	:	00FFE7A1;
49	:	00FFE734;
50	:	00002670;
51	:	0000344E;
52	:	00002FE9;
53	:	00000578;
54	:	00FFFC8C;
55	:	000031E7;
56	:	00FFF182;
57	:	0000069F;
58	:	000005DB;
59	:	0000043A;
60	:	00FFEE64;
61	:	00003660;
62	:	00003A54;
63	:	00001799;
64	:	00FFFF3E;
65	:	00FFFF41;
66	:	000017FF;
67	:	00FFFECD;
68	:	0000214A;
69	:	0000150F;
70	:	00001E31;
71	:	00FFF6E4;
72	:	00002B9C;
73	:	000033CC;
74	:	00FFFD1F;
75	:	00FFFDD6;
76	:	00000556;
77	:	00001A96;
78	:	00000FB1;
79	:	000020F8;
80	:	00000F64;
81	:	00000E55;
82	:	00FFEF2E;
83	:	00000AD0;
84	:	000002D9;
85	:	00000BAE;
86	:	00FFF901;
87	:	00000382;
88	:	00001C53;
89	:	00000D64;
90	:	00000ADB;
91	:	00000688;
92	:	00FFF23A;
93	:	000006E7;
94	:	00000BBA;
95	:	00FFEF7A;
96	:	000017B3;
97	:	00FFF7A1;
98	:	00FFFD12;
99	:	00FFFDF3;
100	:	00FFF386;
101	:	00FFF215;
102	:	00FFF95E;
103	:	00FFFF2A;
104	:	00FFF5AC;
105	:	00FFF5A3;
106	:	00FFEFB6;
107	:	000003C9;
108	:	00FFFCBC;
109	:	00000334;
110	:	00FFFC60;
111	:	00FFF4E3;
112	:	00FFF385;
113	:	00FFECEC;
114	:	00FFEC61;
115	:	00FFF7DD;
116	:	00FFF6CA;
117	:	00FFFCC0;
118	:	00FFFF16;
119	:	00FFFF6B;
120	:	00FFFFB6;
121	:	00FFFBA2;
122	:	00FFF098;
123	:	00FFE84F;
124	:	00FFEC2E;
125	:	00FFF2BE;
126	:	00FFDFC2;
127	:	00FFE044;
128	:	00FFCEFB;
129	:	00FFB68E;
130	:	00FFCFB2;
131	:	00FFDEA0;
132	:	00FFFF54;
133	:	00000980;
134	:	00FFF5C3;
135	:	00FFF6DA;
136	:	00FFF6EC;
137	:	00FFDCF0;
138	:	00FFD607;
139	:	00FFC073;
140	:	00FFBAF6;
141	:	00FFD621;
142	:	00FFEA86;
143	:	000001D4;
144	:	000006FC;
145	:	000006C1;
146	:	00000827;
147	:	00FFF3D8;
148	:	00FFC9A9;
149	:	00FFEE98;
150	:	00FFF88C;
151	:	00FFFB4E;
152	:	00FFDF3C;
153	:	00FFEAB9;
154	:	00FFF083;
155	:	00FFF916;
156	:	0000021B;
157	:	00000A20;
158	:	00FFF9B5;
159	:	00FFEF96;
160	:	00FFE938;
161	:	00000C56;
162	:	00002914;
163	:	00001304;
164	:	00000334;
165	:	00FFFBC2;
166	:	000005E2;
167	:	00001412;
168	:	000012D5;
169	:	00FFF332;
170	:	00FFE45D;
171	:	00FFE665;
172	:	00000617;
173	:	0000279A;
174	:	0000047D;
175	:	00003149;
176	:	000004FB;
177	:	00FFFB15;
178	:	00FFF9BB;
179	:	000007F2;
180	:	0000251A;
181	:	000034CF;
182	:	00FFF7D9;
183	:	00002EE7;
184	:	000028BD;
185	:	00001BA4;
186	:	000028AB;
187	:	0000011C;
188	:	00FFFB79;
189	:	000009D3;
190	:	00000874;
191	:	00000E4F;
192	:	00001EFA;
193	:	000015EC;
194	:	00002C69;
195	:	00004020;
196	:	00003732;
197	:	00003563;
198	:	00FFF954;
199	:	00FFF5B5;
200	:	00FFF1B0;
201	:	00FFFA88;
202	:	00001B00;
203	:	000024EF;
204	:	0000566C;
205	:	00004046;
206	:	00004878;
207	:	000034E8;
208	:	00001D54;
209	:	00FFFA77;
210	:	000000C2;
211	:	00FFF15A;
212	:	00FFF5D7;
213	:	00000C3B;
214	:	0000396B;
215	:	0000562E;
216	:	000040F7;
217	:	0000380A;
218	:	00002C0B;
219	:	00000BB4;
220	:	00FFFBFD;
221	:	00000352;
222	:	00FFFF07;
223	:	00FFFEC4;
224	:	00FFFFD8;
225	:	00FFFFF3;
226	:	00000E29;
227	:	00001290;
228	:	0000084F;
229	:	000001E9;
230	:	00FFFC84;
231	:	00000352;
232	:	00FFFE6A;
233	:	00FFFEB1;
234	:	00FFFFE2;
235	:	00000177;
236	:	000000CA;
237	:	00FFFAC2;
238	:	00FFFB8D;
239	:	000001FC;
240	:	00FFF8FB;
241	:	00000621;
242	:	00FFF563;
243	:	00FFE3AE;
244	:	00FFEA1D;
245	:	00FFE22F;
246	:	00FFF164;
247	:	00FFF4B5;
248	:	00001747;
249	:	00002475;
250	:	0000218C;
251	:	000010CC;
252	:	00FFF865;
253	:	00FFF090;
254	:	00FFEF8C;
255	:	00000323;
256	:	00000ED1;
257	:	00FFDB2B;
258	:	00FFFC2A;
259	:	00000CA4;
260	:	00002304;
261	:	00000171;
262	:	00FFF94A;
263	:	00FFF8FD;
264	:	00FFFD11;
265	:	00001AEA;
266	:	0000259C;
267	:	000001CE;
268	:	0000097C;
269	:	00000548;
270	:	00000729;
271	:	0000022A;
272	:	00000141;
273	:	00FFFC1A;
274	:	00FFFC5C;
275	:	00FFFD70;
276	:	00000F71;
277	:	00002B6B;
278	:	000000BA;
279	:	00001F27;
280	:	00FFFE76;
281	:	00FFE894;
282	:	00000539;
283	:	00000AA2;
284	:	0000113D;
285	:	0000024C;
286	:	00000F9F;
287	:	00001F17;
288	:	00000E1D;
289	:	0000020D;
290	:	00001071;
291	:	00FFFB3F;
292	:	00FFEF87;
293	:	000029AA;
294	:	000024C1;
295	:	00002212;
296	:	00001396;
297	:	00FFE748;
298	:	00FFEA91;
299	:	00FFF65B;
300	:	0000082A;
301	:	00FFF16F;
302	:	00FFD53F;
303	:	000028B0;
304	:	00002CEC;
305	:	00001FB8;
306	:	0000204D;
307	:	00000E32;
308	:	00000EE6;
309	:	00000D0B;
310	:	00000A24;
311	:	0000085E;
312	:	00FFF998;
313	:	000016F4;
314	:	000019D5;
315	:	00001BA5;
316	:	00FFFD73;
317	:	00001735;
318	:	00FFFF7D;
319	:	00002EE3;
320	:	00FFF753;
321	:	00FFF8F4;
322	:	00001697;
323	:	00000026;
324	:	00FFF906;
325	:	000018B1;
326	:	00002476;
327	:	00FFFB78;
328	:	00FFED8F;
329	:	00FFF7B3;
330	:	00000AAD;
331	:	000006BF;
332	:	00001003;
333	:	0000114F;
334	:	00FFD09C;
335	:	00FFD605;
336	:	00FFF21D;
337	:	00FFEA0C;
338	:	00FFEBA1;
339	:	00FFEA02;
340	:	00FFFB5C;
341	:	00FFEEC5;
342	:	00FFE139;
343	:	00FFF788;
344	:	00FFF62E;
345	:	00FFEC67;
346	:	00FFF4B2;
347	:	00FFFF84;
348	:	00FFFE62;
349	:	00FFF72B;
350	:	00FFF716;
351	:	00FFF693;
352	:	00FFF71D;
353	:	00FFF6D5;
354	:	00FFF949;
355	:	00FFFFC0;
356	:	00FFF971;
357	:	00000032;
358	:	00FFFB80;
359	:	0000017C;
360	:	00FFFB78;
361	:	00FFFB39;
362	:	00FFF702;
363	:	00FFFD19;
364	:	00FFFE76;
365	:	00FFF845;
366	:	00FFED9A;
367	:	00FFEF4A;
368	:	00FFE96A;
369	:	00FFDCC1;
370	:	00FFEBE8;
371	:	00FFF4FF;
372	:	00FFF818;
373	:	00000138;
374	:	000001D3;
375	:	000000A2;
376	:	00FFFAC3;
377	:	00FFF4BB;
378	:	00FFECE2;
379	:	00FFEA79;
380	:	00FFEB4C;
381	:	00FFFBFA;
382	:	00FFE69C;
383	:	00FFF4C7;
384	:	00FFFFE4;
385	:	00FFFF25;
386	:	00FFFBEA;
387	:	00FFFE7A;
388	:	00FFF960;
389	:	00FFEF9A;
390	:	00FFE58D;
391	:	00000271;
392	:	000006B2;
393	:	0000140E;
394	:	0000027B;
395	:	00FFFD72;
396	:	00FFF8FA;
397	:	00FFF966;
398	:	00FFF04F;
399	:	00FFEB23;
400	:	00FFF7EF;
401	:	000004C4;
402	:	00001F39;
403	:	00003157;
404	:	00000405;
405	:	00FFF737;
406	:	00FFF8CF;
407	:	00FFFA44;
408	:	00FFFB51;
409	:	00FFE8F3;
410	:	00FFD234;
411	:	00FFCEF2;
412	:	00FFE9BE;
413	:	00000398;
414	:	000020E8;
415	:	00000737;
416	:	000007C7;
417	:	00000198;
418	:	00FFFB6D;
419	:	00FFFFEC;
420	:	00FFFE26;
421	:	000003FF;
422	:	00FFF2F1;
423	:	00FFBB65;
424	:	00FFE302;
425	:	00FFEAAE;
426	:	00FFF35A;
427	:	0000097D;
428	:	00001544;
429	:	0000048E;
430	:	000007BE;
431	:	00001A49;
432	:	00003E1C;
433	:	0000172B;
434	:	00FFDFF2;
435	:	00FFEBE8;
436	:	00FFEC2C;
437	:	00FFF322;
438	:	00000D6D;
439	:	00000FFF;
440	:	000004E5;
441	:	000006A4;
442	:	00000B1B;
443	:	000003FB;
444	:	00001F7B;
445	:	00FFE533;
446	:	00FFF261;
447	:	00FFDDDE;
448	:	000018BD;
449	:	00001ABC;
450	:	00000B56;
451	:	00FFFCB4;
452	:	00FFF63C;
453	:	00FFEBC1;
454	:	00FFF560;
455	:	000000EE;
456	:	00000E84;
457	:	00FFE747;
458	:	00FFDC0B;
459	:	00000C81;
460	:	00FFEA37;
461	:	00FFFCAC;
462	:	00000333;
463	:	00FFFC00;
464	:	00FFEEA0;
465	:	00FFE74C;
466	:	00FFECFB;
467	:	00000AF9;
468	:	00000A98;
469	:	0000010F;
470	:	00FFFCE8;
471	:	00000867;
472	:	00000217;
473	:	00000211;
474	:	00FFFD93;
475	:	00FFFE5F;
476	:	00FFFFB5;
477	:	00FFFE49;
478	:	00FFFA3D;
479	:	00FFFAD1;
480	:	000000F9;
481	:	00FFFF6E;
482	:	00FFFECB;
483	:	00FFFE68;
484	:	0000029A;
485	:	000007E6;
486	:	00000E9E;
487	:	00000D03;
488	:	00000DE6;
489	:	000010F2;
490	:	00FFFFDA;
491	:	000009BD;
492	:	00000373;
493	:	00FFFE75;
494	:	00FFFD11;
495	:	0000029D;
496	:	00001DF8;
497	:	00001C7E;
498	:	00FFE9BE;
499	:	000001D5;
500	:	00FFF744;
501	:	00FFEF42;
502	:	00FFEFBC;
503	:	00FFF81A;
504	:	00FFFAE1;
505	:	00000016;
506	:	000006B7;
507	:	00001CB5;
508	:	00002391;
509	:	00000C43;
510	:	00FFFB62;
511	:	00FFFEE3;
512	:	00FFEB90;
513	:	00FFEC39;
514	:	00FFF65C;
515	:	000000C8;
516	:	0000053B;
517	:	00000571;
518	:	00000176;
519	:	00FFEB1B;
520	:	00FFFFFD;
521	:	00FFD43B;
522	:	00FFF0A4;
523	:	00FFF626;
524	:	00FFF34A;
525	:	00FFF238;
526	:	0000022E;
527	:	00FFFFE6;
528	:	00000F73;
529	:	00FFFF07;
530	:	000005AC;
531	:	0000081A;
532	:	00FFF2CB;
533	:	00FFEFA1;
534	:	00FFD95A;
535	:	00FFE518;
536	:	00FFF0A9;
537	:	00000179;
538	:	00FFFF4F;
539	:	00001630;
540	:	00001777;
541	:	00000CD6;
542	:	000029F0;
543	:	00FFFCBB;
544	:	00FFC4BF;
545	:	00FFA022;
546	:	00FFB317;
547	:	00FFDBC8;
548	:	000000AB;
549	:	0000055E;
550	:	00000DED;
551	:	0000102B;
552	:	00002255;
553	:	00003BC2;
554	:	00FFD2D3;
555	:	00FFBD7E;
556	:	00FFE65B;
557	:	00FFF1A6;
558	:	00FFE24E;
559	:	00FFFBB8;
560	:	00FFFDA0;
561	:	00FFFC38;
562	:	00FFF50A;
563	:	00000207;
564	:	00000044;
565	:	00FFC946;
566	:	00FFDB25;
567	:	00FFD736;
568	:	00FFF3F0;
569	:	00FFFED4;
570	:	00FFF7C0;
571	:	00000503;
572	:	00FFF694;
573	:	00FFEC99;
574	:	00FFE5D9;
575	:	00FFE33E;
576	:	00FFFA4E;
577	:	00000440;
578	:	000003E0;
579	:	00001070;
580	:	0000087F;
581	:	00FFFFA4;
582	:	00FFFE08;
583	:	00FFFA69;
584	:	00FFF8F0;
585	:	00FFF7DE;
586	:	00FFFCC3;
587	:	00FFFE5E;
588	:	0000023C;
589	:	00FFFE4F;
590	:	00FFFD19;
591	:	00000594;
592	:	00000343;
593	:	00FFFB55;
594	:	000003F3;
595	:	00FFFDB1;
596	:	000000C0;
597	:	00000485;
598	:	00000160;
599	:	00FFFDD9;
600	:	000002E5;
601	:	00FFFF90;
602	:	00000438;
603	:	00000446;
604	:	000000D1;
605	:	00FFFCCF;
606	:	00FFFC72;
607	:	00FFFAEF;
608	:	00FFFDBB;
609	:	00FFFB18;
610	:	00FFF6C4;
611	:	00FFF8A8;
612	:	0000013E;
613	:	00FFFC73;
614	:	00FFFB42;
615	:	00FFFF8C;
616	:	00FFFCA2;
617	:	00FFEF9F;
618	:	0000043D;
619	:	00FFEAA3;
620	:	00FFCFFD;
621	:	00FFD07B;
622	:	00FFE476;
623	:	00FFE6BA;
624	:	00FFEFDC;
625	:	00FFF832;
626	:	00FFFD9D;
627	:	00FFFC2A;
628	:	00FFF739;
629	:	00FFF4EB;
630	:	00FFE386;
631	:	00FFC450;
632	:	00FFD968;
633	:	00FFF194;
634	:	00FFECB1;
635	:	00FFE6A0;
636	:	00FFF30C;
637	:	00FFFE24;
638	:	00FFF505;
639	:	00FFDF08;
640	:	00FFEAC5;
641	:	00FFE3CF;
642	:	00FFBE78;
643	:	00FFDDC4;
644	:	00FFEB2E;
645	:	00FFEE08;
646	:	00FFECA4;
647	:	00FFFB3F;
648	:	000000F0;
649	:	00FFEDF3;
650	:	00FFE62A;
651	:	00FFE2FE;
652	:	00FFD938;
653	:	00FFCCAE;
654	:	00FFE97D;
655	:	00FFCB9E;
656	:	00FFC9DC;
657	:	00FFDFE0;
658	:	00FFE8A8;
659	:	00FFFB14;
660	:	00FFF84E;
661	:	00FFFDD6;
662	:	000007B3;
663	:	00FFFAAD;
664	:	00FFE5CF;
665	:	00FFD8ED;
666	:	00FFAD25;
667	:	00FFBE7E;
668	:	00FFE9D3;
669	:	00FFED0A;
670	:	00FFF802;
671	:	00FFFFB2;
672	:	00FFFEBA;
673	:	0000034C;
674	:	0000026B;
675	:	00FFFAC6;
676	:	00FFE874;
677	:	00FFDEF2;
678	:	00FFFBBB;
679	:	00FFE9AD;
680	:	00FFF1F0;
681	:	00000043;
682	:	000001A6;
683	:	0000020D;
684	:	000013ED;
685	:	0000133B;
686	:	00FFFF70;
687	:	00000B71;
688	:	000003E4;
689	:	00001468;
690	:	00001D22;
691	:	00002254;
692	:	0000169C;
693	:	00FFF1BB;
694	:	00FFF41D;
695	:	00FFF3DF;
696	:	0000044D;
697	:	00001BDC;
698	:	00000A05;
699	:	00002722;
700	:	000037C0;
701	:	00002568;
702	:	00002C1F;
703	:	00000E4A;
704	:	00FFFE20;
705	:	00FFE8C4;
706	:	00FFE8AE;
707	:	00FFE753;
708	:	000010D8;
709	:	000008C1;
710	:	0000359F;
711	:	00003B38;
712	:	000032FF;
713	:	0000202D;
714	:	0000026D;
715	:	000003DB;
716	:	00FFF863;
717	:	00FFF8A1;
718	:	00000197;
719	:	00001021;
720	:	00000F9A;
721	:	00FFFE26;
722	:	00000923;
723	:	000006E5;
724	:	00000C69;
725	:	00FFFCC7;
726	:	00FFFED2;
727	:	0000012E;
728	:	000006B0;
729	:	00001053;
730	:	00001202;
731	:	00FFFFDF;
732	:	00000B3C;
733	:	00001B96;
734	:	00000C0D;
735	:	0000012F;
736	:	0000013C;
737	:	00FFFE8F;
738	:	0000075A;
739	:	00001BA4;
740	:	000039FC;
741	:	000022BE;
742	:	000017F3;
743	:	00001478;
744	:	00000039;
745	:	000000ED;
746	:	00FFFE7E;
747	:	00FFFFA0;
748	:	00FFFBDB;
749	:	000006B3;
750	:	00001EC8;
751	:	00002DC4;
752	:	000012DC;
753	:	00000632;
754	:	00001AF5;
755	:	000007B1;
756	:	00FFFC04;
757	:	00FFF6C7;
758	:	00FFFAB6;
759	:	000004D9;
760	:	00001058;
761	:	000019E8;
762	:	00002BFA;
763	:	00001013;
764	:	00FFFCA2;
765	:	00001096;
766	:	00FFF0AE;
767	:	00FFFA2E;
768	:	00000A94;
769	:	0000019A;
770	:	00000803;
771	:	0000102F;
772	:	00000BDC;
773	:	000011F5;
774	:	00000397;
775	:	00FFF89F;
776	:	00FFEF32;
777	:	00000000;
778	:	00001248;
779	:	0000117E;
780	:	00000581;
781	:	000007DA;
782	:	00001794;
783	:	00001B2C;
784	:	00001D38;
785	:	000000D6;
786	:	00FFDE46;
787	:	00FFFAFD;
788	:	00FFF58A;
789	:	000013B0;
790	:	00000393;
791	:	00FFFB86;
792	:	0000028F;
793	:	000011A3;
794	:	000017CB;
795	:	00002028;
796	:	00000CD1;
797	:	00FFEEBF;
798	:	00002734;
799	:	00002FEE;
800	:	00001F23;
801	:	00000323;
802	:	00FFFC8A;
803	:	0000023B;
804	:	00FFFF9E;
805	:	00000E0C;
806	:	00000E57;
807	:	00FFF284;
808	:	00FFDF2F;
809	:	0000081E;
810	:	000002A5;
811	:	00FFF92E;
812	:	00FFF97C;
813	:	00FFFEF5;
814	:	0000029F;
815	:	00FFFF12;
816	:	00FFF236;
817	:	00FFEECF;
818	:	00FFEBCE;
819	:	00FFDC12;
820	:	00FFE8C6;
821	:	00FFF476;
822	:	00FFF4D3;
823	:	00000194;
824	:	000002FE;
825	:	00FFFDBA;
826	:	00FFFDFA;
827	:	00FFFCBE;
828	:	00000282;
829	:	00000281;
830	:	00FFFBD5;
831	:	00FFFF27;
832	:	00FFFA94;
833	:	00FFFDCB;
834	:	00FFFC20;
835	:	00FFFB06;
836	:	000000B2;
837	:	000002C5;
838	:	00FFFB95;
839	:	00FFFCBA;
840	:	00FFFF26;
841	:	00FFFE11;
842	:	0000028B;
843	:	000000A2;
844	:	0000047C;
845	:	00FFFF1B;
846	:	00000314;
847	:	00000351;
848	:	00FFF999;
849	:	00FFF790;
850	:	00FFE7FD;
851	:	00FFD95C;
852	:	00FFD36D;
853	:	00FFD9B5;
854	:	00FFF407;
855	:	00FFEF46;
856	:	00FFF446;
857	:	000004FB;
858	:	00FFFE02;
859	:	00000CD7;
860	:	000005D5;
861	:	00FFF47F;
862	:	00FFE618;
863	:	00FFECF4;
864	:	00FFE3E4;
865	:	00FFE22F;
866	:	00FFEFDD;
867	:	00FFF95B;
868	:	00FFF78B;
869	:	00FFFC00;
870	:	00000677;
871	:	00000D89;
872	:	00000DF3;
873	:	00FFF1D8;
874	:	000000C6;
875	:	0000004F;
876	:	00FFEFAD;
877	:	00FFF324;
878	:	00FFF71F;
879	:	00FFFE0B;
880	:	00FFFCC3;
881	:	00000FE6;
882	:	00001F14;
883	:	00000A5A;
884	:	00FFE7DC;
885	:	00001181;
886	:	00FFF2A6;
887	:	00FFD8B7;
888	:	00FFF463;
889	:	00000392;
890	:	00FFFF54;
891	:	00FFFD7D;
892	:	000004CE;
893	:	000010D0;
894	:	000013D2;
895	:	00FFF736;
896	:	00FFE8E1;
897	:	00FFE43C;
898	:	00FFFE83;
899	:	00001791;
900	:	000011EC;
901	:	0000019F;
902	:	00FFFEE4;
903	:	00FFEEA6;
904	:	00FFE850;
905	:	000007CA;
906	:	00FFFDAC;
907	:	0000118D;
908	:	000000E3;
909	:	00001250;
910	:	00002F90;
911	:	00001EA8;
912	:	00000789;
913	:	00FFF999;
914	:	00FFFA2D;
915	:	00000892;
916	:	00FFFE07;
917	:	0000105D;
918	:	00003D52;
919	:	00002D83;
920	:	00002B2D;
921	:	00002350;
922	:	00000C33;
923	:	0000024D;
924	:	00FFFACD;
925	:	00FFF820;
926	:	00000559;
927	:	00FFEB3D;
928	:	00001D8D;
929	:	00004402;
930	:	000032E9;
931	:	0000218C;
932	:	00000A48;
933	:	00FFFCB7;
934	:	00FFFFC0;
935	:	00FFFD74;
936	:	000002AF;
937	:	00000002;
938	:	00FFEE5B;
939	:	00FFE71D;
940	:	00FFFDAC;
941	:	0000035A;
942	:	00000B26;
943	:	00000703;
944	:	00000677;
945	:	00FFFFB8;
946	:	0000003C;
947	:	00FFFD80;
948	:	00FFFEBC;
949	:	0000019B;
950	:	00FFFB03;
951	:	00FFFD2A;
952	:	00FFFF05;
953	:	00FFFFCC;
954	:	00000473;
955	:	00FFFB88;
956	:	00FFFDED;
957	:	00FFFBC5;
958	:	00FFFCCA;
959	:	00FFFD97;
960	:	000004AA;
961	:	00000018;
962	:	00000407;
963	:	000003CA;
964	:	00000208;
965	:	00FFFC4F;
966	:	00FFFF47;
967	:	000000F3;
968	:	00000000;
969	:	00000000;
970	:	00000000;
971	:	00000000;
972	:	00000000;
973	:	00000000;
974	:	00000000;
975	:	00000000;
976	:	00000000;
977	:	00000000;
978	:	00000000;
979	:	00000000;
980	:	00000000;
981	:	00000000;
982	:	00000000;
983	:	00000000;
984	:	00000000;
985	:	00000000;
986	:	00000000;
987	:	00000000;
988	:	00000000;
989	:	00000000;
990	:	00000000;
991	:	00000000;
992	:	00000000;
993	:	00000000;
994	:	00000000;
995	:	00000000;
996	:	00000000;
997	:	00000000;
998	:	00000000;
999	:	00000000;
1000	:	00000000;
1001	:	00000000;
1002	:	00000000;
1003	:	00000000;
1004	:	00000000;
1005	:	00000000;
1006	:	00000000;
1007	:	00000000;
1008	:	00000000;
1009	:	00000000;
1010	:	00000000;
1011	:	00000000;
1012	:	00000000;
1013	:	00000000;
1014	:	00000000;
1015	:	00000000;
1016	:	00000000;
1017	:	00000000;
1018	:	00000000;
1019	:	00000000;
1020	:	00000000;
1021	:	00000000;
1022	:	00000000;
1023	:	00000000;
END;