WIDTH = 24;
DEPTH=1024;

ADDRESS_RADIX=UNS;
DATA_RADIX=HEX;

CONTENT BEGIN
0	:	000001D6;
1	:	00000C65;
2	:	00FFF825;
3	:	00FFFFAF;
4	:	00FFF134;
5	:	0000096B;
6	:	0000018A;
7	:	000010BD;
8	:	00FFF68E;
9	:	00000505;
10	:	00FFF20E;
11	:	000013A0;
12	:	00FFF53B;
13	:	00000FDA;
14	:	000002D1;
15	:	000003EB;
16	:	00000D2C;
17	:	00FFFE41;
18	:	00FFF331;
19	:	00000ADA;
20	:	00000744;
21	:	0000097B;
22	:	00000068;
23	:	00FFECC2;
24	:	00FFF10E;
25	:	00FFF42D;
26	:	00000C6A;
27	:	00001244;
28	:	00000923;
29	:	000008DE;
30	:	00000235;
31	:	00FFED0E;
32	:	00000B97;
33	:	00FFEFCF;
34	:	00FFF6FB;
35	:	00FFEE6C;
36	:	00000F9A;
37	:	00001029;
38	:	00000553;
39	:	00000AF7;
40	:	00FFF857;
41	:	00FFFD52;
42	:	00000659;
43	:	00FFF679;
44	:	00FFFEC5;
45	:	00000D4C;
46	:	00FFEC56;
47	:	00000D08;
48	:	00000F7C;
49	:	00FFF699;
50	:	00000536;
51	:	00FFF9B0;
52	:	00FFF449;
53	:	00FFEDF8;
54	:	00FFF522;
55	:	000006CC;
56	:	00000F66;
57	:	00FFF9E4;
58	:	00000A0F;
59	:	00FFF157;
60	:	00000DB2;
61	:	00FFF4B0;
62	:	00000D71;
63	:	00FFEC1D;
64	:	00FFFA7D;
65	:	00FFFE16;
66	:	00000A41;
67	:	000011AA;
68	:	00FFF517;
69	:	00000BD5;
70	:	00001115;
71	:	000006BB;
72	:	00000802;
73	:	00000FDC;
74	:	000005FD;
75	:	00000DCC;
76	:	00000B31;
77	:	00FFFE06;
78	:	00000422;
79	:	00000A4F;
80	:	00000FC5;
81	:	00FFF5DC;
82	:	0000075D;
83	:	00000051;
84	:	00000C85;
85	:	00FFF69E;
86	:	0000075E;
87	:	00FFF2B7;
88	:	00001063;
89	:	00000F61;
90	:	00000F9F;
91	:	00000B49;
92	:	00000E83;
93	:	000010A7;
94	:	00000F50;
95	:	00FFFD07;
96	:	00001171;
97	:	000005DE;
98	:	00FFED36;
99	:	000008CF;
100	:	00FFFC8A;
101	:	00FFF9EB;
102	:	00FFF0F7;
103	:	00001256;
104	:	00FFF858;
105	:	00000AB5;
106	:	00000A65;
107	:	00001324;
108	:	00FFFB93;
109	:	00FFF671;
110	:	00001144;
111	:	00FFF81B;
112	:	00000060;
113	:	00FFEDB4;
114	:	00000E51;
115	:	00000ADA;
116	:	000009F0;
117	:	00000991;
118	:	00FFF008;
119	:	00FFEF03;
120	:	00001188;
121	:	00000686;
122	:	000004D2;
123	:	00000CD5;
124	:	00FFF93C;
125	:	000010F3;
126	:	00FFF77C;
127	:	000012D4;
128	:	00FFF3DC;
129	:	00FFEFC1;
130	:	00FFFDDE;
131	:	00000037;
132	:	000000A8;
133	:	00FFF403;
134	:	000006BA;
135	:	0000053F;
136	:	000003E7;
137	:	0000135F;
138	:	00FFED51;
139	:	00FFEEF5;
140	:	00000822;
141	:	00FFF038;
142	:	00FFEFE3;
143	:	00FFF5B6;
144	:	00FFFF98;
145	:	00FFF6AC;
146	:	00000460;
147	:	00FFF066;
148	:	00000933;
149	:	00001153;
150	:	00000C2C;
151	:	000005B4;
152	:	00000E27;
153	:	00FFFF37;
154	:	000009B0;
155	:	00FFF603;
156	:	00FFFB96;
157	:	00001092;
158	:	000004C9;
159	:	000000F0;
160	:	00FFEEB3;
161	:	00001381;
162	:	000013BC;
163	:	00000DA0;
164	:	00FFF60C;
165	:	00000B03;
166	:	00FFECB5;
167	:	0000022A;
168	:	00FFF570;
169	:	00FFF4F9;
170	:	00000F82;
171	:	00000355;
172	:	00FFF80D;
173	:	00FFF827;
174	:	00000EEE;
175	:	00001044;
176	:	00FFFBBE;
177	:	00000BF0;
178	:	0000101E;
179	:	00FFFEBA;
180	:	00FFFCFF;
181	:	00FFFDF0;
182	:	00FFF669;
183	:	00000D27;
184	:	00FFF5A3;
185	:	00000E0D;
186	:	00000F4A;
187	:	00FFFAFE;
188	:	00FFF1E1;
189	:	00FFF957;
190	:	00000762;
191	:	00000BA2;
192	:	00001262;
193	:	00000F5F;
194	:	00FFF73A;
195	:	00FFF933;
196	:	00FFF809;
197	:	000000A1;
198	:	00000A89;
199	:	00FFF0CC;
200	:	0000013A;
201	:	00000613;
202	:	000003AF;
203	:	00FFFCC9;
204	:	00FFF1EB;
205	:	00FFF0CB;
206	:	00FFF22D;
207	:	00000423;
208	:	00001025;
209	:	00000995;
210	:	00000877;
211	:	0000086E;
212	:	000009F6;
213	:	00FFF34E;
214	:	00FFED4C;
215	:	00FFF40C;
216	:	00FFEF94;
217	:	00FFF943;
218	:	000011A1;
219	:	00FFEF86;
220	:	00FFF134;
221	:	00FFFECC;
222	:	00001218;
223	:	00000AF6;
224	:	000012CD;
225	:	00000667;
226	:	00FFF63A;
227	:	00FFF0E0;
228	:	0000096D;
229	:	000009FB;
230	:	00FFF2C1;
231	:	000002A4;
232	:	00FFEC36;
233	:	00FFED17;
234	:	000002AD;
235	:	0000014A;
236	:	00000EAE;
237	:	00000417;
238	:	00000C01;
239	:	000009B1;
240	:	00FFEF06;
241	:	00FFF320;
242	:	00000F2A;
243	:	00FFF4E1;
244	:	00FFEDC6;
245	:	000007B6;
246	:	00FFEFA3;
247	:	00FFEF61;
248	:	00FFF02B;
249	:	00000901;
250	:	00FFF1B6;
251	:	00000265;
252	:	00FFED5F;
253	:	00000F6B;
254	:	00000DF1;
255	:	00000E59;
256	:	00000C9D;
257	:	00FFF711;
258	:	00FFFEB6;
259	:	0000125F;
260	:	00001235;
261	:	00000159;
262	:	00000C49;
263	:	00FFEE11;
264	:	00001184;
265	:	00FFF871;
266	:	00FFFF14;
267	:	00FFEFE5;
268	:	00000719;
269	:	00FFF7B3;
270	:	00FFFC34;
271	:	00FFF68D;
272	:	000002F2;
273	:	000008F5;
274	:	00FFEF36;
275	:	00FFFD18;
276	:	00FFF2F2;
277	:	0000081E;
278	:	00FFF36C;
279	:	00FFEFC2;
280	:	00FFEC49;
281	:	00001201;
282	:	00000C86;
283	:	00FFFD78;
284	:	000011D4;
285	:	00FFFD81;
286	:	00000DB6;
287	:	00FFFC4F;
288	:	00001245;
289	:	000002F3;
290	:	00000437;
291	:	000001B2;
292	:	00000BA1;
293	:	0000081A;
294	:	00FFF53C;
295	:	00FFF1FC;
296	:	00FFF75D;
297	:	0000058C;
298	:	00FFF375;
299	:	0000091C;
300	:	00FFF4A1;
301	:	00FFF6F0;
302	:	00000578;
303	:	00000484;
304	:	00FFFB00;
305	:	00FFFFAB;
306	:	00000E4C;
307	:	000012BA;
308	:	00FFFC8D;
309	:	00001257;
310	:	000000CD;
311	:	00001306;
312	:	00FFFA25;
313	:	00FFFD7E;
314	:	00FFFC65;
315	:	00FFEE44;
316	:	0000003A;
317	:	00000CC8;
318	:	00FFFE8C;
319	:	00FFEEBA;
320	:	000004EC;
321	:	00FFED36;
322	:	00FFFE03;
323	:	00000265;
324	:	000010B6;
325	:	00FFF8F4;
326	:	00FFF882;
327	:	00FFFC8E;
328	:	00000108;
329	:	00000926;
330	:	00001285;
331	:	00FFF62A;
332	:	00000140;
333	:	00FFEF6D;
334	:	00FFF1C0;
335	:	00000D6F;
336	:	00000F28;
337	:	00FFF90C;
338	:	00FFF660;
339	:	00FFF319;
340	:	00FFF765;
341	:	00FFFD79;
342	:	00FFFFC3;
343	:	00FFF24D;
344	:	00000CDA;
345	:	00001155;
346	:	00FFFB86;
347	:	00001338;
348	:	0000038A;
349	:	00FFFB20;
350	:	00FFF9C8;
351	:	00FFFAA1;
352	:	00FFF4D4;
353	:	00000D36;
354	:	00FFF6B0;
355	:	00FFEF03;
356	:	00000F41;
357	:	00FFFE28;
358	:	000011D1;
359	:	00FFFD81;
360	:	00000317;
361	:	00FFFEF8;
362	:	000010E3;
363	:	00FFF70C;
364	:	00000262;
365	:	00000D6D;
366	:	00000C04;
367	:	00FFF116;
368	:	00FFFA84;
369	:	00FFF7E1;
370	:	00FFF236;
371	:	00FFF0AC;
372	:	0000050A;
373	:	00FFF581;
374	:	00000D66;
375	:	00FFF849;
376	:	00FFEDEE;
377	:	00000318;
378	:	00FFFD0D;
379	:	00FFFB64;
380	:	000010CE;
381	:	00001100;
382	:	00FFEC69;
383	:	000000BF;
384	:	00FFFB04;
385	:	00000E0C;
386	:	00FFF6A0;
387	:	00000FE3;
388	:	00FFF178;
389	:	000011FD;
390	:	00FFF020;
391	:	000013F9;
392	:	00FFFC5C;
393	:	00000036;
394	:	00FFFD52;
395	:	00FFF319;
396	:	00FFFBCE;
397	:	00FFF76D;
398	:	00FFF8DF;
399	:	00FFF858;
400	:	00FFF5CC;
401	:	00FFF7F8;
402	:	00000690;
403	:	0000098C;
404	:	00FFF76E;
405	:	00000C5B;
406	:	00FFF434;
407	:	00FFF08C;
408	:	00000F82;
409	:	00FFFBFC;
410	:	00FFF024;
411	:	00FFFC33;
412	:	00FFEC61;
413	:	00FFED39;
414	:	00000E41;
415	:	00000637;
416	:	00000A9F;
417	:	00FFEC41;
418	:	0000094A;
419	:	00FFEE0E;
420	:	00FFF4F5;
421	:	00000142;
422	:	00000049;
423	:	00FFF2A6;
424	:	00FFFF15;
425	:	00001116;
426	:	00FFFF13;
427	:	00000875;
428	:	00FFF9B1;
429	:	0000011E;
430	:	000003AC;
431	:	000004AE;
432	:	00FFFAA0;
433	:	00000B1E;
434	:	00000BFA;
435	:	00FFF259;
436	:	0000096D;
437	:	00000AA4;
438	:	00FFFFD5;
439	:	00FFF922;
440	:	00FFF7C9;
441	:	00000603;
442	:	00FFEFCF;
443	:	00FFFBFD;
444	:	00FFFE9E;
445	:	00000E84;
446	:	00FFFF1F;
447	:	00FFF305;
448	:	000006DA;
449	:	00FFF621;
450	:	00FFF37F;
451	:	00000216;
452	:	00FFFBC1;
453	:	00000074;
454	:	00000146;
455	:	00000423;
456	:	00FFEE28;
457	:	000004A9;
458	:	00000ACF;
459	:	000001A7;
460	:	00FFEF7C;
461	:	00000DE5;
462	:	00FFF47D;
463	:	00FFED45;
464	:	00FFEC7E;
465	:	0000079E;
466	:	0000137E;
467	:	00000A3F;
468	:	00FFF8B5;
469	:	00000CC6;
470	:	00FFF503;
471	:	00FFF18B;
472	:	0000100A;
473	:	000004A8;
474	:	00FFFEAE;
475	:	00000179;
476	:	00FFF529;
477	:	0000121C;
478	:	00FFFC9F;
479	:	00000CEF;
480	:	00FFFB26;
481	:	00FFF520;
482	:	000009D4;
483	:	0000127D;
484	:	000005D7;
485	:	00000436;
486	:	000007A8;
487	:	00001372;
488	:	00000510;
489	:	00FFEEB2;
490	:	00FFF604;
491	:	00000C5E;
492	:	00000D3E;
493	:	00FFED1E;
494	:	000006C7;
495	:	00FFF4EC;
496	:	000001EB;
497	:	00FFEC7B;
498	:	00000840;
499	:	00FFF1E7;
500	:	0000122A;
501	:	00FFED4F;
502	:	00000110;
503	:	00000358;
504	:	00000EE2;
505	:	000003E2;
506	:	00000326;
507	:	00FFFE86;
508	:	00FFF5EA;
509	:	0000124F;
510	:	00FFF9F0;
511	:	00000F92;
512	:	000011FE;
513	:	00000FA9;
514	:	00FFF74B;
515	:	00000A3A;
516	:	000010FE;
517	:	00FFF416;
518	:	0000007F;
519	:	00FFF57C;
520	:	000006B8;
521	:	000011F6;
522	:	00FFF8D2;
523	:	00FFF9F7;
524	:	00FFFD32;
525	:	00000D79;
526	:	00000709;
527	:	00000043;
528	:	000001E5;
529	:	00000BA0;
530	:	00FFF0FF;
531	:	00FFED8C;
532	:	000006A3;
533	:	00FFF4CB;
534	:	00FFEE7B;
535	:	00FFF2BF;
536	:	00FFFFFF;
537	:	0000083E;
538	:	000008BB;
539	:	00FFFA6B;
540	:	00FFF1F8;
541	:	00000A51;
542	:	00000BF0;
543	:	000011B9;
544	:	00FFFE41;
545	:	00FFFB7D;
546	:	00FFFDF7;
547	:	00FFFC11;
548	:	00000A0C;
549	:	0000046D;
550	:	00FFF880;
551	:	00FFEEC2;
552	:	00000429;
553	:	00FFF2FA;
554	:	00FFF09A;
555	:	00FFF0D7;
556	:	00FFFB9B;
557	:	00FFEC8F;
558	:	00FFFE87;
559	:	00FFF864;
560	:	000004F1;
561	:	00FFF379;
562	:	0000116F;
563	:	00000C63;
564	:	00FFFB64;
565	:	000009D4;
566	:	0000086C;
567	:	00FFFFB9;
568	:	00001208;
569	:	00FFFF8B;
570	:	00FFED96;
571	:	00FFF15B;
572	:	00FFF38A;
573	:	00000E4C;
574	:	00FFF4FC;
575	:	0000108E;
576	:	00000AB1;
577	:	00FFF8C2;
578	:	00FFF79A;
579	:	00000B48;
580	:	00FFF27D;
581	:	00FFEFF4;
582	:	000000E9;
583	:	00FFF6B9;
584	:	00000749;
585	:	000003CB;
586	:	00000812;
587	:	00FFF932;
588	:	00FFF9D6;
589	:	00FFFDDE;
590	:	00000F7B;
591	:	00FFF9F5;
592	:	00FFFAA3;
593	:	00FFF308;
594	:	0000085D;
595	:	00FFFD05;
596	:	00000D51;
597	:	00001094;
598	:	00000278;
599	:	00FFFADD;
600	:	00FFF886;
601	:	00FFFD4F;
602	:	00000AC4;
603	:	00FFFDE4;
604	:	0000077B;
605	:	00000912;
606	:	00FFF3DE;
607	:	000011E8;
608	:	00FFF531;
609	:	00001223;
610	:	00FFED83;
611	:	00000EA1;
612	:	00FFFC2D;
613	:	000001F3;
614	:	00FFF350;
615	:	00FFEC78;
616	:	000009FB;
617	:	00FFF7AC;
618	:	00001330;
619	:	00FFF5A8;
620	:	00FFF2E6;
621	:	00000298;
622	:	00FFFC0C;
623	:	00FFF4BE;
624	:	0000034C;
625	:	00001399;
626	:	000013E2;
627	:	000004D9;
628	:	00FFF103;
629	:	00FFF4CD;
630	:	00FFF4BD;
631	:	00FFEFF7;
632	:	000000E6;
633	:	000007A4;
634	:	00FFF7EB;
635	:	00FFF71B;
636	:	00FFFBB1;
637	:	00FFFA1C;
638	:	00000EEF;
639	:	00000F7B;
640	:	00000883;
641	:	00FFEEA8;
642	:	00FFF2D1;
643	:	0000103F;
644	:	00000CDC;
645	:	00FFFE6A;
646	:	00000EE8;
647	:	0000078B;
648	:	00FFF51C;
649	:	0000074F;
650	:	00000236;
651	:	00FFEF53;
652	:	00000AAD;
653	:	00FFF5E6;
654	:	00000DD3;
655	:	00FFEF46;
656	:	000009EB;
657	:	00FFFACD;
658	:	00000F13;
659	:	00FFF2D9;
660	:	00FFFF3F;
661	:	0000119F;
662	:	000006CC;
663	:	00FFF2C8;
664	:	00FFF43D;
665	:	000010DC;
666	:	00FFF687;
667	:	00FFFD4C;
668	:	000011C3;
669	:	000001CB;
670	:	000009F7;
671	:	000005A8;
672	:	00FFFBC0;
673	:	00FFFE3A;
674	:	00FFEF76;
675	:	00000671;
676	:	00FFF5CB;
677	:	00000735;
678	:	0000108E;
679	:	0000011C;
680	:	0000017D;
681	:	00FFF56E;
682	:	000007AE;
683	:	00FFEE87;
684	:	00FFF873;
685	:	00000598;
686	:	000011DF;
687	:	000010AE;
688	:	00FFF0FB;
689	:	00FFFBF0;
690	:	00FFFF6F;
691	:	00FFF912;
692	:	00000414;
693	:	00001302;
694	:	00000869;
695	:	00000B61;
696	:	00FFFE01;
697	:	00000939;
698	:	00FFF0CB;
699	:	00FFF432;
700	:	00FFF4FC;
701	:	00000990;
702	:	00000957;
703	:	00FFF025;
704	:	00FFF52A;
705	:	000007E6;
706	:	00000BA8;
707	:	00FFF159;
708	:	00FFF321;
709	:	00FFF6EE;
710	:	00FFFD62;
711	:	00FFF2D6;
712	:	00000D4C;
713	:	00000CC9;
714	:	00FFEF7D;
715	:	00FFFE48;
716	:	00FFFBD2;
717	:	00000C1D;
718	:	00000BFD;
719	:	00000771;
720	:	00FFECBF;
721	:	00FFEDD1;
722	:	000007AF;
723	:	00000EED;
724	:	00FFF68A;
725	:	0000064B;
726	:	00000047;
727	:	00FFF24D;
728	:	0000065A;
729	:	00FFF5D0;
730	:	00FFF2DC;
731	:	00FFFD02;
732	:	00FFF77B;
733	:	00FFF145;
734	:	00FFF368;
735	:	00001265;
736	:	00000A51;
737	:	00000FDB;
738	:	00000933;
739	:	00000CD2;
740	:	00FFF28D;
741	:	000002DE;
742	:	00000FAC;
743	:	00000217;
744	:	00000D91;
745	:	00FFF686;
746	:	000007A0;
747	:	00FFECAC;
748	:	00FFFDDF;
749	:	00FFFCCB;
750	:	0000127F;
751	:	000001F0;
752	:	000010BA;
753	:	00000937;
754	:	00001001;
755	:	00FFF10B;
756	:	00FFF70F;
757	:	00000114;
758	:	00FFFDA6;
759	:	00FFF1A8;
760	:	00000755;
761	:	00000E75;
762	:	0000025C;
763	:	0000028A;
764	:	00000E07;
765	:	00000AF3;
766	:	0000053D;
767	:	000006EC;
768	:	00001057;
769	:	00001375;
770	:	00FFEC1C;
771	:	0000117F;
772	:	00FFFEB7;
773	:	00000EA8;
774	:	0000055C;
775	:	00FFF170;
776	:	00FFF65E;
777	:	0000085D;
778	:	00FFFDD0;
779	:	00000E0F;
780	:	00000DA0;
781	:	00FFF70B;
782	:	00000637;
783	:	00000424;
784	:	00FFFE95;
785	:	000012A5;
786	:	00FFF42D;
787	:	00000679;
788	:	00FFF305;
789	:	00FFF4E2;
790	:	0000048B;
791	:	00FFF863;
792	:	00000B42;
793	:	00000E70;
794	:	000009D6;
795	:	00000B8E;
796	:	0000011F;
797	:	00FFFFD7;
798	:	00FFFD3D;
799	:	00FFEF7F;
800	:	000000FC;
801	:	00FFFFE0;
802	:	00FFF296;
803	:	00000915;
804	:	00000712;
805	:	00000273;
806	:	00FFF635;
807	:	00FFEC0F;
808	:	00000225;
809	:	0000109F;
810	:	00FFF224;
811	:	00FFF7F0;
812	:	00000F7E;
813	:	00000C80;
814	:	00FFEE84;
815	:	00000CA5;
816	:	000004B6;
817	:	00FFFE89;
818	:	00FFFBA9;
819	:	00000132;
820	:	00FFF9E2;
821	:	00000E99;
822	:	00000727;
823	:	00FFED8E;
824	:	00000221;
825	:	000003E3;
826	:	00000430;
827	:	00FFF8D5;
828	:	00FFF212;
829	:	00FFF7AC;
830	:	00FFF84D;
831	:	00000AC7;
832	:	00FFF987;
833	:	00000B07;
834	:	00FFFAC1;
835	:	00000A2B;
836	:	000008C7;
837	:	00000717;
838	:	00FFECFD;
839	:	00000682;
840	:	00000DAD;
841	:	00FFF2DE;
842	:	00FFFE21;
843	:	00FFED96;
844	:	000007A7;
845	:	00000709;
846	:	00FFFC20;
847	:	0000021B;
848	:	00000087;
849	:	000008DF;
850	:	00FFF050;
851	:	000011D7;
852	:	000011FD;
853	:	00FFF87B;
854	:	00FFF8A4;
855	:	00FFFB02;
856	:	00FFF068;
857	:	00000C76;
858	:	00FFF6C3;
859	:	00FFFD0C;
860	:	00001400;
861	:	000006A1;
862	:	00000DC8;
863	:	00FFF0A5;
864	:	00FFF2D2;
865	:	000003EA;
866	:	00FFFA56;
867	:	00FFF9C6;
868	:	000000C0;
869	:	00FFF472;
870	:	00000AF2;
871	:	00FFF049;
872	:	00000B67;
873	:	00FFFA53;
874	:	00FFF9D8;
875	:	00000924;
876	:	00FFF16B;
877	:	000010F9;
878	:	00FFF311;
879	:	00000905;
880	:	00000BAA;
881	:	0000089F;
882	:	00000F87;
883	:	00000304;
884	:	00FFEC80;
885	:	000005F6;
886	:	00FFF340;
887	:	00FFFDF1;
888	:	00FFED1D;
889	:	00FFFEC6;
890	:	00000096;
891	:	00000465;
892	:	00FFFB0B;
893	:	00FFFB0E;
894	:	00000C89;
895	:	000002E6;
896	:	00000BFF;
897	:	00FFEDF3;
898	:	0000063B;
899	:	000009BF;
900	:	000010E0;
901	:	00FFFF16;
902	:	00FFEF09;
903	:	00000598;
904	:	00FFF900;
905	:	00000647;
906	:	000006AE;
907	:	0000091E;
908	:	00001032;
909	:	00FFF33C;
910	:	00000B72;
911	:	0000045D;
912	:	00000ECF;
913	:	00FFF9BA;
914	:	000010FA;
915	:	00FFFD78;
916	:	00FFFD85;
917	:	00FFFB8D;
918	:	00FFEF11;
919	:	00FFF7B5;
920	:	00000188;
921	:	0000069A;
922	:	00000413;
923	:	00000345;
924	:	000004FC;
925	:	00FFECCC;
926	:	00FFFE39;
927	:	00FFF67C;
928	:	00000085;
929	:	00000482;
930	:	00000CC6;
931	:	00000E78;
932	:	00FFEC80;
933	:	00FFFF84;
934	:	00FFFE33;
935	:	00FFF341;
936	:	00FFED1E;
937	:	00FFF5F8;
938	:	00FFEF14;
939	:	00000B87;
940	:	000004C0;
941	:	00000A48;
942	:	00FFFE13;
943	:	00000048;
944	:	0000119E;
945	:	00001296;
946	:	000013DE;
947	:	00FFFDAE;
948	:	00000721;
949	:	00FFEE64;
950	:	00000650;
951	:	0000125E;
952	:	00000946;
953	:	00001179;
954	:	00FFF18A;
955	:	00FFF952;
956	:	00001149;
957	:	00FFF443;
958	:	00FFED42;
959	:	00000D9D;
960	:	0000130A;
961	:	00FFFDF0;
962	:	00000777;
963	:	00FFFBF5;
964	:	00FFEDC5;
965	:	00FFFD09;
966	:	00FFFAE1;
967	:	00FFEFDC;
968	:	00000000;
969	:	00000000;
970	:	00000000;
971	:	00000000;
972	:	00000000;
973	:	00000000;
974	:	00000000;
975	:	00000000;
976	:	00000000;
977	:	00000000;
978	:	00000000;
979	:	00000000;
980	:	00000000;
981	:	00000000;
982	:	00000000;
983	:	00000000;
984	:	00000000;
985	:	00000000;
986	:	00000000;
987	:	00000000;
988	:	00000000;
989	:	00000000;
990	:	00000000;
991	:	00000000;
992	:	00000000;
993	:	00000000;
994	:	00000000;
995	:	00000000;
996	:	00000000;
997	:	00000000;
998	:	00000000;
999	:	00000000;
1000	:	00000000;
1001	:	00000000;
1002	:	00000000;
1003	:	00000000;
1004	:	00000000;
1005	:	00000000;
1006	:	00000000;
1007	:	00000000;
1008	:	00000000;
1009	:	00000000;
1010	:	00000000;
1011	:	00000000;
1012	:	00000000;
1013	:	00000000;
1014	:	00000000;
1015	:	00000000;
1016	:	00000000;
1017	:	00000000;
1018	:	00000000;
1019	:	00000000;
1020	:	00000000;
1021	:	00000000;
1022	:	00000000;
1023	:	00000000;
END;