WIDTH = 24;
DEPTH=1024;

ADDRESS_RADIX=UNS;
DATA_RADIX=HEX;

CONTENT BEGIN
0	:	00FFFF3B;
1	:	00000048;
2	:	00FFF20B;
3	:	00FFEE89;
4	:	00FFF0D5;
5	:	00FFF6E3;
6	:	0000113D;
7	:	00FFFE38;
8	:	000002B8;
9	:	000015C4;
10	:	00000B72;
11	:	0000004F;
12	:	00FFFD34;
13	:	00000D11;
14	:	00001ED2;
15	:	00002F91;
16	:	00003F51;
17	:	000040F8;
18	:	0000382B;
19	:	00001C20;
20	:	00000AEE;
21	:	00001F48;
22	:	00000415;
23	:	0000088C;
24	:	000024CD;
25	:	0000525E;
26	:	00004394;
27	:	000048DD;
28	:	00002197;
29	:	00003322;
30	:	0000271A;
31	:	00001815;
32	:	0000011F;
33	:	00000331;
34	:	0000044E;
35	:	000021F2;
36	:	00005379;
37	:	000027ED;
38	:	000028A6;
39	:	00000B31;
40	:	00003061;
41	:	00001D3A;
42	:	00FFFAF4;
43	:	00FFF702;
44	:	00FFFF71;
45	:	00000799;
46	:	00001751;
47	:	00000D9D;
48	:	00FFFB6E;
49	:	00FFF90F;
50	:	00FFF1B2;
51	:	000026A6;
52	:	00FFFA62;
53	:	00000871;
54	:	00000092;
55	:	00000428;
56	:	0000116A;
57	:	000007B4;
58	:	00000262;
59	:	00FFEB3C;
60	:	00FFF3B7;
61	:	00FFDF16;
62	:	00001EEE;
63	:	00FFFAB5;
64	:	000004FF;
65	:	00FFF8AE;
66	:	00FFFCB7;
67	:	00000E6E;
68	:	00FFFF09;
69	:	00000F1A;
70	:	00FFFEEB;
71	:	00FFE9A6;
72	:	00FFE1D0;
73	:	00FFDF6A;
74	:	00FFEB4F;
75	:	000008D0;
76	:	00000163;
77	:	00FFFDB0;
78	:	000004B2;
79	:	00FFFAF8;
80	:	0000030A;
81	:	00FFF104;
82	:	00FFF288;
83	:	00FFE49A;
84	:	00FFC323;
85	:	00FFFE0B;
86	:	00000041;
87	:	00FFFBEA;
88	:	00000179;
89	:	00FFFD2F;
90	:	00FFFCA7;
91	:	00FFF884;
92	:	00000885;
93	:	000010A4;
94	:	00000212;
95	:	00000F77;
96	:	00FFFB28;
97	:	00FFFDF2;
98	:	00FFFD0B;
99	:	00FFFF96;
100	:	0000012D;
101	:	0000020A;
102	:	00FFFF1A;
103	:	00000CBA;
104	:	000019F6;
105	:	000024E2;
106	:	000036E0;
107	:	00000F7D;
108	:	0000099D;
109	:	00001624;
110	:	000000D2;
111	:	00000035;
112	:	00FFFAA4;
113	:	00FFFD7A;
114	:	00001251;
115	:	00FFFEF1;
116	:	000001A9;
117	:	00000B59;
118	:	00001D72;
119	:	00000156;
120	:	00000F20;
121	:	00FFF8A2;
122	:	00000219;
123	:	00FFF84E;
124	:	00FFF88A;
125	:	00FFF715;
126	:	00FFF692;
127	:	00FFFB68;
128	:	00FFF872;
129	:	00FFF85D;
130	:	00FFF47B;
131	:	00FFFB5E;
132	:	00FFFCA3;
133	:	00FFFB69;
134	:	00FFF35B;
135	:	00000014;
136	:	00FFFB98;
137	:	00FFF455;
138	:	00FFF2AD;
139	:	00FFF3ED;
140	:	00FFFEB2;
141	:	00FFFE53;
142	:	00000095;
143	:	00FFF013;
144	:	00FFF051;
145	:	00FFE06C;
146	:	00FFE008;
147	:	00FFC826;
148	:	00FFB499;
149	:	00FFC056;
150	:	00FFDE9B;
151	:	00FFF5A1;
152	:	00FFF52C;
153	:	00FFF9E1;
154	:	00FFF6E3;
155	:	00FFEEED;
156	:	00FFE528;
157	:	00FFE509;
158	:	00FFCF6C;
159	:	00FFDEF8;
160	:	00FFD402;
161	:	00FFDB12;
162	:	00FFEC9E;
163	:	00FFF255;
164	:	00000008;
165	:	00FFEDD1;
166	:	00FFE438;
167	:	00FFEC27;
168	:	00FFE93E;
169	:	00FFDDF0;
170	:	00FFDD38;
171	:	00FFE573;
172	:	00FFE3A0;
173	:	00FFEB12;
174	:	00FFF77D;
175	:	00FFFD5E;
176	:	00FFF940;
177	:	000024EF;
178	:	00001EB1;
179	:	000014AA;
180	:	00001CB1;
181	:	00FFED13;
182	:	00FFE1C9;
183	:	00FFF22C;
184	:	000005BB;
185	:	00000A41;
186	:	000002F5;
187	:	0000217B;
188	:	000044C4;
189	:	00004922;
190	:	00004F62;
191	:	00004E03;
192	:	000019B2;
193	:	00000547;
194	:	00FFFA1F;
195	:	00000815;
196	:	00000555;
197	:	00FFFEC1;
198	:	00002552;
199	:	0000254C;
200	:	00001F5D;
201	:	000030C9;
202	:	0000355E;
203	:	0000117A;
204	:	00FFED77;
205	:	000005B5;
206	:	00001541;
207	:	00001059;
208	:	00FFF7EC;
209	:	000012F1;
210	:	000014D9;
211	:	00000F89;
212	:	000003C4;
213	:	00000D0F;
214	:	00FFEE88;
215	:	00FFDF34;
216	:	00FFE726;
217	:	00000881;
218	:	000011D4;
219	:	00FFFC73;
220	:	00000A23;
221	:	00FFFBE5;
222	:	00FFE997;
223	:	00FFE82A;
224	:	00FFD636;
225	:	00FFD055;
226	:	00FFDEC6;
227	:	00000339;
228	:	00002743;
229	:	00000534;
230	:	00FFF829;
231	:	00FFF5B8;
232	:	00FFE6F1;
233	:	00FFD75B;
234	:	00FFCFF9;
235	:	00FFD076;
236	:	00FFE9F9;
237	:	000018A3;
238	:	00002A63;
239	:	00003109;
240	:	000011A4;
241	:	000000D0;
242	:	00FFFDBC;
243	:	000001A3;
244	:	00FFFA84;
245	:	00FFF497;
246	:	00FFF608;
247	:	00FFF55E;
248	:	00FFF792;
249	:	00FFFD8A;
250	:	00FFF7AF;
251	:	00FFF6E2;
252	:	0000069E;
253	:	0000040E;
254	:	00FFFEFB;
255	:	00FFFE2E;
256	:	00FFFA2E;
257	:	00FFFFE8;
258	:	00FFFFD2;
259	:	0000059A;
260	:	00FFFFE7;
261	:	0000088A;
262	:	00001AD9;
263	:	000028D0;
264	:	00FFF9DB;
265	:	00FFFE5F;
266	:	000001D8;
267	:	00FFF373;
268	:	000006C1;
269	:	00001386;
270	:	0000009B;
271	:	00000A76;
272	:	00002809;
273	:	00002D2F;
274	:	00003921;
275	:	000001B3;
276	:	00FFF271;
277	:	00FFF610;
278	:	00FFE8AA;
279	:	00FFFC6C;
280	:	00001648;
281	:	00FFEBB0;
282	:	00000969;
283	:	000021A1;
284	:	00002AB6;
285	:	00003080;
286	:	00FFFF7D;
287	:	00FFF4E1;
288	:	00FFF5AF;
289	:	00000587;
290	:	00003199;
291	:	00000BFA;
292	:	00FFEB90;
293	:	00FFFC84;
294	:	00000C62;
295	:	00002408;
296	:	00001146;
297	:	00FFF2FB;
298	:	00FFEF4B;
299	:	0000061F;
300	:	000005B5;
301	:	00FFFBD1;
302	:	00FFE3F1;
303	:	00FFE494;
304	:	00FFD61D;
305	:	00001112;
306	:	00002F5F;
307	:	0000063B;
308	:	00FFFEF5;
309	:	0000077D;
310	:	00000BED;
311	:	000010B1;
312	:	00FFF0F6;
313	:	00FFD9C3;
314	:	00FFDCC2;
315	:	00FFE791;
316	:	00000D1C;
317	:	0000227A;
318	:	00FFF367;
319	:	000003B3;
320	:	00001920;
321	:	00001CD9;
322	:	00000515;
323	:	00FFF535;
324	:	0000032D;
325	:	00FFE294;
326	:	00FFE538;
327	:	00FFF13A;
328	:	000017F1;
329	:	00000C75;
330	:	000004E6;
331	:	00001677;
332	:	00001687;
333	:	00000147;
334	:	00000E42;
335	:	00FFFA83;
336	:	00FFE953;
337	:	00FFF1BF;
338	:	00FFE5A3;
339	:	000009D7;
340	:	00FFF7D1;
341	:	00FFFA9E;
342	:	0000039B;
343	:	00FFFFC3;
344	:	00001687;
345	:	00002166;
346	:	00000B4C;
347	:	00FFF445;
348	:	00FFEEB9;
349	:	00FFE07B;
350	:	00FFEF49;
351	:	00FFF9D5;
352	:	000000F7;
353	:	00FFF22E;
354	:	000000E4;
355	:	00000B4C;
356	:	00001F46;
357	:	000001E8;
358	:	00000B97;
359	:	00FFF98F;
360	:	00FFF2F2;
361	:	00FFF681;
362	:	00FFFD1E;
363	:	00FFFA43;
364	:	00FFFF55;
365	:	00FFFC32;
366	:	00000150;
367	:	00FFFEA7;
368	:	00FFF62E;
369	:	00FFFDC9;
370	:	00FFFD74;
371	:	00FFFC32;
372	:	00FFFB82;
373	:	0000019E;
374	:	00FFFD3E;
375	:	00FFFDBB;
376	:	00FFFB2B;
377	:	00FFE0B0;
378	:	00FFD2C6;
379	:	00FFD80A;
380	:	00FFCCE8;
381	:	00FFEA58;
382	:	00FFFEB4;
383	:	00000344;
384	:	000006A9;
385	:	0000087C;
386	:	00000278;
387	:	00FFCFD0;
388	:	00FFC3A6;
389	:	00FFB30B;
390	:	00FFACBE;
391	:	00FFD012;
392	:	00FFD224;
393	:	00FFD8DA;
394	:	000003CB;
395	:	00000C0B;
396	:	00000C2C;
397	:	00FFE780;
398	:	00FFCC85;
399	:	00FFE389;
400	:	00FFEDAD;
401	:	00FFF525;
402	:	00FFC797;
403	:	00FFC69E;
404	:	00FFF0AC;
405	:	00000804;
406	:	00000DD4;
407	:	000006AC;
408	:	0000040A;
409	:	00FFFDEA;
410	:	000002FF;
411	:	00FFF442;
412	:	00000D4F;
413	:	00FFE8D9;
414	:	00FFC2A0;
415	:	00FFE5F2;
416	:	00000486;
417	:	00FFFF0E;
418	:	00000389;
419	:	00001C03;
420	:	00000B80;
421	:	00000B80;
422	:	00FFF6A4;
423	:	00FFF9B6;
424	:	00FFDB4E;
425	:	00FFD9A6;
426	:	00FFFE50;
427	:	00000047;
428	:	000002A8;
429	:	000004E1;
430	:	00FFF737;
431	:	00FFDF09;
432	:	00FFEE6B;
433	:	00FFCDC3;
434	:	00FFEE9A;
435	:	00000A9C;
436	:	00000852;
437	:	00FFF6FF;
438	:	00FFFD71;
439	:	00000237;
440	:	000009D3;
441	:	000007E2;
442	:	000000AE;
443	:	00FFEE4D;
444	:	00000A93;
445	:	0000198D;
446	:	00002E0C;
447	:	000025C9;
448	:	000005FE;
449	:	00FFFF72;
450	:	00FFFB04;
451	:	00FFFE13;
452	:	00000431;
453	:	00FFF99C;
454	:	00FFECC8;
455	:	00FFF0E9;
456	:	00000824;
457	:	00001662;
458	:	00000681;
459	:	00000555;
460	:	00FFFD6E;
461	:	00FFFB72;
462	:	00000145;
463	:	00FFF700;
464	:	00FFF7C1;
465	:	00FFF9E4;
466	:	00FFF87D;
467	:	00FFFE7A;
468	:	00FFF50C;
469	:	00FFFB83;
470	:	00FFFA21;
471	:	00FFFF11;
472	:	00000136;
473	:	00FFFF00;
474	:	000001BF;
475	:	0000008A;
476	:	00FFFA7F;
477	:	00FFF8B3;
478	:	00FFFB6A;
479	:	00FFFFAC;
480	:	00FFFFC5;
481	:	00FFFD76;
482	:	00FFFBFD;
483	:	00FFFC02;
484	:	00000259;
485	:	00000293;
486	:	000001B0;
487	:	00000146;
488	:	00FFFBBF;
489	:	00FFFA22;
490	:	0000004C;
491	:	00000130;
492	:	000003A6;
493	:	00000242;
494	:	00FFFFE1;
495	:	00FFFF1A;
496	:	00FFFC23;
497	:	00FFFC34;
498	:	00FFFA67;
499	:	00FFFBB8;
500	:	00FFF293;
501	:	0000129C;
502	:	00000BAA;
503	:	0000034F;
504	:	00000027;
505	:	000003AB;
506	:	00FFFDDA;
507	:	000006E0;
508	:	000000F8;
509	:	00FFF4AE;
510	:	000004AA;
511	:	00FFFDA7;
512	:	000020A6;
513	:	000016D2;
514	:	00000CC2;
515	:	00001697;
516	:	000016F1;
517	:	0000030F;
518	:	0000023B;
519	:	0000132C;
520	:	00000FF7;
521	:	00003F29;
522	:	00001FE9;
523	:	00001A8B;
524	:	000010BD;
525	:	000020CC;
526	:	00001790;
527	:	0000240E;
528	:	00FFFCFA;
529	:	000004DC;
530	:	00000EBC;
531	:	00001B9C;
532	:	000015FF;
533	:	00004B20;
534	:	00001CF4;
535	:	00001E9A;
536	:	00003FB8;
537	:	000024E0;
538	:	000013B1;
539	:	00000178;
540	:	00FFFDA0;
541	:	000024EC;
542	:	0000351A;
543	:	00002D76;
544	:	0000300E;
545	:	000018B7;
546	:	0000116B;
547	:	0000232D;
548	:	00000B5F;
549	:	00000A49;
550	:	00000047;
551	:	00FFFB43;
552	:	000001BB;
553	:	00002496;
554	:	00003380;
555	:	000032A7;
556	:	00FFEB44;
557	:	00FFF100;
558	:	00000DCD;
559	:	00000EA6;
560	:	00000608;
561	:	00FFFC1D;
562	:	00FFFD86;
563	:	00FFF88C;
564	:	000009DE;
565	:	00000493;
566	:	00FFFA33;
567	:	00FFEB12;
568	:	0000034E;
569	:	00FFFFFB;
570	:	00000E3E;
571	:	0000177B;
572	:	00FFFF93;
573	:	00FFFED9;
574	:	00FFFC3C;
575	:	00FFF5E3;
576	:	00FFF10A;
577	:	000000D5;
578	:	00FFEF3A;
579	:	00FFE865;
580	:	00000EEE;
581	:	00000D1C;
582	:	000010A7;
583	:	0000004D;
584	:	000002DB;
585	:	00000064;
586	:	00000008;
587	:	00FFFE4E;
588	:	00000657;
589	:	00FFF2C7;
590	:	000014FC;
591	:	00FFFF88;
592	:	00FFFEF9;
593	:	0000038D;
594	:	00FFFEEA;
595	:	00000271;
596	:	00FFFE12;
597	:	00FFFD0A;
598	:	00FFFBAB;
599	:	000007B5;
600	:	00FFF7B1;
601	:	00FFF5B0;
602	:	00FFF62A;
603	:	0000014E;
604	:	00FFFF85;
605	:	00000040;
606	:	00FFFD06;
607	:	00FFF386;
608	:	0000021A;
609	:	00000039;
610	:	00FFF982;
611	:	00FFF293;
612	:	00FFF923;
613	:	00FFFA74;
614	:	00FFFE27;
615	:	00FFFB86;
616	:	00FFFF48;
617	:	00000DD9;
618	:	00FFF9F3;
619	:	00FFF5A8;
620	:	00FFEA51;
621	:	00FFDF4E;
622	:	00FFDE7C;
623	:	00FFD2F1;
624	:	00FFEB2E;
625	:	00FFE460;
626	:	00FFFB2C;
627	:	0000031B;
628	:	00000932;
629	:	000011DB;
630	:	00000091;
631	:	00FFDB8F;
632	:	00FFCEA2;
633	:	00FFCC3C;
634	:	00FFF769;
635	:	00FFEE3A;
636	:	00FFF578;
637	:	00FFFAF7;
638	:	00FFFBF2;
639	:	00001E67;
640	:	0000217C;
641	:	0000150E;
642	:	00000D30;
643	:	00FFE193;
644	:	00FFE360;
645	:	00FFE96C;
646	:	00FFE26D;
647	:	00FFF451;
648	:	00FFF47F;
649	:	00FFFFF5;
650	:	00FFF506;
651	:	00001274;
652	:	00002817;
653	:	00001675;
654	:	00FFFC1E;
655	:	00FFFAD5;
656	:	00FFF33E;
657	:	00FFF32F;
658	:	00FFF00A;
659	:	00FFEA05;
660	:	0000003A;
661	:	00FFFDF5;
662	:	00000576;
663	:	0000281A;
664	:	00003A34;
665	:	000001D5;
666	:	00FFE9CA;
667	:	00FFEBB8;
668	:	00FFEEC9;
669	:	00FFF99C;
670	:	00FFF4A6;
671	:	0000036D;
672	:	000000B2;
673	:	00000E0F;
674	:	0000102D;
675	:	0000054B;
676	:	00000354;
677	:	00FFD7D6;
678	:	00FFEF2A;
679	:	00FFE0AD;
680	:	00FFECF1;
681	:	00000072;
682	:	000001A0;
683	:	000009E5;
684	:	00000269;
685	:	00000B6A;
686	:	00000EEF;
687	:	00FFF13A;
688	:	00FFE536;
689	:	00FFF641;
690	:	00FFEE03;
691	:	00FFEA9A;
692	:	00FFF1FD;
693	:	000001FC;
694	:	00FFF755;
695	:	00FFF7E6;
696	:	00FFF574;
697	:	00FFF0A1;
698	:	00FFEAFB;
699	:	00FFF379;
700	:	00FFF69A;
701	:	00000C8C;
702	:	00001A9D;
703	:	00FFFEA7;
704	:	00000293;
705	:	00FFFB91;
706	:	00FFFB33;
707	:	00FFF988;
708	:	00FFF870;
709	:	00FFF355;
710	:	0000019B;
711	:	0000139F;
712	:	00000D3E;
713	:	0000077F;
714	:	00FFFE82;
715	:	00FFFEED;
716	:	0000047A;
717	:	00FFFFDE;
718	:	00FFFE39;
719	:	00FFFFD9;
720	:	000008CF;
721	:	00FFFB1F;
722	:	00FFFADC;
723	:	00FFF120;
724	:	00FFFA3C;
725	:	00FFFD95;
726	:	0000049E;
727	:	0000005B;
728	:	00FFFC1B;
729	:	00FFFAD6;
730	:	00FFFB6E;
731	:	00FFFD16;
732	:	00FFFD6E;
733	:	00FFFB9B;
734	:	00FFFCC7;
735	:	00FFFFC8;
736	:	00FFFC92;
737	:	00FFFB13;
738	:	00FFFF78;
739	:	00FFFB98;
740	:	00FFF920;
741	:	00FFF811;
742	:	00FFFA1B;
743	:	00000386;
744	:	00FFF912;
745	:	00FFFB59;
746	:	000001AE;
747	:	00FFFE98;
748	:	00000240;
749	:	0000030D;
750	:	00FFF5AC;
751	:	00FFEDB9;
752	:	00FFE94E;
753	:	00FFF2B0;
754	:	00000217;
755	:	000007FC;
756	:	00002AB5;
757	:	000007D3;
758	:	00000177;
759	:	0000052E;
760	:	00FFF7A8;
761	:	00FFD6CE;
762	:	00FFF7AB;
763	:	00FFF5ED;
764	:	00FFEF73;
765	:	00FFF306;
766	:	0000109F;
767	:	000022C8;
768	:	00001701;
769	:	0000092D;
770	:	00000287;
771	:	00FFF9B3;
772	:	00FFF243;
773	:	00FFEC2A;
774	:	00FFDEBF;
775	:	00FFF009;
776	:	00FFEED3;
777	:	00001AFB;
778	:	00001B45;
779	:	000002FB;
780	:	000005EF;
781	:	0000009C;
782	:	000014E0;
783	:	00001589;
784	:	00FFFDEB;
785	:	00000BBE;
786	:	00FFFB57;
787	:	00FFED97;
788	:	0000064E;
789	:	0000237D;
790	:	00000518;
791	:	00FFFF4C;
792	:	00000014;
793	:	00000C0A;
794	:	0000133F;
795	:	000014B3;
796	:	00000357;
797	:	00FFF8F3;
798	:	00FFF41E;
799	:	0000082A;
800	:	000012AC;
801	:	000010FA;
802	:	00FFFE66;
803	:	00000470;
804	:	00FFFCB0;
805	:	00FFFDB2;
806	:	00FFFF9C;
807	:	00FFF32A;
808	:	00FFFDEE;
809	:	0000130A;
810	:	000024B5;
811	:	0000079A;
812	:	000006A5;
813	:	00FFFD0F;
814	:	0000051C;
815	:	000004AE;
816	:	00FFFB5D;
817	:	00FFF5BA;
818	:	00000D68;
819	:	00001DC3;
820	:	000018C4;
821	:	00001F84;
822	:	00000057;
823	:	00FFFFC6;
824	:	00000489;
825	:	00FFFB72;
826	:	0000022A;
827	:	00FFF827;
828	:	00001166;
829	:	00000310;
830	:	00001232;
831	:	0000268C;
832	:	000009E1;
833	:	00000588;
834	:	00FFFC57;
835	:	00FFFF5E;
836	:	00000280;
837	:	00FFFC76;
838	:	00FFFD41;
839	:	00FFF8DF;
840	:	00FFF98B;
841	:	00FFF12B;
842	:	00FFEF1A;
843	:	00FFEFED;
844	:	00FFFC55;
845	:	00000264;
846	:	000002C7;
847	:	00FFFBA9;
848	:	000001B7;
849	:	00FFFF75;
850	:	00FFFB74;
851	:	0000033E;
852	:	00000145;
853	:	00FFFE0A;
854	:	00FFFAE7;
855	:	000001EC;
856	:	00000406;
857	:	000001D7;
858	:	00FFFB61;
859	:	000000BD;
860	:	0000007E;
861	:	00FFF970;
862	:	00FFFE44;
863	:	00FFF713;
864	:	00FFFC7A;
865	:	00FFFAE0;
866	:	00FFFD67;
867	:	00FFFC54;
868	:	000001C6;
869	:	00000168;
870	:	000001AE;
871	:	00FFF832;
872	:	00FFEB62;
873	:	00FFDA04;
874	:	00FFD918;
875	:	00FFD7EF;
876	:	00FFEF05;
877	:	00FFF3A2;
878	:	00FFF9E0;
879	:	0000026A;
880	:	00FFFCC9;
881	:	00FFFBE6;
882	:	000000C9;
883	:	00FFD93F;
884	:	00FFB4F9;
885	:	00FFC01C;
886	:	00FFDC61;
887	:	00FFF905;
888	:	00FFEFB0;
889	:	00FFF691;
890	:	0000000B;
891	:	00FFF9BA;
892	:	00FFFBC6;
893	:	00FFEE7B;
894	:	00FFEAB1;
895	:	00FFC999;
896	:	00FFD1A6;
897	:	00FFE6FC;
898	:	00FFF26D;
899	:	00FFEC6A;
900	:	000000F0;
901	:	00FFFB35;
902	:	00FFFBF9;
903	:	00FFFA09;
904	:	00FFECFD;
905	:	0000092B;
906	:	00000250;
907	:	00FFE1D4;
908	:	00FFDE8F;
909	:	0000103F;
910	:	00000932;
911	:	000003C7;
912	:	00FFFEF5;
913	:	000000AE;
914	:	0000051A;
915	:	00001620;
916	:	00000F28;
917	:	00001D79;
918	:	00001AF1;
919	:	000002DF;
920	:	00002B6E;
921	:	00002193;
922	:	00FFFE16;
923	:	00FFFA1A;
924	:	00000806;
925	:	00001427;
926	:	00000E37;
927	:	00000EF1;
928	:	00001706;
929	:	00001198;
930	:	0000088C;
931	:	00002A74;
932	:	000014F5;
933	:	00FFF725;
934	:	00000213;
935	:	000002F4;
936	:	0000025D;
937	:	00FFFF9D;
938	:	00000192;
939	:	000004A3;
940	:	00FFF649;
941	:	00FFF523;
942	:	000015E1;
943	:	0000105C;
944	:	00FFF33D;
945	:	00FFF47D;
946	:	000001C5;
947	:	0000031B;
948	:	0000047B;
949	:	000000FC;
950	:	00FFFC2A;
951	:	00FFF6C5;
952	:	00FFFBEF;
953	:	00000401;
954	:	00FFFFB3;
955	:	00FFF806;
956	:	00FFFD74;
957	:	00FFFFF7;
958	:	00FFFA42;
959	:	00FFFA7B;
960	:	00FFF065;
961	:	00FFF0A4;
962	:	00FFF178;
963	:	00FFEBA5;
964	:	00FFE6E4;
965	:	00FFFBD4;
966	:	00FFFE3A;
967	:	000000A4;
968	:	00000000;
969	:	00000000;
970	:	00000000;
971	:	00000000;
972	:	00000000;
973	:	00000000;
974	:	00000000;
975	:	00000000;
976	:	00000000;
977	:	00000000;
978	:	00000000;
979	:	00000000;
980	:	00000000;
981	:	00000000;
982	:	00000000;
983	:	00000000;
984	:	00000000;
985	:	00000000;
986	:	00000000;
987	:	00000000;
988	:	00000000;
989	:	00000000;
990	:	00000000;
991	:	00000000;
992	:	00000000;
993	:	00000000;
994	:	00000000;
995	:	00000000;
996	:	00000000;
997	:	00000000;
998	:	00000000;
999	:	00000000;
1000	:	00000000;
1001	:	00000000;
1002	:	00000000;
1003	:	00000000;
1004	:	00000000;
1005	:	00000000;
1006	:	00000000;
1007	:	00000000;
1008	:	00000000;
1009	:	00000000;
1010	:	00000000;
1011	:	00000000;
1012	:	00000000;
1013	:	00000000;
1014	:	00000000;
1015	:	00000000;
1016	:	00000000;
1017	:	00000000;
1018	:	00000000;
1019	:	00000000;
1020	:	00000000;
1021	:	00000000;
1022	:	00000000;
1023	:	00000000;
END;