WIDTH = 24;
DEPTH=1024;

ADDRESS_RADIX=UNS;
DATA_RADIX=HEX;

CONTENT BEGIN
0	:	00FFFAC8;
1	:	0000074A;
2	:	00000A50;
3	:	000005E6;
4	:	00FFFF41;
5	:	000002CB;
6	:	000013A1;
7	:	00001224;
8	:	00000378;
9	:	000004E0;
10	:	00000354;
11	:	00FFFAE5;
12	:	00001786;
13	:	000013B4;
14	:	000009C1;
15	:	00002049;
16	:	00002191;
17	:	00002BFA;
18	:	00001092;
19	:	00FFFE57;
20	:	00FFFFCA;
21	:	00FFFC32;
22	:	000000F0;
23	:	00FFF1E3;
24	:	00000097;
25	:	00FFED34;
26	:	00000197;
27	:	0000286F;
28	:	0000111F;
29	:	00FFFA47;
30	:	00FFF929;
31	:	000002A7;
32	:	00000076;
33	:	00FFF80F;
34	:	00FFE3D6;
35	:	00FFF29F;
36	:	00FFE4C4;
37	:	0000201E;
38	:	0000227E;
39	:	00000C0F;
40	:	00FFEDB1;
41	:	00FFF6EA;
42	:	00FFFBE9;
43	:	00000261;
44	:	00FFEAD0;
45	:	00FFE587;
46	:	00FFFA70;
47	:	00000411;
48	:	000023FE;
49	:	00001A81;
50	:	00FFF41E;
51	:	00FFFC08;
52	:	00FFF4DB;
53	:	00000225;
54	:	000002D7;
55	:	00FFF8B0;
56	:	00FFF488;
57	:	00FFEE4B;
58	:	0000104D;
59	:	00004DC5;
60	:	00001FAB;
61	:	00FFE823;
62	:	00FFF6A1;
63	:	00FFFBC9;
64	:	0000000D;
65	:	00FFFB12;
66	:	00FFFBC7;
67	:	00000138;
68	:	00FFFE35;
69	:	00001E11;
70	:	00004FF6;
71	:	00002CBF;
72	:	00FFE00F;
73	:	00FFF6F9;
74	:	00FFFB49;
75	:	000005B4;
76	:	000001B5;
77	:	00FFF59A;
78	:	00FFF3EF;
79	:	00FFFE48;
80	:	000009F6;
81	:	0000506E;
82	:	00002D38;
83	:	00FFEF61;
84	:	00FFEE68;
85	:	00FFF99F;
86	:	00000D15;
87	:	00000041;
88	:	0000025E;
89	:	00000362;
90	:	00FFF589;
91	:	00000537;
92	:	00004A24;
93	:	00002D63;
94	:	0000033A;
95	:	00FFF72F;
96	:	0000030A;
97	:	00000FF4;
98	:	00FFFE3D;
99	:	000015B2;
100	:	00002EDA;
101	:	000010FE;
102	:	00002DC4;
103	:	0000498B;
104	:	0000314B;
105	:	00002264;
106	:	00000659;
107	:	000007DF;
108	:	00FFFFF0;
109	:	00FFFB55;
110	:	00000DAD;
111	:	000022D2;
112	:	0000203C;
113	:	00002DA7;
114	:	000030D9;
115	:	000024AE;
116	:	000011A5;
117	:	000008C7;
118	:	0000052E;
119	:	00000138;
120	:	00FFFE21;
121	:	000007C3;
122	:	00000782;
123	:	00002090;
124	:	00002188;
125	:	0000279F;
126	:	00002ACB;
127	:	00000C6B;
128	:	0000049F;
129	:	0000060B;
130	:	000011EC;
131	:	000031CB;
132	:	000009EF;
133	:	00001A23;
134	:	000017AF;
135	:	0000286E;
136	:	000039ED;
137	:	000025D0;
138	:	00FFF1C2;
139	:	0000019A;
140	:	00001205;
141	:	00000912;
142	:	0000147E;
143	:	000004BA;
144	:	00FFFDFC;
145	:	00002106;
146	:	0000202E;
147	:	00001DFA;
148	:	00000793;
149	:	00FFCE4A;
150	:	00FFC595;
151	:	00FFF417;
152	:	000006A9;
153	:	00FFF7FC;
154	:	00FFFD9C;
155	:	00FFF937;
156	:	00FFF291;
157	:	00FFF01D;
158	:	00FFF4C3;
159	:	00FFFA56;
160	:	00FFDE47;
161	:	00FFDE9A;
162	:	000016D5;
163	:	00001578;
164	:	000003ED;
165	:	00FFFAED;
166	:	00FFFBC7;
167	:	00FFEF39;
168	:	00FFF282;
169	:	00FFF073;
170	:	00FFF65F;
171	:	00FFD78A;
172	:	00FFE29E;
173	:	0000092B;
174	:	00000B16;
175	:	000000DF;
176	:	00FFF8C3;
177	:	00FFFDC7;
178	:	00FFFD77;
179	:	00000192;
180	:	00FFFB36;
181	:	00FFF84C;
182	:	00FFD9E0;
183	:	00FFE5ED;
184	:	00FFFB8C;
185	:	00FFF7C8;
186	:	000005B2;
187	:	00FFF949;
188	:	00FFFA40;
189	:	00FFF80D;
190	:	00FFF3E8;
191	:	00FFF8F2;
192	:	00FFF58B;
193	:	00FFF02A;
194	:	00000513;
195	:	00001208;
196	:	0000144B;
197	:	00FFFA87;
198	:	00FFFB89;
199	:	00FFEDF4;
200	:	00FFEF8D;
201	:	00FFF121;
202	:	00FFEF99;
203	:	00FFF69B;
204	:	00FFE9D2;
205	:	00FFDA97;
206	:	00FFF71F;
207	:	00000485;
208	:	00FFF583;
209	:	00FFFB12;
210	:	00FFF297;
211	:	00FFF02B;
212	:	00FFF03E;
213	:	00FFEA7B;
214	:	00FFDFB4;
215	:	00FFF945;
216	:	00FFF88A;
217	:	00FFF710;
218	:	00FFF9A2;
219	:	00000684;
220	:	000001FD;
221	:	000000BC;
222	:	00FFFAB8;
223	:	00FFF92C;
224	:	00FFED1B;
225	:	00FFF9AA;
226	:	00FFFCAD;
227	:	00FFF177;
228	:	00FFFD34;
229	:	00000483;
230	:	000002C8;
231	:	00FFFFE4;
232	:	00FFFC27;
233	:	00FFFFB5;
234	:	00000377;
235	:	00FFFC92;
236	:	00FFF74D;
237	:	00FFF9F9;
238	:	00FFFEEB;
239	:	00FFFC10;
240	:	00FFFD47;
241	:	000006BE;
242	:	00FFFD25;
243	:	00FFF672;
244	:	00FFF18B;
245	:	00FFCF38;
246	:	00FFE5BB;
247	:	00000173;
248	:	000011B8;
249	:	00000B21;
250	:	00FFFCD2;
251	:	0000126F;
252	:	0000040D;
253	:	00FFFAAE;
254	:	00FFED30;
255	:	00FFECFC;
256	:	00FFBF4B;
257	:	00FFD373;
258	:	00FFE3D1;
259	:	000002D0;
260	:	00FFFAD0;
261	:	00002034;
262	:	00000DBD;
263	:	0000011B;
264	:	0000175B;
265	:	000004B5;
266	:	00000428;
267	:	00FFE5CF;
268	:	00FFB81F;
269	:	00FFF1FA;
270	:	000026D2;
271	:	00001C01;
272	:	0000080D;
273	:	00FFFEE1;
274	:	000004DA;
275	:	00FFF7AC;
276	:	00FFF442;
277	:	00FFE919;
278	:	00FFD3A0;
279	:	00FFE937;
280	:	000032E4;
281	:	000035F9;
282	:	00001040;
283	:	00000896;
284	:	0000057E;
285	:	000004EB;
286	:	00FFFB6E;
287	:	00FFF5E1;
288	:	00FFE903;
289	:	00FFF11D;
290	:	00002D24;
291	:	000038A4;
292	:	00001B7E;
293	:	0000273A;
294	:	0000060F;
295	:	00FFFEA8;
296	:	00000419;
297	:	00FFF897;
298	:	00FFF2D7;
299	:	00FFE33F;
300	:	00FFFC6D;
301	:	000018BA;
302	:	00001123;
303	:	00002616;
304	:	00001E60;
305	:	00000544;
306	:	000007DC;
307	:	0000029F;
308	:	00FFFE05;
309	:	00FFF256;
310	:	00FFE51D;
311	:	00FFE95E;
312	:	000018B0;
313	:	00000277;
314	:	00FFF6F0;
315	:	00FFEEE0;
316	:	00FFFDC9;
317	:	00FFFE01;
318	:	0000038E;
319	:	00FFE631;
320	:	00FFF97A;
321	:	00FFEE3A;
322	:	00FFF3C7;
323	:	00FFF64C;
324	:	00000287;
325	:	00FFFC61;
326	:	00FFFC6D;
327	:	00FFF4A8;
328	:	0000051E;
329	:	00000692;
330	:	00FFF4BA;
331	:	00001676;
332	:	000023C5;
333	:	00FFF964;
334	:	00FFFE2D;
335	:	00FFF015;
336	:	00FFFE70;
337	:	00FFF29C;
338	:	00FFF37B;
339	:	000007C0;
340	:	00000081;
341	:	00000558;
342	:	00002A64;
343	:	00002323;
344	:	0000231E;
345	:	00FFFFA4;
346	:	000018EF;
347	:	00000490;
348	:	00FFF7DF;
349	:	00FFFDDC;
350	:	00FFFF0E;
351	:	00000507;
352	:	000005DC;
353	:	00001073;
354	:	000006C9;
355	:	000004F2;
356	:	00000933;
357	:	00FFFCC6;
358	:	00FFFE3F;
359	:	00000170;
360	:	00FFFB2B;
361	:	00FFFEE1;
362	:	00FFFF32;
363	:	00FFFFC8;
364	:	00FFFB97;
365	:	00000100;
366	:	0000002A;
367	:	00FFFE7E;
368	:	00000121;
369	:	00000B15;
370	:	000002BD;
371	:	00FFFC74;
372	:	000000AB;
373	:	00FFFD9B;
374	:	00FFFED5;
375	:	00FFFCD2;
376	:	00FFF537;
377	:	00FFF2D3;
378	:	00FFFE9E;
379	:	00001C3C;
380	:	00002AB5;
381	:	0000198F;
382	:	00002F5F;
383	:	00000F6F;
384	:	00FFFDE1;
385	:	0000045A;
386	:	00000A8B;
387	:	00000D76;
388	:	00FFF7B3;
389	:	0000072F;
390	:	00000A5A;
391	:	00FFE234;
392	:	00FFFC00;
393	:	0000127E;
394	:	000000D0;
395	:	00FFFACF;
396	:	000004DA;
397	:	00FFFD7D;
398	:	00FFFAFC;
399	:	00FFFC2A;
400	:	00FFFBCA;
401	:	00FFE203;
402	:	00FFC2A9;
403	:	00FFE46B;
404	:	00FFF45C;
405	:	00FFFD44;
406	:	00FFF8BF;
407	:	00FFFA3E;
408	:	00FFFC55;
409	:	00FFF75F;
410	:	00FFF4B9;
411	:	0000000B;
412	:	00FFE2B2;
413	:	00FFFF24;
414	:	00FFF133;
415	:	00FFFD0C;
416	:	00FFFB14;
417	:	00FFFF9A;
418	:	00FFFF87;
419	:	00FFFA55;
420	:	00FFF60B;
421	:	00FFFEB1;
422	:	00FFFFBD;
423	:	00000D53;
424	:	000014CD;
425	:	00FFF155;
426	:	00FFF9B9;
427	:	00FFF97F;
428	:	0000019B;
429	:	000001E7;
430	:	00FFFA67;
431	:	00FFFBA1;
432	:	000001D3;
433	:	00FFFEB9;
434	:	00FFFF46;
435	:	00FFF855;
436	:	00FFFD2D;
437	:	00FFFC17;
438	:	00FFFA41;
439	:	00FFFFF6;
440	:	00FFFC0A;
441	:	00FFF34C;
442	:	00FFF3A1;
443	:	00FFEF29;
444	:	00FFFAE7;
445	:	00FFFD96;
446	:	00FFE6E9;
447	:	00FFF8BA;
448	:	00FFF963;
449	:	00FFFE3B;
450	:	00FFFFFC;
451	:	00FFFE89;
452	:	00FFF635;
453	:	00FFF218;
454	:	00FFEA32;
455	:	00FFDBA3;
456	:	00FFE1A0;
457	:	00FFEC2F;
458	:	00FFF5BB;
459	:	00FFF150;
460	:	0000006D;
461	:	000003CD;
462	:	00FFF9BC;
463	:	00FFF51F;
464	:	00FFEF5E;
465	:	00FFD187;
466	:	00FFE29A;
467	:	00FFF235;
468	:	00FFDFA1;
469	:	00FFDC6F;
470	:	00FFF7B4;
471	:	00000987;
472	:	000000BF;
473	:	000002FA;
474	:	0000025A;
475	:	00FFFB40;
476	:	00FFF8E7;
477	:	00FFFA1F;
478	:	00FFFA53;
479	:	00FFFBEF;
480	:	00FFF9B8;
481	:	00FFFEB4;
482	:	00FFFC50;
483	:	00000381;
484	:	00FFFCC4;
485	:	00FFFD75;
486	:	000005B6;
487	:	000005C0;
488	:	00000097;
489	:	00000215;
490	:	00000D44;
491	:	00000821;
492	:	0000043F;
493	:	00000131;
494	:	00FFFC3D;
495	:	00000171;
496	:	0000056D;
497	:	0000072E;
498	:	00000230;
499	:	00FFFF1D;
500	:	00000F16;
501	:	000011FA;
502	:	00FFF361;
503	:	00FFFA5A;
504	:	000003C5;
505	:	00000096;
506	:	00FFF7AA;
507	:	00FFFA43;
508	:	00000A68;
509	:	00000E7A;
510	:	0000259E;
511	:	00FFE3F8;
512	:	00FFE11E;
513	:	00FFE469;
514	:	00FFF71E;
515	:	0000004D;
516	:	00000040;
517	:	00FFFCEC;
518	:	00000031;
519	:	0000209D;
520	:	00004171;
521	:	00000395;
522	:	00FFC2C6;
523	:	00FFD770;
524	:	00FFE173;
525	:	00FFFBC0;
526	:	000001AB;
527	:	000002E0;
528	:	00FFFA37;
529	:	00FFFCB0;
530	:	00FFFF7B;
531	:	00001CFE;
532	:	00FFEC1D;
533	:	00FFCA80;
534	:	00FFE8B8;
535	:	00FFF9CB;
536	:	00FFFD8C;
537	:	00FFFF66;
538	:	000000D2;
539	:	00FFF85A;
540	:	00FFF9C8;
541	:	0000046B;
542	:	00FFF6A4;
543	:	00FFDBAF;
544	:	00FFCE65;
545	:	00FFDF8D;
546	:	00FFF8F7;
547	:	00FFFD43;
548	:	0000035F;
549	:	00FFFC07;
550	:	00FFF8C1;
551	:	00FFFEC6;
552	:	00000D0D;
553	:	00FFF329;
554	:	00FFE206;
555	:	00FFCC5D;
556	:	00FFE649;
557	:	00FFF8E3;
558	:	00FFFD7C;
559	:	0000000D;
560	:	00000134;
561	:	00000366;
562	:	00000CF8;
563	:	00001784;
564	:	00FFE9B9;
565	:	00FFDE16;
566	:	00FFDE5F;
567	:	00FFE746;
568	:	00FFF6FA;
569	:	00000230;
570	:	00FFFDD7;
571	:	00FFFFF3;
572	:	00000E7F;
573	:	00001418;
574	:	00001922;
575	:	00001E78;
576	:	00000223;
577	:	00000F92;
578	:	00000161;
579	:	000007EC;
580	:	00FFFBAC;
581	:	00000214;
582	:	000003A0;
583	:	00000455;
584	:	0000050C;
585	:	000005FC;
586	:	00000E8A;
587	:	0000116B;
588	:	00000962;
589	:	00000E48;
590	:	00000836;
591	:	00FFFA6F;
592	:	00FFFFDF;
593	:	00FFFCA6;
594	:	00FFFC55;
595	:	00FFFB1A;
596	:	00FFFC02;
597	:	00000266;
598	:	000000B3;
599	:	00000156;
600	:	00000205;
601	:	00000417;
602	:	00FFFDB0;
603	:	00000307;
604	:	00FFFD8D;
605	:	00000493;
606	:	00000226;
607	:	00FFFED5;
608	:	00FFF675;
609	:	00FFF605;
610	:	00FFFA16;
611	:	000000CE;
612	:	0000067D;
613	:	000001DB;
614	:	00FFFE28;
615	:	00000077;
616	:	00FFFD65;
617	:	00FFFC51;
618	:	000001C1;
619	:	00FFF399;
620	:	0000093A;
621	:	00FFF8B1;
622	:	00FFF8AE;
623	:	00FFFA6E;
624	:	00FFFF60;
625	:	000002AE;
626	:	00FFFB8E;
627	:	00000208;
628	:	00FFF74B;
629	:	00000B1B;
630	:	0000155D;
631	:	00FFE9AB;
632	:	00FFE45B;
633	:	00FFD9A2;
634	:	00FFEC5B;
635	:	00FFF575;
636	:	00FFF405;
637	:	0000035D;
638	:	00000823;
639	:	000005C9;
640	:	00FFFC57;
641	:	00FFFC4D;
642	:	00FFD4C8;
643	:	00FFE61C;
644	:	00FFE8D1;
645	:	00FFF93E;
646	:	00FFF014;
647	:	00FFEA7C;
648	:	00FFFC00;
649	:	00FFFB94;
650	:	0000006E;
651	:	00FFF390;
652	:	00FFFD5E;
653	:	00FFECD8;
654	:	00FFE810;
655	:	00FFF2DA;
656	:	00FFF134;
657	:	00FFEE58;
658	:	00FFF8CB;
659	:	00FFFE79;
660	:	00FFF963;
661	:	00FFF4C9;
662	:	00FFE6FB;
663	:	00FFF1BB;
664	:	00FFEEE2;
665	:	00FFF778;
666	:	00FFE314;
667	:	00FFED49;
668	:	00FFF3B7;
669	:	00FFFF90;
670	:	000001FE;
671	:	00FFFA5A;
672	:	00FFF8EF;
673	:	00FFF09C;
674	:	00FFF069;
675	:	00FFFF2F;
676	:	00001308;
677	:	00FFE144;
678	:	00FFE9FF;
679	:	00FFF807;
680	:	00000038;
681	:	00FFFF72;
682	:	00FFF89D;
683	:	00FFFFBA;
684	:	0000009C;
685	:	00FFFAA6;
686	:	00FFF1D5;
687	:	000003F0;
688	:	00FFFAE3;
689	:	00FFEEB8;
690	:	00FFF84A;
691	:	00FFFF38;
692	:	00000122;
693	:	00FFFE54;
694	:	00FFFB3C;
695	:	00FFF481;
696	:	00FFDE23;
697	:	00FFE085;
698	:	00000AF6;
699	:	00001BBC;
700	:	0000093D;
701	:	0000151D;
702	:	0000021A;
703	:	00000231;
704	:	00FFFC5C;
705	:	00FFE943;
706	:	00FFD2F3;
707	:	00FFD3B4;
708	:	00FFBB97;
709	:	00FFDDF4;
710	:	00000CF8;
711	:	00000ACC;
712	:	0000156B;
713	:	0000032A;
714	:	00FFFC7B;
715	:	000001CD;
716	:	00000069;
717	:	00FFEDB2;
718	:	00FFEF80;
719	:	00FFF636;
720	:	00000BFD;
721	:	00001212;
722	:	0000124A;
723	:	000011BE;
724	:	00000E15;
725	:	00000330;
726	:	00FFFE0D;
727	:	00FFFD3B;
728	:	00FFFA73;
729	:	00FFFFEE;
730	:	00000276;
731	:	0000055E;
732	:	00FFF838;
733	:	00FFFF7E;
734	:	00000A0D;
735	:	00000231;
736	:	000000FF;
737	:	00FFFECB;
738	:	00FFFB34;
739	:	00FFFE1D;
740	:	0000000B;
741	:	00FFFED0;
742	:	00000FE2;
743	:	00001AF6;
744	:	00003103;
745	:	0000234D;
746	:	000000FB;
747	:	00FFFD47;
748	:	00FFFB72;
749	:	000000AC;
750	:	00FFFF1E;
751	:	00FFFB18;
752	:	00FFFBE7;
753	:	00000896;
754	:	00000E76;
755	:	000020BC;
756	:	0000064E;
757	:	00FFFB6F;
758	:	0000027F;
759	:	00FFFE84;
760	:	00FFF9E2;
761	:	00FFFBA3;
762	:	00FFFB1C;
763	:	0000020D;
764	:	00001A6E;
765	:	00001761;
766	:	000009E9;
767	:	00FFF16A;
768	:	00FFFB64;
769	:	00000013;
770	:	00FFFCF4;
771	:	00FFFB76;
772	:	00000008;
773	:	00FFFBA5;
774	:	00001810;
775	:	0000459E;
776	:	00000E92;
777	:	00FFF0BF;
778	:	00FFFBAA;
779	:	00FFFD3C;
780	:	0000037C;
781	:	0000013C;
782	:	00FFFE68;
783	:	00000002;
784	:	00001EDC;
785	:	00002CDF;
786	:	00004BE9;
787	:	00FFE851;
788	:	00FFFC1B;
789	:	00FFF73B;
790	:	00FFFAF1;
791	:	00FFFB9E;
792	:	00FFFCEE;
793	:	00FFFD90;
794	:	00000D8D;
795	:	00002872;
796	:	00002956;
797	:	00002332;
798	:	00FFFCDA;
799	:	00FFE937;
800	:	00FFF54A;
801	:	00FFF94B;
802	:	00FFFB1C;
803	:	00FFFDCC;
804	:	0000011D;
805	:	00002E4A;
806	:	00003B83;
807	:	00002891;
808	:	00000A99;
809	:	00FFF56E;
810	:	00FFE5ED;
811	:	00FFF27B;
812	:	00000145;
813	:	00000037;
814	:	00FFFD57;
815	:	00000BD8;
816	:	00002755;
817	:	00001FAE;
818	:	00000FF0;
819	:	0000071D;
820	:	00FFEE5E;
821	:	00FFDEAA;
822	:	00FFF54E;
823	:	0000019A;
824	:	00FFFDB4;
825	:	00FFFC37;
826	:	00FFFE80;
827	:	00000780;
828	:	00FFFFB5;
829	:	00FFFEAC;
830	:	00000113;
831	:	00FFFF1B;
832	:	00000369;
833	:	00FFFB7C;
834	:	000002F2;
835	:	0000030D;
836	:	00FFFAE3;
837	:	00FFFED8;
838	:	000004DA;
839	:	00000360;
840	:	0000030B;
841	:	000002B7;
842	:	00FFFDD3;
843	:	00FFFFA7;
844	:	000003BB;
845	:	000000D1;
846	:	00FFFB17;
847	:	000003DA;
848	:	00FFFE9F;
849	:	00FFF3B8;
850	:	00FFF54C;
851	:	00FFFA33;
852	:	00FFFAA7;
853	:	00FFF7A3;
854	:	00FFEB4F;
855	:	0000062A;
856	:	00000466;
857	:	00000511;
858	:	000002B8;
859	:	00000496;
860	:	00000353;
861	:	00001DFF;
862	:	00001FB0;
863	:	00FFF25A;
864	:	0000040F;
865	:	00FFF3CA;
866	:	00FFF610;
867	:	00FFFCA4;
868	:	00FFFDE1;
869	:	00FFFE42;
870	:	0000042B;
871	:	000001F6;
872	:	000008E7;
873	:	0000003B;
874	:	00FFF4C2;
875	:	00000D56;
876	:	00FFFB2D;
877	:	00FFF9B2;
878	:	00FFFCDB;
879	:	00FFFA38;
880	:	00FFFF68;
881	:	00FFFD95;
882	:	00FFF77E;
883	:	00FFEC3D;
884	:	00FFE6CC;
885	:	000004CC;
886	:	00001161;
887	:	00FFFC0A;
888	:	00FFFC1F;
889	:	00000198;
890	:	00FFFEC5;
891	:	0000017D;
892	:	00FFFA39;
893	:	00FFF525;
894	:	00FFEE2A;
895	:	00FFE882;
896	:	00FFFD4E;
897	:	000002F6;
898	:	00FFFE1B;
899	:	00FFF610;
900	:	00FFFBF8;
901	:	0000021B;
902	:	00FFFB1F;
903	:	00FFFEDE;
904	:	00FFF510;
905	:	000005AD;
906	:	00FFF90A;
907	:	00FFFB2B;
908	:	000011C5;
909	:	00FFFA7B;
910	:	00FFFE2A;
911	:	00000165;
912	:	0000026D;
913	:	00FFF800;
914	:	00FFF976;
915	:	00FFF9B8;
916	:	00FFF15C;
917	:	00FFE6B2;
918	:	00FFFCB1;
919	:	000013AD;
920	:	00000E58;
921	:	0000001A;
922	:	0000016F;
923	:	00FFFFF7;
924	:	000003B9;
925	:	00FFFF94;
926	:	00FFEAE5;
927	:	00FFCDED;
928	:	00FFE1CC;
929	:	00FFE13E;
930	:	00FFE4F6;
931	:	00FFE77E;
932	:	00FFF7AD;
933	:	00FFFA14;
934	:	00FFFEE1;
935	:	00FFFBE7;
936	:	00FFEBBA;
937	:	00FFDC79;
938	:	00FFDFCC;
939	:	00FFDFCF;
940	:	00FFE669;
941	:	00FFD0BE;
942	:	00FFE925;
943	:	00FFFF77;
944	:	00000441;
945	:	00FFFB8F;
946	:	00FFFF7C;
947	:	0000023A;
948	:	00FFFEA7;
949	:	00FFF7D9;
950	:	000001F2;
951	:	0000061F;
952	:	000001FE;
953	:	00FFFF02;
954	:	00FFFCBE;
955	:	00FFFBF0;
956	:	00FFFCD9;
957	:	00FFFD18;
958	:	000001C5;
959	:	00FFFB64;
960	:	0000042C;
961	:	00000333;
962	:	00FFFEFB;
963	:	000004D3;
964	:	00FFFCEB;
965	:	00FFFBBB;
966	:	00000125;
967	:	0000020C;
968	:	00000000;
969	:	00000000;
970	:	00000000;
971	:	00000000;
972	:	00000000;
973	:	00000000;
974	:	00000000;
975	:	00000000;
976	:	00000000;
977	:	00000000;
978	:	00000000;
979	:	00000000;
980	:	00000000;
981	:	00000000;
982	:	00000000;
983	:	00000000;
984	:	00000000;
985	:	00000000;
986	:	00000000;
987	:	00000000;
988	:	00000000;
989	:	00000000;
990	:	00000000;
991	:	00000000;
992	:	00000000;
993	:	00000000;
994	:	00000000;
995	:	00000000;
996	:	00000000;
997	:	00000000;
998	:	00000000;
999	:	00000000;
1000	:	00000000;
1001	:	00000000;
1002	:	00000000;
1003	:	00000000;
1004	:	00000000;
1005	:	00000000;
1006	:	00000000;
1007	:	00000000;
1008	:	00000000;
1009	:	00000000;
1010	:	00000000;
1011	:	00000000;
1012	:	00000000;
1013	:	00000000;
1014	:	00000000;
1015	:	00000000;
1016	:	00000000;
1017	:	00000000;
1018	:	00000000;
1019	:	00000000;
1020	:	00000000;
1021	:	00000000;
1022	:	00000000;
1023	:	00000000;
END;