WIDTH = 24;
DEPTH=1024;

ADDRESS_RADIX=UNS;
DATA_RADIX=HEX;

CONTENT BEGIN
0	:	000006B9;
1	:	00FFF0F7;
2	:	000009EB;
3	:	0000013C;
4	:	0000010E;
5	:	00FFF1BB;
6	:	00FFF114;
7	:	00FFFF3C;
8	:	00000C3F;
9	:	00FFFA19;
10	:	00FFFFAF;
11	:	00FFFBFE;
12	:	00000F28;
13	:	00FFEE7D;
14	:	00FFF953;
15	:	00FFF1DC;
16	:	00000DA9;
17	:	00FFF6C9;
18	:	00FFF0AC;
19	:	00FFF866;
20	:	0000114D;
21	:	000009AB;
22	:	00FFFE7E;
23	:	00000A2D;
24	:	00FFFCA8;
25	:	00FFFD4F;
26	:	000004E1;
27	:	00FFF265;
28	:	00FFF143;
29	:	00FFF3B4;
30	:	000001B2;
31	:	00FFF93D;
32	:	0000007A;
33	:	0000126B;
34	:	0000018A;
35	:	00FFF595;
36	:	00000442;
37	:	0000130B;
38	:	00FFF1E9;
39	:	00FFECA8;
40	:	000002B4;
41	:	00FFEF2C;
42	:	0000104E;
43	:	00FFECAC;
44	:	00FFF25A;
45	:	00FFFA63;
46	:	00000760;
47	:	00000257;
48	:	00FFF018;
49	:	00FFEC92;
50	:	00000CC9;
51	:	00FFF737;
52	:	00FFFA29;
53	:	00000888;
54	:	00FFF00B;
55	:	00FFF751;
56	:	00FFF98D;
57	:	00FFF600;
58	:	000002FE;
59	:	00FFEE76;
60	:	00FFF955;
61	:	00FFF076;
62	:	000000B7;
63	:	00FFF973;
64	:	00FFF737;
65	:	00FFF8E2;
66	:	00FFF766;
67	:	00FFF899;
68	:	00FFF971;
69	:	00000E4C;
70	:	00FFEF5B;
71	:	00FFFBCA;
72	:	00001233;
73	:	00FFFFD8;
74	:	0000094C;
75	:	00FFEECD;
76	:	00000871;
77	:	00001216;
78	:	00FFF62D;
79	:	00FFF9DE;
80	:	00FFF550;
81	:	00000964;
82	:	0000008B;
83	:	00001378;
84	:	00000255;
85	:	000001BD;
86	:	00000BB3;
87	:	00FFEE85;
88	:	0000004C;
89	:	00FFF684;
90	:	00FFF726;
91	:	00000151;
92	:	000003C8;
93	:	00FFEF76;
94	:	00000982;
95	:	00000CC9;
96	:	00FFF2F5;
97	:	00FFFDEC;
98	:	00000852;
99	:	00FFF0EB;
100	:	00000A06;
101	:	000006A0;
102	:	00000FAE;
103	:	00FFF472;
104	:	000008DD;
105	:	00000C3F;
106	:	00FFF200;
107	:	00000420;
108	:	00000332;
109	:	00FFFFCD;
110	:	0000086D;
111	:	00FFFFA7;
112	:	00FFFB0E;
113	:	00FFF271;
114	:	00FFFA65;
115	:	00FFF890;
116	:	00FFF84E;
117	:	00000CA2;
118	:	00FFF801;
119	:	00FFF2BD;
120	:	00FFF171;
121	:	00FFF43C;
122	:	00000801;
123	:	00000D55;
124	:	000011E6;
125	:	00FFF4CE;
126	:	00FFF80E;
127	:	0000124F;
128	:	00FFF6AB;
129	:	00000216;
130	:	000011DA;
131	:	0000086E;
132	:	00FFFE34;
133	:	00FFF29D;
134	:	00FFFE4D;
135	:	0000054C;
136	:	00FFFAF3;
137	:	00FFF56B;
138	:	00FFFC70;
139	:	00000736;
140	:	00001030;
141	:	00FFED8B;
142	:	0000031B;
143	:	00FFEF8E;
144	:	000000E7;
145	:	00FFFA5F;
146	:	0000057A;
147	:	00FFEF1A;
148	:	00FFF592;
149	:	00FFFB7F;
150	:	00FFF47D;
151	:	00000A4F;
152	:	00FFF19E;
153	:	00000213;
154	:	0000040A;
155	:	00000226;
156	:	00FFF85C;
157	:	000005F2;
158	:	00000925;
159	:	00FFEF8C;
160	:	0000030D;
161	:	00000F62;
162	:	0000074C;
163	:	000004FA;
164	:	00FFF92C;
165	:	00000276;
166	:	00000DE9;
167	:	0000000B;
168	:	0000124F;
169	:	00000520;
170	:	00001015;
171	:	00FFFF24;
172	:	0000121B;
173	:	00FFFEEB;
174	:	000005F6;
175	:	00FFFE35;
176	:	00FFF6A6;
177	:	00FFFF26;
178	:	000000FE;
179	:	00FFFD3B;
180	:	00FFEFAB;
181	:	00FFFA8F;
182	:	00FFF0F0;
183	:	00FFFC6A;
184	:	00000FB5;
185	:	000013DF;
186	:	00FFF5A8;
187	:	00000B36;
188	:	00FFF8F7;
189	:	00FFF837;
190	:	000009D9;
191	:	00FFFCEA;
192	:	000012E7;
193	:	00FFFC64;
194	:	00FFEDCA;
195	:	00FFFAEB;
196	:	000006E9;
197	:	00000762;
198	:	00000D42;
199	:	00FFFE53;
200	:	000006EE;
201	:	00FFEEA0;
202	:	00FFF703;
203	:	00FFF74C;
204	:	00000C3E;
205	:	00FFF411;
206	:	0000049E;
207	:	000005A3;
208	:	00000200;
209	:	00FFFC80;
210	:	000004D1;
211	:	00000401;
212	:	00000B22;
213	:	00000499;
214	:	00000F6A;
215	:	00FFFB5C;
216	:	00FFF0E6;
217	:	00FFF109;
218	:	00FFEF75;
219	:	0000092A;
220	:	00000665;
221	:	00000538;
222	:	00FFFC60;
223	:	00000593;
224	:	00FFFFBD;
225	:	00FFFCCC;
226	:	00001148;
227	:	000003F6;
228	:	00FFFD5C;
229	:	00000091;
230	:	0000115A;
231	:	00FFF50E;
232	:	00FFED5C;
233	:	0000034E;
234	:	00FFECF4;
235	:	00FFEE48;
236	:	00FFEC89;
237	:	00000FE5;
238	:	00000460;
239	:	00FFED27;
240	:	00FFF32C;
241	:	00000AF8;
242	:	00FFF5DA;
243	:	00FFF54B;
244	:	00FFEF82;
245	:	00001176;
246	:	00FFF1B6;
247	:	00000C45;
248	:	00FFF299;
249	:	00FFFB3D;
250	:	00FFEC38;
251	:	00000E81;
252	:	00FFFB0F;
253	:	00000D6B;
254	:	00000C26;
255	:	0000030C;
256	:	00FFEDA8;
257	:	000010E1;
258	:	00FFEC17;
259	:	000003C4;
260	:	00FFEF31;
261	:	00FFEDBC;
262	:	0000098C;
263	:	00FFF905;
264	:	00FFF87D;
265	:	000008C0;
266	:	00001200;
267	:	00FFFC15;
268	:	00FFF354;
269	:	00FFF152;
270	:	00000873;
271	:	00FFFDCB;
272	:	00FFFB33;
273	:	00FFFA31;
274	:	00000576;
275	:	000011EA;
276	:	00FFFD44;
277	:	00FFF6F4;
278	:	000010E2;
279	:	00FFFEAE;
280	:	00FFF28B;
281	:	00000BCC;
282	:	000007AF;
283	:	00000F12;
284	:	00FFEDD6;
285	:	00000770;
286	:	00FFF5E8;
287	:	00000F31;
288	:	00FFF472;
289	:	00FFF91C;
290	:	00FFF637;
291	:	00000392;
292	:	00FFF381;
293	:	00FFF034;
294	:	0000013F;
295	:	00FFF26A;
296	:	000000B2;
297	:	0000078C;
298	:	000001B4;
299	:	00000211;
300	:	00001071;
301	:	00000CD7;
302	:	00000773;
303	:	0000030E;
304	:	000008BE;
305	:	00FFFACF;
306	:	00000B2B;
307	:	000005D9;
308	:	00FFF82A;
309	:	00FFED8E;
310	:	00FFEE0D;
311	:	00000F73;
312	:	00FFFFDA;
313	:	00FFED10;
314	:	000005FA;
315	:	00000D9D;
316	:	00FFEE23;
317	:	000005A9;
318	:	00FFECC6;
319	:	00FFF339;
320	:	00001079;
321	:	000008F0;
322	:	000003C6;
323	:	00000254;
324	:	00000568;
325	:	00000B56;
326	:	00FFF940;
327	:	00FFF9F1;
328	:	00FFFB10;
329	:	00FFFB22;
330	:	00FFF28B;
331	:	00000FDA;
332	:	00000F41;
333	:	00FFFD34;
334	:	00FFEE18;
335	:	000002A8;
336	:	00000B56;
337	:	00FFF742;
338	:	00000549;
339	:	00FFF154;
340	:	00001101;
341	:	00FFF091;
342	:	00FFECB9;
343	:	00FFF5EE;
344	:	00FFF370;
345	:	000012F0;
346	:	00FFF37E;
347	:	00FFFCEA;
348	:	00FFFC10;
349	:	000009B6;
350	:	00000E08;
351	:	000013D0;
352	:	00000EE1;
353	:	00000ED2;
354	:	00FFFC7C;
355	:	00FFF40A;
356	:	00001226;
357	:	00FFEE01;
358	:	000002F0;
359	:	00000D60;
360	:	00001287;
361	:	00FFEEEA;
362	:	00FFF5D3;
363	:	0000030E;
364	:	00FFF29B;
365	:	00000F45;
366	:	00FFEC79;
367	:	00000C9B;
368	:	00FFFD29;
369	:	00FFF397;
370	:	000006DC;
371	:	00FFF594;
372	:	00000B4A;
373	:	0000039D;
374	:	00FFF8D7;
375	:	00000717;
376	:	00FFF598;
377	:	00001339;
378	:	00FFF8E6;
379	:	00FFF8F0;
380	:	000003C1;
381	:	000012B8;
382	:	0000016F;
383	:	0000109E;
384	:	00000254;
385	:	000006F5;
386	:	00FFFA9C;
387	:	00000D5C;
388	:	00FFFE5D;
389	:	00FFED80;
390	:	00000EDB;
391	:	000004EA;
392	:	00000B4C;
393	:	00000A6A;
394	:	000011EF;
395	:	000008CC;
396	:	00000F40;
397	:	00FFF570;
398	:	00FFED73;
399	:	00FFF09E;
400	:	00000FAC;
401	:	00FFF00D;
402	:	0000077A;
403	:	00FFF4C8;
404	:	00FFF233;
405	:	00FFF42D;
406	:	000001CD;
407	:	00FFFBB1;
408	:	00FFEE20;
409	:	00FFF04A;
410	:	000009B0;
411	:	000009D2;
412	:	0000103B;
413	:	00FFF492;
414	:	00000426;
415	:	00000B7A;
416	:	00FFF137;
417	:	00FFF042;
418	:	00000CDF;
419	:	00FFFEA6;
420	:	000007C5;
421	:	00FFEF96;
422	:	00FFFC55;
423	:	00FFEFC3;
424	:	000010E4;
425	:	00FFF138;
426	:	00FFEF9F;
427	:	00000D9D;
428	:	00FFF8AC;
429	:	000006CF;
430	:	00000915;
431	:	000003F9;
432	:	00FFEEDA;
433	:	00000D51;
434	:	00FFFFA3;
435	:	00000C63;
436	:	00FFECFA;
437	:	000011A2;
438	:	00FFFEFE;
439	:	00000E40;
440	:	00FFF278;
441	:	00000FA7;
442	:	0000074B;
443	:	00FFFE21;
444	:	000008DC;
445	:	00FFFF31;
446	:	00000017;
447	:	00FFF4F2;
448	:	0000085D;
449	:	00000748;
450	:	00000E01;
451	:	00FFFC57;
452	:	000007DF;
453	:	0000113A;
454	:	00000E5B;
455	:	00FFEF6A;
456	:	00FFF64B;
457	:	00000416;
458	:	00FFFF04;
459	:	00000306;
460	:	00FFFE38;
461	:	00FFF074;
462	:	00FFFC3F;
463	:	000012ED;
464	:	00000658;
465	:	00FFEDEC;
466	:	00FFFD87;
467	:	00FFF060;
468	:	00FFF5A1;
469	:	00000F94;
470	:	00FFFDD5;
471	:	00000A18;
472	:	00000FDD;
473	:	00FFF4FD;
474	:	000011D0;
475	:	00000F1C;
476	:	00FFEF45;
477	:	00FFF037;
478	:	00000FED;
479	:	00000AAF;
480	:	00FFF229;
481	:	00FFED66;
482	:	00FFF025;
483	:	0000065F;
484	:	00FFF664;
485	:	00FFFF90;
486	:	00000308;
487	:	00FFF11F;
488	:	00000497;
489	:	000012D9;
490	:	00FFF218;
491	:	00FFFDF6;
492	:	00FFF4FF;
493	:	00FFF228;
494	:	00FFF77F;
495	:	00FFFD83;
496	:	00000E01;
497	:	00FFFCB6;
498	:	00FFF3F6;
499	:	00FFF1B8;
500	:	00FFEF9E;
501	:	00000AD5;
502	:	000013AE;
503	:	000000B2;
504	:	00000A45;
505	:	00FFF7F3;
506	:	00FFEEA0;
507	:	00000030;
508	:	00FFF6AA;
509	:	00FFF510;
510	:	00FFFD2F;
511	:	00000CE2;
512	:	00FFF514;
513	:	00000061;
514	:	00FFFB8A;
515	:	00000C29;
516	:	00000D56;
517	:	00000E86;
518	:	00000091;
519	:	00FFF49A;
520	:	00FFF4A8;
521	:	00FFF38F;
522	:	00FFF609;
523	:	00FFF03A;
524	:	00FFF6F5;
525	:	00001329;
526	:	0000005F;
527	:	00000E04;
528	:	00001028;
529	:	00FFFC20;
530	:	00000D48;
531	:	00000D90;
532	:	000005A8;
533	:	00FFF43B;
534	:	00000C20;
535	:	00000E1F;
536	:	00FFF0AD;
537	:	0000018F;
538	:	00000BCF;
539	:	00000821;
540	:	00FFF805;
541	:	00FFF40E;
542	:	00FFFC27;
543	:	00FFF00E;
544	:	0000114A;
545	:	00FFECDF;
546	:	00000A22;
547	:	00FFF3FF;
548	:	00FFF72A;
549	:	00001365;
550	:	0000016B;
551	:	00FFEF8A;
552	:	00000C99;
553	:	00FFEDAA;
554	:	00FFF487;
555	:	00FFFE63;
556	:	00FFF627;
557	:	00000B88;
558	:	00000D51;
559	:	00FFF00E;
560	:	0000075B;
561	:	00FFF25B;
562	:	00FFF197;
563	:	000002CA;
564	:	000011E5;
565	:	00FFEF22;
566	:	00FFEF8C;
567	:	00FFEFB0;
568	:	00FFF586;
569	:	0000060C;
570	:	00FFF20B;
571	:	0000017B;
572	:	00FFF5C9;
573	:	000006FC;
574	:	00000952;
575	:	000002F7;
576	:	00FFF8CB;
577	:	000001AF;
578	:	00FFF5D5;
579	:	00FFF0F2;
580	:	000001A7;
581	:	00FFFA9A;
582	:	00FFF9EA;
583	:	0000034E;
584	:	00FFFE06;
585	:	00FFFCC0;
586	:	00001195;
587	:	00000CE9;
588	:	00FFF2F6;
589	:	00FFF3C0;
590	:	00FFF632;
591	:	00000299;
592	:	0000110F;
593	:	00000422;
594	:	00FFEDEA;
595	:	00FFF0DC;
596	:	00FFFBA0;
597	:	00000A91;
598	:	00FFFA81;
599	:	00FFF036;
600	:	00FFFBE4;
601	:	00FFEC18;
602	:	00000676;
603	:	00FFFB88;
604	:	00FFFCBC;
605	:	00FFF172;
606	:	00FFF90A;
607	:	000008D1;
608	:	00FFF29A;
609	:	0000113E;
610	:	00000A76;
611	:	00FFF8B4;
612	:	00FFFF76;
613	:	00000C61;
614	:	00000E97;
615	:	0000008C;
616	:	00FFF7BF;
617	:	00FFFB97;
618	:	000013D2;
619	:	00FFF7D5;
620	:	00FFF8F3;
621	:	00FFF7FB;
622	:	00000EFE;
623	:	00000DC7;
624	:	0000120E;
625	:	00000293;
626	:	00000CBC;
627	:	000012AE;
628	:	000003BD;
629	:	00000952;
630	:	000000AA;
631	:	00000FB1;
632	:	00FFF769;
633	:	00001355;
634	:	000000EB;
635	:	00FFFB84;
636	:	00FFF962;
637	:	00FFF31A;
638	:	00000DB4;
639	:	00000906;
640	:	00000AD5;
641	:	000005B3;
642	:	00001229;
643	:	00FFF1CA;
644	:	00000EF2;
645	:	00FFFDCF;
646	:	00FFF464;
647	:	00000D74;
648	:	0000038A;
649	:	000006DF;
650	:	000012D9;
651	:	00001352;
652	:	00000D5D;
653	:	00FFF682;
654	:	00000E63;
655	:	00FFFEFB;
656	:	00000D9B;
657	:	00FFFCD5;
658	:	0000013A;
659	:	000002AA;
660	:	000009B5;
661	:	00FFFC06;
662	:	00000F36;
663	:	00FFFD57;
664	:	00FFF1E1;
665	:	00000F1D;
666	:	00000C6F;
667	:	00001243;
668	:	00FFF5EB;
669	:	00FFFBBF;
670	:	00FFFAA7;
671	:	000003B8;
672	:	00FFFB7B;
673	:	0000082C;
674	:	00FFF5D9;
675	:	00FFFB68;
676	:	00000FC1;
677	:	00000DCB;
678	:	00FFEDEA;
679	:	000011CB;
680	:	00000BBA;
681	:	000010C2;
682	:	00000780;
683	:	00000EFB;
684	:	00FFF82D;
685	:	000012A0;
686	:	000002A1;
687	:	00000540;
688	:	00000936;
689	:	00FFF5F2;
690	:	00FFF44F;
691	:	00FFF5D1;
692	:	00001284;
693	:	00001172;
694	:	00000B41;
695	:	00000B90;
696	:	00000837;
697	:	00001031;
698	:	000012B5;
699	:	00001032;
700	:	00FFF5DC;
701	:	00FFF1B9;
702	:	00000DF1;
703	:	000012D2;
704	:	00000CA3;
705	:	00000D90;
706	:	00FFF598;
707	:	00FFED69;
708	:	00FFF11F;
709	:	00FFFD26;
710	:	00FFF53B;
711	:	00FFEC83;
712	:	0000059F;
713	:	00FFFC32;
714	:	00FFFE7C;
715	:	0000113C;
716	:	00001320;
717	:	00000D8A;
718	:	00FFFFD0;
719	:	00FFF160;
720	:	00000F1E;
721	:	00FFF6BD;
722	:	00FFF742;
723	:	00000BD3;
724	:	00000044;
725	:	00000AC2;
726	:	00FFFE1F;
727	:	00FFF43B;
728	:	00000769;
729	:	00001252;
730	:	00000147;
731	:	000001AF;
732	:	00FFFC8E;
733	:	00FFFBF7;
734	:	00000509;
735	:	00001049;
736	:	000005E8;
737	:	00FFF004;
738	:	00FFF31C;
739	:	00FFEF9B;
740	:	00000EDF;
741	:	00FFEDAA;
742	:	00FFFD39;
743	:	0000019F;
744	:	00FFFFEF;
745	:	00FFEF09;
746	:	00FFF7C1;
747	:	0000044C;
748	:	00FFF4E0;
749	:	00000D08;
750	:	00FFF37A;
751	:	00FFFDC6;
752	:	00001162;
753	:	00FFF4A2;
754	:	00FFED10;
755	:	00000668;
756	:	00000E16;
757	:	00000993;
758	:	0000022E;
759	:	00FFF061;
760	:	000004C5;
761	:	00FFFC05;
762	:	00000AE6;
763	:	0000123C;
764	:	000004CD;
765	:	00000BEC;
766	:	00FFFA01;
767	:	00FFF04C;
768	:	0000136D;
769	:	00FFF422;
770	:	00FFEE32;
771	:	000001FA;
772	:	00FFF40A;
773	:	00FFFDA6;
774	:	0000101A;
775	:	00FFF4EA;
776	:	00FFFCD2;
777	:	00FFEF33;
778	:	00FFF6F4;
779	:	00FFFC5A;
780	:	00FFFF83;
781	:	00000BE5;
782	:	00FFF333;
783	:	00FFED97;
784	:	00FFF5A2;
785	:	0000079A;
786	:	000011CA;
787	:	00FFEEF4;
788	:	00FFF16A;
789	:	00FFFE59;
790	:	000010BD;
791	:	00FFF943;
792	:	0000112B;
793	:	00000A02;
794	:	00FFF8E6;
795	:	00FFED9D;
796	:	000006D9;
797	:	0000118E;
798	:	00FFF39D;
799	:	000013FE;
800	:	00000F86;
801	:	00000FBC;
802	:	00FFF10C;
803	:	000005DE;
804	:	00001150;
805	:	00FFF54C;
806	:	0000025B;
807	:	00FFF964;
808	:	00000D59;
809	:	00FFFFE9;
810	:	00000422;
811	:	00000924;
812	:	00FFFB3F;
813	:	00000BC8;
814	:	00FFFB0F;
815	:	00FFFB88;
816	:	0000032D;
817	:	000003E3;
818	:	00FFF2C0;
819	:	00FFF4E4;
820	:	00000B88;
821	:	00000D8C;
822	:	000001A0;
823	:	000009D4;
824	:	00000B80;
825	:	00FFF0EB;
826	:	00FFFF3F;
827	:	00000D17;
828	:	00FFF086;
829	:	0000025C;
830	:	00FFF3BA;
831	:	00000238;
832	:	000008D9;
833	:	000008B7;
834	:	00FFEE92;
835	:	00FFF4C7;
836	:	00FFEDF6;
837	:	00FFFEC5;
838	:	00FFFCA6;
839	:	000010DF;
840	:	0000062B;
841	:	00000177;
842	:	00FFED89;
843	:	00FFFDC3;
844	:	00FFFBDE;
845	:	00000084;
846	:	0000051D;
847	:	00000DD5;
848	:	00FFF335;
849	:	000011D5;
850	:	000002B7;
851	:	000003EF;
852	:	000001BF;
853	:	00FFF6F8;
854	:	00FFF53C;
855	:	00FFFCC2;
856	:	00FFF7BF;
857	:	000003E7;
858	:	000010DC;
859	:	00FFEFFB;
860	:	00FFFEC5;
861	:	00FFF9B2;
862	:	00FFF089;
863	:	00000A8D;
864	:	0000073B;
865	:	00000FA4;
866	:	00001380;
867	:	00000653;
868	:	00001295;
869	:	00FFFD8C;
870	:	00000DCC;
871	:	00FFF6AC;
872	:	00FFFDB4;
873	:	00FFF15F;
874	:	00FFF05C;
875	:	00000D1E;
876	:	00FFFC42;
877	:	0000095C;
878	:	00FFEC45;
879	:	00FFEDAC;
880	:	000007B9;
881	:	00FFFC7A;
882	:	00FFF210;
883	:	00000FAF;
884	:	00FFEC6F;
885	:	000001F2;
886	:	00FFEF04;
887	:	00FFF087;
888	:	00FFF7A9;
889	:	00FFF4B5;
890	:	000006ED;
891	:	00000C30;
892	:	00FFF141;
893	:	00FFF760;
894	:	00FFFFF8;
895	:	00FFF904;
896	:	00000F6A;
897	:	000013F2;
898	:	00FFFC21;
899	:	000011A1;
900	:	00000314;
901	:	00FFF2EB;
902	:	00FFF2E7;
903	:	00FFF44E;
904	:	00FFF3CA;
905	:	00FFF3C6;
906	:	00001019;
907	:	00FFF557;
908	:	0000037E;
909	:	00FFEC20;
910	:	0000120F;
911	:	00000C68;
912	:	00FFEC20;
913	:	00001126;
914	:	00001351;
915	:	00FFFD1E;
916	:	00FFF50F;
917	:	00FFFCA7;
918	:	00FFFB47;
919	:	000011A5;
920	:	00FFFFCF;
921	:	00FFFBC6;
922	:	000012C0;
923	:	00FFED60;
924	:	000010F6;
925	:	000003F4;
926	:	00000572;
927	:	00001330;
928	:	00FFFE5F;
929	:	00001009;
930	:	000008CD;
931	:	00000562;
932	:	00FFFBB0;
933	:	00000BAF;
934	:	000001AD;
935	:	00000AE4;
936	:	0000056F;
937	:	00FFF4F1;
938	:	00000F96;
939	:	000009FE;
940	:	00FFEC5C;
941	:	00000885;
942	:	000003BB;
943	:	00000C52;
944	:	00FFF5F5;
945	:	00FFF183;
946	:	00000792;
947	:	000001AA;
948	:	00FFFDCC;
949	:	00FFF9AE;
950	:	00000409;
951	:	000013B8;
952	:	00000D8D;
953	:	000008A9;
954	:	000013D4;
955	:	000000C9;
956	:	00FFF1C5;
957	:	000000FD;
958	:	00FFF7E3;
959	:	00FFF2B8;
960	:	00FFFC41;
961	:	00FFFA4C;
962	:	00FFF780;
963	:	0000057C;
964	:	00FFF3EF;
965	:	00001230;
966	:	00000878;
967	:	00FFF917;
968	:	00000000;
969	:	00000000;
970	:	00000000;
971	:	00000000;
972	:	00000000;
973	:	00000000;
974	:	00000000;
975	:	00000000;
976	:	00000000;
977	:	00000000;
978	:	00000000;
979	:	00000000;
980	:	00000000;
981	:	00000000;
982	:	00000000;
983	:	00000000;
984	:	00000000;
985	:	00000000;
986	:	00000000;
987	:	00000000;
988	:	00000000;
989	:	00000000;
990	:	00000000;
991	:	00000000;
992	:	00000000;
993	:	00000000;
994	:	00000000;
995	:	00000000;
996	:	00000000;
997	:	00000000;
998	:	00000000;
999	:	00000000;
1000	:	00000000;
1001	:	00000000;
1002	:	00000000;
1003	:	00000000;
1004	:	00000000;
1005	:	00000000;
1006	:	00000000;
1007	:	00000000;
1008	:	00000000;
1009	:	00000000;
1010	:	00000000;
1011	:	00000000;
1012	:	00000000;
1013	:	00000000;
1014	:	00000000;
1015	:	00000000;
1016	:	00000000;
1017	:	00000000;
1018	:	00000000;
1019	:	00000000;
1020	:	00000000;
1021	:	00000000;
1022	:	00000000;
1023	:	00000000;
END;