WIDTH = 24;
DEPTH=1024;

ADDRESS_RADIX=UNS;
DATA_RADIX=HEX;

CONTENT BEGIN
0	:	0000037B;
1	:	00000C67;
2	:	00FFF774;
3	:	00FFF479;
4	:	00000A89;
5	:	00001341;
6	:	00FFFD47;
7	:	00000D9A;
8	:	00000A2C;
9	:	00000240;
10	:	000009FE;
11	:	00000731;
12	:	00FFFBC7;
13	:	00000611;
14	:	00FFF09C;
15	:	00FFFB26;
16	:	00FFEF8E;
17	:	00FFF45E;
18	:	00000E04;
19	:	0000027A;
20	:	00000DE8;
21	:	00FFF1E4;
22	:	00FFFF45;
23	:	00FFF139;
24	:	000005A1;
25	:	00000B84;
26	:	00FFF18A;
27	:	00FFF348;
28	:	00000871;
29	:	00FFF8DB;
30	:	00FFEC58;
31	:	00FFFDB5;
32	:	00FFFBD2;
33	:	00001097;
34	:	000009B8;
35	:	00000422;
36	:	00000F87;
37	:	00FFFA72;
38	:	00FFF3BE;
39	:	000008D8;
40	:	0000000C;
41	:	0000028D;
42	:	00000C3A;
43	:	00FFEDEE;
44	:	0000130B;
45	:	00000CA3;
46	:	0000035E;
47	:	00FFF79C;
48	:	000002A3;
49	:	00001074;
50	:	0000138B;
51	:	000013A3;
52	:	00000E23;
53	:	000001B1;
54	:	00FFEE91;
55	:	00000C54;
56	:	000001A7;
57	:	00FFF009;
58	:	00FFF420;
59	:	000005E0;
60	:	00FFEC39;
61	:	00FFFB3D;
62	:	00FFF585;
63	:	000002DD;
64	:	00000773;
65	:	00000AEC;
66	:	00FFFD52;
67	:	0000121B;
68	:	0000072E;
69	:	0000013A;
70	:	0000085F;
71	:	00FFF3C2;
72	:	00000EB3;
73	:	000013FB;
74	:	00FFFD5E;
75	:	00FFFA92;
76	:	00FFEC84;
77	:	00FFF1C4;
78	:	00000B01;
79	:	00000CF9;
80	:	00FFFEB4;
81	:	00FFFFD9;
82	:	00000BDD;
83	:	00000AEE;
84	:	00FFF3D6;
85	:	00000E15;
86	:	00FFFD03;
87	:	000009C2;
88	:	00000F5F;
89	:	000013CB;
90	:	00FFEEE3;
91	:	00FFF16E;
92	:	000004E6;
93	:	00FFFAF7;
94	:	000000D6;
95	:	00FFF3CE;
96	:	00FFED29;
97	:	000009C2;
98	:	00FFFEC0;
99	:	00FFFD27;
100	:	00FFF4F5;
101	:	00000182;
102	:	000005D9;
103	:	00FFEC6D;
104	:	00FFFC69;
105	:	000003E6;
106	:	0000121C;
107	:	000013F8;
108	:	00FFEFBD;
109	:	00FFEDE0;
110	:	0000089E;
111	:	00000F08;
112	:	00FFF0FD;
113	:	00000834;
114	:	00000F72;
115	:	000006BD;
116	:	00001206;
117	:	00000BF0;
118	:	00FFF5A6;
119	:	000004B0;
120	:	00000913;
121	:	00FFF622;
122	:	00FFF86C;
123	:	000004BD;
124	:	00FFECEA;
125	:	00FFF345;
126	:	00FFF1E4;
127	:	00FFFC9C;
128	:	00FFF173;
129	:	00FFF16E;
130	:	00FFFC05;
131	:	00000F08;
132	:	00000B36;
133	:	00FFEF06;
134	:	00001168;
135	:	00000ACD;
136	:	000010F4;
137	:	00001078;
138	:	00000205;
139	:	00001176;
140	:	00FFF35B;
141	:	00FFF1C5;
142	:	00000A82;
143	:	00FFF383;
144	:	0000011D;
145	:	00FFF78C;
146	:	00FFED5E;
147	:	000000D3;
148	:	00000606;
149	:	00000B76;
150	:	00FFF176;
151	:	00FFED0A;
152	:	00000FBC;
153	:	00000581;
154	:	00FFF32E;
155	:	00000086;
156	:	00000BDB;
157	:	000006D4;
158	:	00FFFC6E;
159	:	00FFED3D;
160	:	00FFFFE5;
161	:	00000852;
162	:	00FFFCDE;
163	:	00FFF2BF;
164	:	0000050C;
165	:	00FFF19A;
166	:	00FFF111;
167	:	000001D4;
168	:	00000DA7;
169	:	00001203;
170	:	00FFF59C;
171	:	000005E5;
172	:	00FFF62F;
173	:	00FFF625;
174	:	0000049E;
175	:	00FFF96B;
176	:	00000214;
177	:	00000264;
178	:	0000056C;
179	:	00000880;
180	:	00FFF8F0;
181	:	000003FE;
182	:	00000F4D;
183	:	00FFFB0C;
184	:	000005FA;
185	:	0000013E;
186	:	00FFF5A3;
187	:	00000712;
188	:	00FFF397;
189	:	00FFF726;
190	:	000011BE;
191	:	0000044E;
192	:	00000817;
193	:	00FFFDDA;
194	:	00FFFAB1;
195	:	0000040F;
196	:	00FFFCCE;
197	:	00FFF67E;
198	:	00000F26;
199	:	00FFFB15;
200	:	00000054;
201	:	00FFF4AC;
202	:	0000004A;
203	:	00FFEEC6;
204	:	00FFFEF7;
205	:	00FFEE65;
206	:	000001B5;
207	:	00FFFCE5;
208	:	00FFF3E4;
209	:	00FFFBEB;
210	:	00FFF0D0;
211	:	000008D3;
212	:	000012DD;
213	:	00000D06;
214	:	00FFF778;
215	:	00FFF677;
216	:	00FFEE8A;
217	:	00FFEED9;
218	:	00FFF12F;
219	:	000003C4;
220	:	000001D0;
221	:	00000C21;
222	:	0000111A;
223	:	00FFFA22;
224	:	00FFFD53;
225	:	0000000A;
226	:	00FFFA7B;
227	:	00000116;
228	:	00FFECB8;
229	:	0000112B;
230	:	00000EBF;
231	:	00000E38;
232	:	00FFF417;
233	:	00FFFAEC;
234	:	00FFF5EC;
235	:	00FFF3D0;
236	:	00000438;
237	:	00FFFA37;
238	:	0000062B;
239	:	00FFFB43;
240	:	00FFF0E8;
241	:	00000086;
242	:	00FFF1C1;
243	:	00FFEEF2;
244	:	00FFF25B;
245	:	000006BB;
246	:	00FFFC18;
247	:	00FFEDB1;
248	:	000011B2;
249	:	00000939;
250	:	00000217;
251	:	00FFFB4D;
252	:	00000838;
253	:	00FFF09C;
254	:	0000010A;
255	:	00FFF228;
256	:	00000539;
257	:	00FFF5C3;
258	:	00000BF0;
259	:	00FFEF37;
260	:	00000D34;
261	:	00000DBE;
262	:	00FFF433;
263	:	00001076;
264	:	00000263;
265	:	000000D5;
266	:	00000CAF;
267	:	00FFFF92;
268	:	00FFFE7B;
269	:	0000106B;
270	:	0000034F;
271	:	0000085B;
272	:	00FFFE6E;
273	:	00FFF08B;
274	:	00000A0C;
275	:	00001288;
276	:	00FFF5FC;
277	:	000004B2;
278	:	000003CB;
279	:	00FFF8C7;
280	:	00001162;
281	:	00000DC7;
282	:	00000E8F;
283	:	000009CF;
284	:	00000BD7;
285	:	00FFF6F2;
286	:	00FFF350;
287	:	0000062B;
288	:	0000000A;
289	:	0000121A;
290	:	00FFF02D;
291	:	00FFF4B4;
292	:	00001323;
293	:	000009BF;
294	:	00FFF03C;
295	:	00FFEF9C;
296	:	00FFFA42;
297	:	000001AB;
298	:	00FFF538;
299	:	000002A1;
300	:	00FFF1F3;
301	:	00FFF015;
302	:	00FFF577;
303	:	00001351;
304	:	00001007;
305	:	00FFF4FB;
306	:	0000111E;
307	:	00FFF802;
308	:	00000382;
309	:	000010D3;
310	:	00FFECF1;
311	:	000006A5;
312	:	000002D3;
313	:	000012E8;
314	:	00000F8B;
315	:	00000338;
316	:	00FFF1F3;
317	:	00000FA7;
318	:	00FFF890;
319	:	00000DA5;
320	:	00FFFA93;
321	:	00FFFADB;
322	:	00FFEF2C;
323	:	00000596;
324	:	000002B2;
325	:	00000392;
326	:	00FFFFCC;
327	:	00000ACE;
328	:	00FFF610;
329	:	00FFFC56;
330	:	00FFF02D;
331	:	0000046E;
332	:	00FFEE8F;
333	:	00FFF8BC;
334	:	00FFFDF7;
335	:	0000046E;
336	:	00000536;
337	:	00000007;
338	:	00000958;
339	:	00000571;
340	:	00FFFD2D;
341	:	0000031A;
342	:	00FFEE88;
343	:	000012BC;
344	:	00FFF0E2;
345	:	00FFEC24;
346	:	00FFED80;
347	:	00000E90;
348	:	000005F8;
349	:	00001131;
350	:	0000065C;
351	:	00FFFA1A;
352	:	00000DA2;
353	:	00FFFB24;
354	:	000003BF;
355	:	00FFFE8D;
356	:	00FFF7DA;
357	:	00FFFE71;
358	:	00000B5A;
359	:	00001172;
360	:	00FFEC35;
361	:	00FFF328;
362	:	00FFF399;
363	:	000007BD;
364	:	00000BE0;
365	:	0000032E;
366	:	00FFFF30;
367	:	00000B27;
368	:	00FFFE6B;
369	:	00FFF388;
370	:	00FFFE5C;
371	:	00FFF4AD;
372	:	00FFF920;
373	:	00000BA6;
374	:	00000E13;
375	:	000003A8;
376	:	00FFFB09;
377	:	000007A7;
378	:	00001025;
379	:	000004BB;
380	:	00FFF877;
381	:	00000B79;
382	:	00000A72;
383	:	000011B6;
384	:	00000ADF;
385	:	00FFF5B1;
386	:	00000836;
387	:	00FFF9CD;
388	:	00000059;
389	:	00FFF602;
390	:	00FFEDA3;
391	:	00FFFE1F;
392	:	00000BF0;
393	:	00FFFBB5;
394	:	00001169;
395	:	00FFEEE0;
396	:	00000F26;
397	:	00FFFD36;
398	:	00FFFB89;
399	:	00000D9C;
400	:	00FFF50F;
401	:	0000120B;
402	:	00000AE1;
403	:	00FFFB8E;
404	:	000001D9;
405	:	00FFF11C;
406	:	00000DC8;
407	:	00FFF249;
408	:	0000075C;
409	:	00000490;
410	:	00FFEF8F;
411	:	00000C86;
412	:	00000037;
413	:	00001204;
414	:	0000086D;
415	:	00FFF114;
416	:	00FFFF5D;
417	:	00FFFC56;
418	:	00FFFC83;
419	:	00000622;
420	:	0000016A;
421	:	00FFFBFF;
422	:	000008B9;
423	:	00000DB6;
424	:	00FFFEC8;
425	:	00000637;
426	:	00FFF32E;
427	:	00FFF353;
428	:	000009CB;
429	:	00000B84;
430	:	00FFF255;
431	:	00FFF443;
432	:	00FFF0F2;
433	:	00FFEF81;
434	:	00FFF46E;
435	:	00FFF034;
436	:	00000139;
437	:	00000F63;
438	:	0000051C;
439	:	000010F8;
440	:	00FFF91A;
441	:	00000008;
442	:	000011C9;
443	:	00FFFE2B;
444	:	00FFEC0F;
445	:	000013CA;
446	:	0000116A;
447	:	00FFF315;
448	:	00FFF11A;
449	:	000007B9;
450	:	00000F9D;
451	:	00FFFAB1;
452	:	00FFFF6B;
453	:	00000279;
454	:	0000008B;
455	:	00000AEA;
456	:	00000A78;
457	:	00FFF5F4;
458	:	000000AA;
459	:	000004BF;
460	:	00000338;
461	:	00FFF34A;
462	:	00FFFBAE;
463	:	00000301;
464	:	00000BEA;
465	:	00FFFF8E;
466	:	00FFF7E7;
467	:	00000505;
468	:	00FFF7B4;
469	:	00001260;
470	:	00FFEC0E;
471	:	00000712;
472	:	00FFF400;
473	:	00000A89;
474	:	00FFF2AD;
475	:	000011BB;
476	:	000013A4;
477	:	00000759;
478	:	00000CB7;
479	:	0000015D;
480	:	000010A1;
481	:	00FFF72A;
482	:	00FFEE01;
483	:	00FFF9A5;
484	:	00FFFDD7;
485	:	00000C67;
486	:	00000EE8;
487	:	000000D7;
488	:	00FFEEDD;
489	:	00FFF234;
490	:	00000C4F;
491	:	00FFF528;
492	:	00FFFC1A;
493	:	0000122A;
494	:	00000F8D;
495	:	00000814;
496	:	00FFFD2E;
497	:	00000826;
498	:	00FFED32;
499	:	000005BC;
500	:	00FFFB19;
501	:	000004B1;
502	:	00000781;
503	:	000010E1;
504	:	00000046;
505	:	00000447;
506	:	00000731;
507	:	00FFFF60;
508	:	00FFFC54;
509	:	00FFF1AB;
510	:	0000117A;
511	:	00FFFEDE;
512	:	00000681;
513	:	0000037F;
514	:	000002F4;
515	:	00001322;
516	:	00000A10;
517	:	00FFF503;
518	:	00000914;
519	:	000009AE;
520	:	00FFEFAC;
521	:	00FFFAD6;
522	:	00FFF06E;
523	:	00FFEBFA;
524	:	00FFF5C7;
525	:	00FFF813;
526	:	000004A3;
527	:	00FFFCF7;
528	:	00FFFF90;
529	:	00FFEDBC;
530	:	00000AB9;
531	:	000004CB;
532	:	00FFF1FF;
533	:	00FFEC81;
534	:	000005B3;
535	:	00001235;
536	:	00FFEEA9;
537	:	000008A6;
538	:	00FFF35E;
539	:	00FFEC8C;
540	:	00FFF87A;
541	:	000000F7;
542	:	00000647;
543	:	000007CE;
544	:	00FFF5D0;
545	:	00001226;
546	:	00FFF164;
547	:	00000574;
548	:	00FFF762;
549	:	00FFF0BF;
550	:	00001399;
551	:	00FFFB43;
552	:	00FFED99;
553	:	00FFF883;
554	:	00000225;
555	:	000011BF;
556	:	0000052D;
557	:	00000081;
558	:	00FFF7C0;
559	:	000002CF;
560	:	00FFF94F;
561	:	00FFF682;
562	:	00FFF505;
563	:	00000735;
564	:	00FFED12;
565	:	00FFF016;
566	:	00000E9A;
567	:	00FFF1E3;
568	:	00FFFF66;
569	:	00FFFCE5;
570	:	00000C80;
571	:	00000841;
572	:	00FFFB42;
573	:	00FFF5C1;
574	:	00FFF132;
575	:	000002D8;
576	:	00FFFEB5;
577	:	00FFF1E1;
578	:	00FFF9AA;
579	:	000004BA;
580	:	00FFFCFA;
581	:	00FFEC64;
582	:	000002B6;
583	:	00FFF6E7;
584	:	00FFF6CF;
585	:	000009F1;
586	:	00FFEFD6;
587	:	00FFEE6C;
588	:	00000988;
589	:	0000009C;
590	:	00FFFD3B;
591	:	00001354;
592	:	00FFED1A;
593	:	0000039C;
594	:	000011BF;
595	:	00FFFBCB;
596	:	00000DD4;
597	:	00FFFEA6;
598	:	00FFED23;
599	:	00FFF77E;
600	:	00000D04;
601	:	0000016F;
602	:	00000724;
603	:	000007A3;
604	:	00FFF78C;
605	:	00FFEEE7;
606	:	00FFED78;
607	:	00FFEE0B;
608	:	00FFFEA2;
609	:	00FFF16D;
610	:	00FFEC83;
611	:	00000B13;
612	:	00FFFD46;
613	:	00000271;
614	:	00000C6F;
615	:	00000B38;
616	:	0000020B;
617	:	00FFEE31;
618	:	00FFFE77;
619	:	00FFFA86;
620	:	00FFEDFE;
621	:	000000DA;
622	:	00FFF36E;
623	:	000011B2;
624	:	00001096;
625	:	000001CD;
626	:	00FFFF65;
627	:	000010B1;
628	:	00FFED0A;
629	:	00000348;
630	:	00FFF91A;
631	:	0000004A;
632	:	0000072A;
633	:	00FFFDE5;
634	:	00FFFF7B;
635	:	00FFFBA9;
636	:	00000766;
637	:	000008BF;
638	:	00000B26;
639	:	00FFFF1E;
640	:	0000111C;
641	:	000011CE;
642	:	00FFF4B9;
643	:	00000969;
644	:	000005E3;
645	:	00001406;
646	:	000009F0;
647	:	00000558;
648	:	00FFF4EF;
649	:	000003D6;
650	:	00FFF8C0;
651	:	00001260;
652	:	00000B8D;
653	:	000002B3;
654	:	00000595;
655	:	00000F12;
656	:	00000FB0;
657	:	00FFFACF;
658	:	00FFF10C;
659	:	00000356;
660	:	00FFFAEE;
661	:	00FFFC16;
662	:	00FFFF5D;
663	:	00000F8E;
664	:	00FFEFDB;
665	:	00000DC2;
666	:	0000110D;
667	:	00FFFA2C;
668	:	0000102D;
669	:	00FFED35;
670	:	000004E4;
671	:	000001D3;
672	:	00FFF810;
673	:	00FFFB7E;
674	:	00FFEC6B;
675	:	00FFF879;
676	:	00FFFB91;
677	:	000003CC;
678	:	000012B4;
679	:	00FFFD7C;
680	:	00FFF287;
681	:	00FFFA5F;
682	:	00000BA9;
683	:	00000A9D;
684	:	00FFFF44;
685	:	00FFF36E;
686	:	00000A3C;
687	:	00000579;
688	:	00FFFACB;
689	:	00FFFAA6;
690	:	00FFFDBA;
691	:	000007DC;
692	:	00FFF2CA;
693	:	00000715;
694	:	00FFEC5C;
695	:	00000F97;
696	:	00001407;
697	:	00FFF640;
698	:	00FFFA1C;
699	:	000003BA;
700	:	00FFF9ED;
701	:	00FFF539;
702	:	00FFF0A7;
703	:	00FFF4B9;
704	:	0000018C;
705	:	00FFF6B4;
706	:	00FFF867;
707	:	00FFFDEE;
708	:	00FFF48F;
709	:	00FFEFF1;
710	:	00000E30;
711	:	00000327;
712	:	00FFF2B4;
713	:	00000FE2;
714	:	0000104C;
715	:	00FFEE4E;
716	:	000000BD;
717	:	000012DC;
718	:	00000F7C;
719	:	00FFED77;
720	:	00FFFB09;
721	:	00FFF90B;
722	:	00FFF82B;
723	:	00FFFE15;
724	:	00000DE0;
725	:	00FFF300;
726	:	000007E2;
727	:	00FFFFD5;
728	:	00001273;
729	:	00FFFF8A;
730	:	00FFF1C9;
731	:	00FFEF29;
732	:	00FFFA0A;
733	:	00000B1C;
734	:	00000385;
735	:	00000F9B;
736	:	00000C85;
737	:	00001313;
738	:	00FFF285;
739	:	00FFFC3B;
740	:	00FFEFE9;
741	:	00FFF5FB;
742	:	00FFF6FB;
743	:	00FFFEBE;
744	:	00FFF58C;
745	:	00000246;
746	:	00000AD0;
747	:	00FFF840;
748	:	00FFEE28;
749	:	000007CA;
750	:	000011D8;
751	:	00000476;
752	:	00000694;
753	:	00000FC8;
754	:	00FFF631;
755	:	0000030B;
756	:	0000084C;
757	:	00FFFEC7;
758	:	00000BE3;
759	:	00FFECE6;
760	:	00FFF74D;
761	:	0000051B;
762	:	00FFF41F;
763	:	00FFED7B;
764	:	00FFF705;
765	:	00FFF7E9;
766	:	00FFEC5B;
767	:	00000984;
768	:	00FFFAA4;
769	:	00FFF5C6;
770	:	00FFFB64;
771	:	00FFFB57;
772	:	00FFEE35;
773	:	00000C45;
774	:	00FFFFE7;
775	:	00FFFF1D;
776	:	00000400;
777	:	0000097F;
778	:	000006AF;
779	:	00000ED9;
780	:	00FFF435;
781	:	00FFF56C;
782	:	00FFFB51;
783	:	000010E6;
784	:	00001143;
785	:	00000F10;
786	:	00FFF3A9;
787	:	00001208;
788	:	00FFF8CF;
789	:	00FFF72B;
790	:	00000852;
791	:	00FFFB5A;
792	:	00FFEF56;
793	:	00FFF478;
794	:	00FFF3F8;
795	:	00000368;
796	:	00FFFDFB;
797	:	00FFEE52;
798	:	00FFF44B;
799	:	00FFFBE7;
800	:	00FFF4C3;
801	:	000009E1;
802	:	00000A65;
803	:	00000812;
804	:	00FFECE4;
805	:	000013BF;
806	:	00000237;
807	:	00000E3D;
808	:	00000CD6;
809	:	00FFFDF3;
810	:	00FFF762;
811	:	00001339;
812	:	000010C8;
813	:	00000250;
814	:	000009EF;
815	:	00FFFC22;
816	:	000013AC;
817	:	0000101D;
818	:	0000055B;
819	:	00000502;
820	:	00FFEEDD;
821	:	000000B9;
822	:	0000022A;
823	:	00FFF6EB;
824	:	00FFF3BA;
825	:	00000F61;
826	:	00FFF6C3;
827	:	000007C2;
828	:	00000C99;
829	:	00000792;
830	:	00FFEF6A;
831	:	00FFF969;
832	:	0000125D;
833	:	00FFFD92;
834	:	000008A5;
835	:	00FFF5E1;
836	:	0000028A;
837	:	00000D44;
838	:	00FFFB6F;
839	:	000007D5;
840	:	000001C6;
841	:	00FFF525;
842	:	00001293;
843	:	000002AF;
844	:	00000F5D;
845	:	000007F0;
846	:	00FFFAD1;
847	:	00000F91;
848	:	00FFFCE3;
849	:	00FFEF28;
850	:	00000BDC;
851	:	000008BB;
852	:	000006EC;
853	:	00FFFF20;
854	:	00000704;
855	:	000007DE;
856	:	000004DF;
857	:	00FFF73B;
858	:	000012B7;
859	:	00FFF697;
860	:	000001A9;
861	:	0000101D;
862	:	0000021B;
863	:	00000EF7;
864	:	00000B00;
865	:	00000FBB;
866	:	00000F77;
867	:	00000903;
868	:	00FFEDCC;
869	:	00000CE1;
870	:	00000DA6;
871	:	000013DF;
872	:	00FFFAAE;
873	:	00FFFBB3;
874	:	00FFFA02;
875	:	0000110E;
876	:	00FFF10E;
877	:	00FFF1FC;
878	:	00FFEFEF;
879	:	00000EA3;
880	:	00FFFDD4;
881	:	0000102D;
882	:	00FFFDEF;
883	:	00FFF8BD;
884	:	000011F4;
885	:	00FFF827;
886	:	00FFF652;
887	:	00FFEE1E;
888	:	000001FC;
889	:	00001379;
890	:	00FFEFF4;
891	:	00000C99;
892	:	00FFFBE7;
893	:	00000FEA;
894	:	00000CCA;
895	:	00FFF04B;
896	:	0000055B;
897	:	00FFF5EA;
898	:	00FFFC4C;
899	:	0000087B;
900	:	00000F3A;
901	:	00FFFA30;
902	:	000004EA;
903	:	00FFF65C;
904	:	00000C8A;
905	:	00FFF422;
906	:	00FFF463;
907	:	00FFFD8B;
908	:	00FFECC1;
909	:	00FFEF27;
910	:	00FFF4C7;
911	:	00FFECD3;
912	:	00000310;
913	:	00FFFBFE;
914	:	00FFFBFE;
915	:	00FFF5BA;
916	:	00000977;
917	:	00000ECD;
918	:	00FFF0B8;
919	:	00FFF528;
920	:	00000291;
921	:	00000E46;
922	:	00FFFB84;
923	:	00000DE1;
924	:	00FFED8C;
925	:	00FFF634;
926	:	00FFEDE8;
927	:	00000D3D;
928	:	00FFFAEE;
929	:	00FFFB14;
930	:	00000673;
931	:	00000967;
932	:	00000897;
933	:	0000073E;
934	:	00000383;
935	:	00FFFAD5;
936	:	00FFF9E0;
937	:	00FFF70F;
938	:	00FFEC14;
939	:	000002E6;
940	:	00FFF400;
941	:	00FFFF7F;
942	:	000007B3;
943	:	00FFF875;
944	:	000005F8;
945	:	00FFF2A2;
946	:	00FFEF40;
947	:	00FFFA00;
948	:	00FFEFC7;
949	:	00FFECD0;
950	:	000009EB;
951	:	00FFF9EE;
952	:	000006C3;
953	:	00000BC2;
954	:	00FFF207;
955	:	000007E0;
956	:	00FFEE02;
957	:	000003A2;
958	:	00FFF3C3;
959	:	000012C2;
960	:	00FFED1D;
961	:	00000801;
962	:	00FFEDDB;
963	:	00000984;
964	:	00000CE0;
965	:	00000D5C;
966	:	000011A5;
967	:	00FFFB5D;
968	:	00000000;
969	:	00000000;
970	:	00000000;
971	:	00000000;
972	:	00000000;
973	:	00000000;
974	:	00000000;
975	:	00000000;
976	:	00000000;
977	:	00000000;
978	:	00000000;
979	:	00000000;
980	:	00000000;
981	:	00000000;
982	:	00000000;
983	:	00000000;
984	:	00000000;
985	:	00000000;
986	:	00000000;
987	:	00000000;
988	:	00000000;
989	:	00000000;
990	:	00000000;
991	:	00000000;
992	:	00000000;
993	:	00000000;
994	:	00000000;
995	:	00000000;
996	:	00000000;
997	:	00000000;
998	:	00000000;
999	:	00000000;
1000	:	00000000;
1001	:	00000000;
1002	:	00000000;
1003	:	00000000;
1004	:	00000000;
1005	:	00000000;
1006	:	00000000;
1007	:	00000000;
1008	:	00000000;
1009	:	00000000;
1010	:	00000000;
1011	:	00000000;
1012	:	00000000;
1013	:	00000000;
1014	:	00000000;
1015	:	00000000;
1016	:	00000000;
1017	:	00000000;
1018	:	00000000;
1019	:	00000000;
1020	:	00000000;
1021	:	00000000;
1022	:	00000000;
1023	:	00000000;
END;