WIDTH = 24;
DEPTH=1024;

ADDRESS_RADIX=UNS;
DATA_RADIX=HEX;

CONTENT BEGIN
0	:	00000162;
1	:	00FFF88E;
2	:	00FFF9B4;
3	:	00FFF20E;
4	:	00FFEBA4;
5	:	00FFEF92;
6	:	00FFF872;
7	:	00FFF1A8;
8	:	00FFFFF0;
9	:	00FFF824;
10	:	00FFFB56;
11	:	00000050;
12	:	00FFFC72;
13	:	00FFF95E;
14	:	00FFE7E1;
15	:	00FFE140;
16	:	00FFEED2;
17	:	00FFECC9;
18	:	00FFEF62;
19	:	00FFF880;
20	:	00FFEAFF;
21	:	00000041;
22	:	00FFFF66;
23	:	00FFF307;
24	:	00FFF1A2;
25	:	00FFE591;
26	:	00FFF3DB;
27	:	00FFEAFB;
28	:	00FFE2AE;
29	:	00FFFAD9;
30	:	00000BA5;
31	:	0000160A;
32	:	00002D5F;
33	:	00FFFDDA;
34	:	00FFF350;
35	:	00FFFDA7;
36	:	00000773;
37	:	00000F78;
38	:	00FFF5B9;
39	:	00FFF229;
40	:	0000128A;
41	:	00001D4E;
42	:	00001B6C;
43	:	000029FA;
44	:	000001AB;
45	:	00FFFE33;
46	:	0000183A;
47	:	00002651;
48	:	00001DFE;
49	:	00001593;
50	:	0000050F;
51	:	000019F7;
52	:	00003114;
53	:	000020CE;
54	:	00001CA7;
55	:	00FFFE74;
56	:	000010C9;
57	:	00001022;
58	:	0000211B;
59	:	00002C53;
60	:	00001460;
61	:	00FFFBA7;
62	:	00000998;
63	:	00000E8E;
64	:	00000DB1;
65	:	0000363E;
66	:	00FFFCE8;
67	:	000013DC;
68	:	00000EF5;
69	:	000029A7;
70	:	00003D1E;
71	:	000006BE;
72	:	00FFEAF7;
73	:	0000081B;
74	:	00FFF56A;
75	:	00000635;
76	:	00001E70;
77	:	000001D1;
78	:	00000DC9;
79	:	00000CF1;
80	:	000024A8;
81	:	000037C3;
82	:	000006EB;
83	:	00FFF439;
84	:	000009B2;
85	:	00FFEA06;
86	:	0000034B;
87	:	00001238;
88	:	00FFFD5C;
89	:	00000504;
90	:	000012CF;
91	:	00002298;
92	:	0000136E;
93	:	00FFF96A;
94	:	00FFE46C;
95	:	00FFE971;
96	:	00FFDF1C;
97	:	00FFE5FC;
98	:	00FFFB08;
99	:	0000036A;
100	:	000005B7;
101	:	000006F9;
102	:	000014EC;
103	:	000004E5;
104	:	00FFD92F;
105	:	00FFCAE9;
106	:	00FFBBE0;
107	:	00FFD4B3;
108	:	00FFD199;
109	:	00FFF613;
110	:	00000465;
111	:	00000059;
112	:	00FFFD79;
113	:	00000545;
114	:	00FFF8C8;
115	:	00FFEE95;
116	:	00FFD614;
117	:	00FFDD91;
118	:	00FFDC55;
119	:	00FFE9CE;
120	:	00FFF647;
121	:	000001AC;
122	:	00FFFE9C;
123	:	00FFFBCC;
124	:	00000394;
125	:	00FFFB5F;
126	:	0000019E;
127	:	00FFFA7B;
128	:	0000054D;
129	:	00000324;
130	:	00000340;
131	:	00FFFCB5;
132	:	00FFFD4A;
133	:	00FFF872;
134	:	00FFE532;
135	:	00FFDBA5;
136	:	00FFEC2A;
137	:	00FFFBCF;
138	:	00FFF96A;
139	:	00FFFE7F;
140	:	00FFF675;
141	:	00FFF7EA;
142	:	00FFFE3E;
143	:	00FFFAE4;
144	:	00FFF2BC;
145	:	00FFD8AC;
146	:	00FFD9A3;
147	:	00FFF1DB;
148	:	000006BB;
149	:	00FFFC22;
150	:	00FFF784;
151	:	00000625;
152	:	00FFFD8C;
153	:	00FFFEC3;
154	:	00FFF4B1;
155	:	00FFED1F;
156	:	00FFEB0D;
157	:	00FFEEC5;
158	:	00FFF42E;
159	:	00000008;
160	:	000006FC;
161	:	000013BA;
162	:	000017F6;
163	:	00000288;
164	:	00000174;
165	:	00FFF531;
166	:	00FFF0D9;
167	:	00FFE3D3;
168	:	00FFD001;
169	:	00FFD7A9;
170	:	00FFFC67;
171	:	00FFF27B;
172	:	00FFFD11;
173	:	00000ED0;
174	:	00FFF9B2;
175	:	00FFFFBF;
176	:	00FFE69B;
177	:	00FFCBFE;
178	:	00FFBFEC;
179	:	00FFC776;
180	:	00FFD78B;
181	:	00FFE42A;
182	:	00FFFE41;
183	:	000013F7;
184	:	00000DD2;
185	:	00FFF9E2;
186	:	00FFF8E3;
187	:	00FFF0EB;
188	:	00FFD5DC;
189	:	00FFC7A4;
190	:	00FFD7A7;
191	:	00FFCA8E;
192	:	00FFDD5A;
193	:	00FFE154;
194	:	00FFF45B;
195	:	00FFF638;
196	:	00000163;
197	:	000002EC;
198	:	00FFF9BC;
199	:	00FFF189;
200	:	00FFDC95;
201	:	00FFCD04;
202	:	00FFE266;
203	:	00FFF2AE;
204	:	00FFF915;
205	:	00FFFB00;
206	:	00FFFD39;
207	:	00FFFC49;
208	:	0000028B;
209	:	00000AE2;
210	:	0000123B;
211	:	00000539;
212	:	00000AEB;
213	:	000007DE;
214	:	00000E17;
215	:	00001BEE;
216	:	00001522;
217	:	000004A7;
218	:	0000028A;
219	:	00000068;
220	:	00FFFA4E;
221	:	00FFFAC7;
222	:	00FFEE46;
223	:	00000038;
224	:	00000FE4;
225	:	00001304;
226	:	0000107D;
227	:	000002F0;
228	:	00FFF41C;
229	:	00FFF452;
230	:	00FFF977;
231	:	00001763;
232	:	0000198E;
233	:	000013B0;
234	:	00001817;
235	:	00001A38;
236	:	000019CD;
237	:	000009D2;
238	:	00FFE6D9;
239	:	00FFF38F;
240	:	00FFF121;
241	:	00FFF7DD;
242	:	00000591;
243	:	00000261;
244	:	00FFFA6F;
245	:	00FFFF29;
246	:	00FFFE7A;
247	:	00FFE934;
248	:	00FFF563;
249	:	00FFF689;
250	:	00FFEC8F;
251	:	00FFEA21;
252	:	00FFF33D;
253	:	00000195;
254	:	00FFFF5C;
255	:	00FFFD9D;
256	:	00FFF19C;
257	:	00FFFA5D;
258	:	000003EF;
259	:	00FFF3BC;
260	:	00FFE453;
261	:	00FFEFAD;
262	:	00FFEB35;
263	:	00FFF473;
264	:	00FFFEC7;
265	:	00FFFD04;
266	:	00FFF482;
267	:	00FFF27A;
268	:	000008F3;
269	:	0000107E;
270	:	00FFF92E;
271	:	00FFF981;
272	:	00FFF083;
273	:	00FFE9E0;
274	:	00FFF7BF;
275	:	00000179;
276	:	00FFFE0B;
277	:	00000BB0;
278	:	0000117F;
279	:	0000096A;
280	:	00FFFE68;
281	:	00000D3F;
282	:	00FFE946;
283	:	00FFD791;
284	:	00FFE89C;
285	:	00FFED9D;
286	:	000000CB;
287	:	00FFF556;
288	:	00001520;
289	:	000000AA;
290	:	00000718;
291	:	000021DC;
292	:	000004AF;
293	:	00FFD5AC;
294	:	00FFD9D0;
295	:	00FFDDEF;
296	:	00000200;
297	:	00FFF982;
298	:	0000071A;
299	:	00002B31;
300	:	00002564;
301	:	00001F7B;
302	:	00FFFED3;
303	:	00FFFA56;
304	:	00FFDBE1;
305	:	000000D3;
306	:	000005A9;
307	:	000020C5;
308	:	00FFFF85;
309	:	00FFFE66;
310	:	00001A47;
311	:	00001AE4;
312	:	00FFFC58;
313	:	00FFF969;
314	:	00FFE7C6;
315	:	0000011F;
316	:	000012D5;
317	:	00001D07;
318	:	00001441;
319	:	00FFFBA6;
320	:	00FFF4DC;
321	:	00FFE86B;
322	:	00000843;
323	:	00FFFA15;
324	:	00FFF111;
325	:	00000DCB;
326	:	00002518;
327	:	00001034;
328	:	00002840;
329	:	0000133A;
330	:	00FFF994;
331	:	00FFF36C;
332	:	00FFF0CD;
333	:	00FFFDD5;
334	:	00FFFE64;
335	:	00002FB2;
336	:	00002619;
337	:	000018C1;
338	:	00001FB0;
339	:	0000132D;
340	:	00001FC8;
341	:	00000452;
342	:	00FFF87D;
343	:	00FFF028;
344	:	00FFF3BE;
345	:	00000113;
346	:	00001234;
347	:	00001741;
348	:	00001886;
349	:	000017CB;
350	:	00001343;
351	:	00000154;
352	:	00FFFE97;
353	:	00FFFCD7;
354	:	00FFF26E;
355	:	00FFF832;
356	:	00FFE6DD;
357	:	00FFE781;
358	:	00000EA6;
359	:	000005EA;
360	:	00000179;
361	:	0000048B;
362	:	00FFF8F2;
363	:	00FFFC8C;
364	:	00000264;
365	:	00FFFAAF;
366	:	00FFF6CC;
367	:	00FFF793;
368	:	00FFF9E3;
369	:	00FFF561;
370	:	00FFFD21;
371	:	00FFF28E;
372	:	00FFFB7A;
373	:	00FFFD60;
374	:	00FFFF61;
375	:	00FFFDD7;
376	:	00FFFB6A;
377	:	00FFFA79;
378	:	00FFECE5;
379	:	00FFE0EE;
380	:	00FFFBC1;
381	:	0000108C;
382	:	000010E3;
383	:	000001F2;
384	:	00FFFDB8;
385	:	00FFFC65;
386	:	00FFFDB1;
387	:	0000045E;
388	:	00FFFF19;
389	:	000015B3;
390	:	00000DC8;
391	:	00FFF748;
392	:	00000BD4;
393	:	00001350;
394	:	000016CE;
395	:	00FFFE65;
396	:	00FFFE3F;
397	:	00000925;
398	:	000002E8;
399	:	00000A21;
400	:	00FFFDF4;
401	:	0000037A;
402	:	00001A3A;
403	:	00FFF320;
404	:	00FFF6CD;
405	:	00FFFC33;
406	:	00000202;
407	:	000000B0;
408	:	00FFF936;
409	:	00000808;
410	:	000013CE;
411	:	00000DC5;
412	:	00000D45;
413	:	00000170;
414	:	00FFC9FA;
415	:	00FFE406;
416	:	00FFF52F;
417	:	00FFFCE7;
418	:	000001D0;
419	:	00FFF857;
420	:	0000086C;
421	:	00FFFB31;
422	:	00FFF7B1;
423	:	00FFD2EA;
424	:	00FFCE3D;
425	:	00FFD4EA;
426	:	00FFDA10;
427	:	00FFF6A7;
428	:	000004B3;
429	:	00000315;
430	:	00FFFDDF;
431	:	00FFF89B;
432	:	00FFE145;
433	:	00FFE37E;
434	:	00FFDED7;
435	:	00FFD359;
436	:	00FFDF65;
437	:	00FFF340;
438	:	000002C4;
439	:	000005BF;
440	:	00000094;
441	:	00FFEF9F;
442	:	00FFDC4B;
443	:	00FFEBC0;
444	:	00FFEAB1;
445	:	00FFEBB8;
446	:	00FFECE4;
447	:	00FFF2B0;
448	:	00000510;
449	:	00FFFFE8;
450	:	0000004D;
451	:	00FFFED1;
452	:	00FFFC31;
453	:	00FFF71D;
454	:	00FFF45E;
455	:	00FFF871;
456	:	00FFECB3;
457	:	00FFEF85;
458	:	00000B12;
459	:	000011BC;
460	:	000001E4;
461	:	00FFFC11;
462	:	00000137;
463	:	00FFF37D;
464	:	00FFF9F1;
465	:	00FFFB38;
466	:	00FFF97E;
467	:	00FFEB63;
468	:	00FFFD4E;
469	:	00FFFF2A;
470	:	00FFFE4A;
471	:	0000016B;
472	:	000002C9;
473	:	000001C6;
474	:	000002DE;
475	:	00000054;
476	:	00000390;
477	:	00000562;
478	:	00000E6F;
479	:	00FFFD98;
480	:	00000B9B;
481	:	00000560;
482	:	00FFFEF5;
483	:	00FFFBA7;
484	:	00FFFFE8;
485	:	00000413;
486	:	00FFFD30;
487	:	00FFFE4F;
488	:	00FFFA1B;
489	:	00FFFC78;
490	:	00FFFE9D;
491	:	00FFF85F;
492	:	0000058A;
493	:	00FFFBBB;
494	:	00FFFD20;
495	:	0000012D;
496	:	00FFFD3C;
497	:	00FFFE36;
498	:	00FFF972;
499	:	00FFFDBC;
500	:	00FFFF07;
501	:	000007D6;
502	:	000003DA;
503	:	0000078C;
504	:	000006E4;
505	:	000000AF;
506	:	00000100;
507	:	0000011C;
508	:	00FFF9CC;
509	:	00FFF9C2;
510	:	00FFEAF3;
511	:	00FFECBC;
512	:	00FFE90B;
513	:	00FFE5CE;
514	:	000006D0;
515	:	00000DDC;
516	:	00000220;
517	:	00FFFBDB;
518	:	000003AE;
519	:	00FFF90B;
520	:	00FFDCC7;
521	:	00FFD502;
522	:	00FFF323;
523	:	00FFE1EB;
524	:	00FFDFD0;
525	:	0000004C;
526	:	00001305;
527	:	000008FB;
528	:	0000012B;
529	:	0000018D;
530	:	000004F5;
531	:	00FFF57E;
532	:	00FFF97E;
533	:	00FFE4AF;
534	:	00FFF46D;
535	:	00FFEA49;
536	:	00FFF1B4;
537	:	0000017D;
538	:	00FFFD86;
539	:	0000053C;
540	:	00000013;
541	:	0000143E;
542	:	0000110C;
543	:	00000FD4;
544	:	0000146F;
545	:	00002565;
546	:	00FFE7BF;
547	:	00FFF86F;
548	:	00FFF964;
549	:	00000BB6;
550	:	00000042;
551	:	0000035A;
552	:	00002171;
553	:	000023BA;
554	:	00001622;
555	:	000038C5;
556	:	00000D85;
557	:	00FFD92A;
558	:	00FFE8FB;
559	:	00FFEF88;
560	:	00000161;
561	:	00FFFD32;
562	:	00000045;
563	:	00002942;
564	:	00003496;
565	:	00001D85;
566	:	00003CB9;
567	:	00FFEE6D;
568	:	00FFD4FD;
569	:	00FFEDF6;
570	:	00FFEB29;
571	:	00FFF602;
572	:	00FFFD3F;
573	:	000002B5;
574	:	00001C4F;
575	:	0000388C;
576	:	00003069;
577	:	000011F3;
578	:	00FFF058;
579	:	00FFF4C9;
580	:	00FFEEB6;
581	:	00FFF296;
582	:	00FFFF8D;
583	:	00000219;
584	:	00FFFCB0;
585	:	000008D1;
586	:	00001F34;
587	:	000023CC;
588	:	00FFFA9E;
589	:	00FFEF90;
590	:	00FFF2C0;
591	:	00FFF354;
592	:	00FFF7AF;
593	:	00FFFC16;
594	:	000001A8;
595	:	00000361;
596	:	00FFFCDF;
597	:	000001D5;
598	:	00FFFF5F;
599	:	00FFFB98;
600	:	00FFFF0F;
601	:	00FFFD0C;
602	:	00FFFE92;
603	:	00FFF8B0;
604	:	00000313;
605	:	00FFFAFC;
606	:	000000C4;
607	:	00FFF8F5;
608	:	0000008E;
609	:	00FFF07A;
610	:	00FFED4A;
611	:	00FFF985;
612	:	0000061C;
613	:	00000691;
614	:	00000424;
615	:	0000017D;
616	:	0000036E;
617	:	00FFFD0F;
618	:	00FFF997;
619	:	00FFF579;
620	:	00000B98;
621	:	00002047;
622	:	00001537;
623	:	000020B9;
624	:	000027C3;
625	:	0000305E;
626	:	00001D78;
627	:	00FFFA8A;
628	:	00000364;
629	:	00000175;
630	:	00FFFD16;
631	:	00FFF387;
632	:	00001FD3;
633	:	00002244;
634	:	00002203;
635	:	000025EC;
636	:	00001D36;
637	:	00001BD8;
638	:	00FFFA49;
639	:	00FFF9FF;
640	:	00FFF9D1;
641	:	00FFEC7C;
642	:	00FFEFD6;
643	:	00FFFEA0;
644	:	00000EFD;
645	:	000013F0;
646	:	00001005;
647	:	000023E7;
648	:	000013B5;
649	:	00FFFD6E;
650	:	00FFFFD5;
651	:	00FFF976;
652	:	00FFECFF;
653	:	00FFED4E;
654	:	00FFE67E;
655	:	00FFF498;
656	:	00FFF7E4;
657	:	00FFF793;
658	:	00000A6F;
659	:	000028F6;
660	:	00FFFA64;
661	:	00FFF0EA;
662	:	00000854;
663	:	00FFFE74;
664	:	00FFE808;
665	:	00FFF7B0;
666	:	00FFE278;
667	:	00FFD03F;
668	:	00FFE1F0;
669	:	00FFEEEB;
670	:	00000F77;
671	:	00FFF9DA;
672	:	00000CD3;
673	:	0000136C;
674	:	00FFFD11;
675	:	00FFED6D;
676	:	00FFFC27;
677	:	00FFF103;
678	:	00FFE511;
679	:	00FFE6BA;
680	:	00FFEB42;
681	:	00FFF9EF;
682	:	00FFFAB8;
683	:	00000CE0;
684	:	00001735;
685	:	000008CF;
686	:	0000180A;
687	:	00000F9D;
688	:	00FFFB45;
689	:	00FFE45C;
690	:	00FFE9C1;
691	:	00FFF54D;
692	:	00FFFC9A;
693	:	00FFFE9E;
694	:	0000101F;
695	:	00FFF496;
696	:	000018CA;
697	:	00001FD7;
698	:	00004432;
699	:	000005F4;
700	:	00FFE578;
701	:	00FFF409;
702	:	00FFF4A8;
703	:	00000205;
704	:	00000083;
705	:	000002D7;
706	:	000012DF;
707	:	0000387E;
708	:	00002A43;
709	:	00001B15;
710	:	000009D0;
711	:	00FFF8DA;
712	:	00FFF76F;
713	:	00FFFC0A;
714	:	00000199;
715	:	000002B5;
716	:	00000315;
717	:	00FFFF76;
718	:	00000119;
719	:	00000066;
720	:	000002D1;
721	:	00FFFF22;
722	:	00FFF859;
723	:	00FFFBE0;
724	:	00FFFE44;
725	:	00FFFC6C;
726	:	00000125;
727	:	00FFFF0E;
728	:	00FFFF09;
729	:	00FFFD29;
730	:	00FFFB3A;
731	:	00FFFC34;
732	:	00FFFB26;
733	:	00FFFE6C;
734	:	00FFFDEC;
735	:	000002E7;
736	:	00000212;
737	:	00000543;
738	:	000000FC;
739	:	0000003B;
740	:	00000518;
741	:	00FFF3EA;
742	:	00FFFC76;
743	:	00FFF175;
744	:	00FFF0FB;
745	:	00FFFA5A;
746	:	00FFFD8A;
747	:	00000558;
748	:	00000631;
749	:	00FFF920;
750	:	00000455;
751	:	0000113F;
752	:	0000176C;
753	:	00FFF825;
754	:	00000120;
755	:	00FFFFCD;
756	:	000002BC;
757	:	000001E6;
758	:	0000026F;
759	:	00000232;
760	:	00000802;
761	:	00001992;
762	:	00000897;
763	:	0000101D;
764	:	00001A3B;
765	:	00001417;
766	:	00FFF6A3;
767	:	00000AF9;
768	:	00FFFE14;
769	:	00FFFD5D;
770	:	00FFFE2A;
771	:	0000021E;
772	:	00002416;
773	:	00000FE8;
774	:	0000229D;
775	:	00001994;
776	:	00FFF661;
777	:	00FFE80E;
778	:	00FFF639;
779	:	000007DD;
780	:	00000197;
781	:	0000028C;
782	:	00FFFEDD;
783	:	00002B68;
784	:	00002234;
785	:	00002E6C;
786	:	00000EC4;
787	:	00FFE7F5;
788	:	00FFE66C;
789	:	00000006;
790	:	0000112A;
791	:	00FFFE74;
792	:	00FFFD78;
793	:	000010CF;
794	:	00001EF7;
795	:	000021D8;
796	:	0000132B;
797	:	00FFFB43;
798	:	00FFE605;
799	:	00000BDF;
800	:	00001D81;
801	:	00000CC7;
802	:	00FFF4B0;
803	:	00FFFC4F;
804	:	000010FB;
805	:	00000DFC;
806	:	00000764;
807	:	00FFF364;
808	:	00FFEB82;
809	:	00FFF17D;
810	:	00000E65;
811	:	000019D6;
812	:	00001145;
813	:	0000067A;
814	:	0000031E;
815	:	00000094;
816	:	00000712;
817	:	00000339;
818	:	00FFE8E4;
819	:	00FFF4D6;
820	:	00FFFAB3;
821	:	00FFEE40;
822	:	0000065B;
823	:	00FFFD0A;
824	:	00000207;
825	:	00000191;
826	:	00FFFD7A;
827	:	00FFFC26;
828	:	00FFE93A;
829	:	00FFECB4;
830	:	00FFF592;
831	:	00000098;
832	:	00FFF978;
833	:	00FFF212;
834	:	00FFF94D;
835	:	0000058F;
836	:	00FFFDDD;
837	:	0000033E;
838	:	00FFFF78;
839	:	00FFF8BD;
840	:	00FFF2B1;
841	:	00FFF614;
842	:	00FFFDF8;
843	:	00FFF72A;
844	:	00FFFE30;
845	:	00FFFC27;
846	:	000000DD;
847	:	00FFFBD0;
848	:	000000C9;
849	:	00FFFF2D;
850	:	0000038E;
851	:	00FFFBC8;
852	:	0000022B;
853	:	00FFFCC2;
854	:	00FFFE6E;
855	:	00FFFF8B;
856	:	00FFFF15;
857	:	00FFFB32;
858	:	00FFFB19;
859	:	00FFFDEC;
860	:	00FFFB2C;
861	:	00FFFEED;
862	:	00FFF841;
863	:	00000058;
864	:	00FFFE74;
865	:	00FFFB6E;
866	:	00FFFB62;
867	:	00000138;
868	:	00FFFE4D;
869	:	000002FB;
870	:	00000010;
871	:	00FFF6F4;
872	:	000009CD;
873	:	00000638;
874	:	0000090D;
875	:	00FFFCF2;
876	:	00FFF40D;
877	:	000002C8;
878	:	00FFFDB0;
879	:	00FFFF12;
880	:	00FFFE75;
881	:	00FFFF4E;
882	:	00000843;
883	:	00001430;
884	:	00000352;
885	:	00FFE9C6;
886	:	00000B4A;
887	:	00000977;
888	:	00FFF366;
889	:	00FFFC73;
890	:	00FFFFFE;
891	:	00FFFF61;
892	:	00FFFD93;
893	:	00FFFA06;
894	:	00001210;
895	:	00001713;
896	:	00000E57;
897	:	00000C50;
898	:	00000BED;
899	:	00FFF05D;
900	:	00FFF396;
901	:	00FFFDB4;
902	:	00000091;
903	:	00FFFE41;
904	:	00FFEEA3;
905	:	00FFFF57;
906	:	000006FE;
907	:	00FFF1A3;
908	:	00FFD0CB;
909	:	00FFF6B4;
910	:	000002ED;
911	:	00FFF7BC;
912	:	00FFFC1B;
913	:	00FFFEAE;
914	:	00FFFF6F;
915	:	00FFF9A0;
916	:	00FFEAA3;
917	:	00FFD73F;
918	:	00FFC07C;
919	:	00FFB88C;
920	:	00FFDD57;
921	:	00FFE141;
922	:	00FFF7BD;
923	:	00000295;
924	:	000001D8;
925	:	00FFFF6D;
926	:	00FFF43E;
927	:	00FFE982;
928	:	00FFD798;
929	:	00FFD463;
930	:	00FFFBE0;
931	:	000005F3;
932	:	00FFFD12;
933	:	00000918;
934	:	00FFFCDC;
935	:	000001CA;
936	:	00000423;
937	:	000007F0;
938	:	000001DB;
939	:	000002C7;
940	:	00FFFF8C;
941	:	00000899;
942	:	00FFFF1B;
943	:	00000263;
944	:	0000027E;
945	:	00FFFDE6;
946	:	00FFFDDD;
947	:	00FFFE96;
948	:	00000829;
949	:	000000D0;
950	:	00FFFF7C;
951	:	00FFFDF2;
952	:	00FFFF5F;
953	:	00FFF775;
954	:	0000094A;
955	:	000004C7;
956	:	00FFFDBF;
957	:	000000C9;
958	:	00FFFBDD;
959	:	00000DBB;
960	:	00FFFB81;
961	:	00FFF895;
962	:	0000076D;
963	:	00000C45;
964	:	000015E1;
965	:	0000169C;
966	:	0000008C;
967	:	000004A2;
968	:	00000000;
969	:	00000000;
970	:	00000000;
971	:	00000000;
972	:	00000000;
973	:	00000000;
974	:	00000000;
975	:	00000000;
976	:	00000000;
977	:	00000000;
978	:	00000000;
979	:	00000000;
980	:	00000000;
981	:	00000000;
982	:	00000000;
983	:	00000000;
984	:	00000000;
985	:	00000000;
986	:	00000000;
987	:	00000000;
988	:	00000000;
989	:	00000000;
990	:	00000000;
991	:	00000000;
992	:	00000000;
993	:	00000000;
994	:	00000000;
995	:	00000000;
996	:	00000000;
997	:	00000000;
998	:	00000000;
999	:	00000000;
1000	:	00000000;
1001	:	00000000;
1002	:	00000000;
1003	:	00000000;
1004	:	00000000;
1005	:	00000000;
1006	:	00000000;
1007	:	00000000;
1008	:	00000000;
1009	:	00000000;
1010	:	00000000;
1011	:	00000000;
1012	:	00000000;
1013	:	00000000;
1014	:	00000000;
1015	:	00000000;
1016	:	00000000;
1017	:	00000000;
1018	:	00000000;
1019	:	00000000;
1020	:	00000000;
1021	:	00000000;
1022	:	00000000;
1023	:	00000000;
END;