WIDTH = 24;
DEPTH=1024;

ADDRESS_RADIX=UNS;
DATA_RADIX=HEX;

CONTENT BEGIN
0	:	00FFFFB6;
1	:	00FFFF6B;
2	:	00FFFF16;
3	:	00FFFCC0;
4	:	00FFF6CA;
5	:	00FFF7DD;
6	:	00FFEC61;
7	:	00FFECEC;
8	:	00FFF385;
9	:	00FFF4E3;
10	:	00FFFC60;
11	:	00000334;
12	:	00FFFCBC;
13	:	000003C9;
14	:	00FFEFB6;
15	:	00FFF5A3;
16	:	00FFF5AC;
17	:	00FFFF2A;
18	:	00FFF95E;
19	:	00FFF215;
20	:	00FFF386;
21	:	00FFFDF3;
22	:	00FFFD12;
23	:	00FFF7A1;
24	:	000017B3;
25	:	00FFEF7A;
26	:	00000BBA;
27	:	000006E7;
28	:	00FFF23A;
29	:	00000688;
30	:	00000ADB;
31	:	00000D64;
32	:	00001C53;
33	:	00000382;
34	:	00FFF901;
35	:	00000BAE;
36	:	000002D9;
37	:	00000AD0;
38	:	00FFEF2E;
39	:	00000E55;
40	:	00000F64;
41	:	000020F8;
42	:	00000FB1;
43	:	00001A96;
44	:	00000556;
45	:	00FFFDD6;
46	:	00FFFD1F;
47	:	000033CC;
48	:	00002B9C;
49	:	00FFF6E4;
50	:	00001E31;
51	:	0000150F;
52	:	0000214A;
53	:	00FFFECD;
54	:	000017FF;
55	:	00FFFF41;
56	:	00FFFF3E;
57	:	00001799;
58	:	00003A54;
59	:	00003660;
60	:	00FFEE64;
61	:	0000043A;
62	:	000005DB;
63	:	0000069F;
64	:	00FFF182;
65	:	000031E7;
66	:	00FFFC8C;
67	:	00000578;
68	:	00002FE9;
69	:	0000344E;
70	:	00002670;
71	:	00FFE734;
72	:	00FFE7A1;
73	:	00FFF7EE;
74	:	00000DE7;
75	:	00000464;
76	:	00000145;
77	:	00FFFDDF;
78	:	00FFFF89;
79	:	0000047E;
80	:	000018B5;
81	:	000008E5;
82	:	00FFF6D9;
83	:	00FFF23D;
84	:	00FFDF69;
85	:	00FFEB41;
86	:	00000BED;
87	:	00FFEF93;
88	:	00000470;
89	:	00FFF6EA;
90	:	00FFFCF6;
91	:	0000058F;
92	:	000002DA;
93	:	00000775;
94	:	00FFF4C6;
95	:	00FFDB3B;
96	:	00FFE6A1;
97	:	00FFF3AE;
98	:	00FFF50F;
99	:	00FFFE81;
100	:	00FFFF8F;
101	:	000005FE;
102	:	000004EF;
103	:	00000492;
104	:	0000105F;
105	:	0000262A;
106	:	00000EF1;
107	:	000007C9;
108	:	00FFFB26;
109	:	00FFFB2E;
110	:	00FFFDA0;
111	:	00FFFFD9;
112	:	000000DA;
113	:	0000114C;
114	:	00001063;
115	:	00004617;
116	:	000055B8;
117	:	00003FDA;
118	:	0000185D;
119	:	0000028C;
120	:	000000F6;
121	:	00000621;
122	:	00FFF8FB;
123	:	000001FC;
124	:	00FFFB8D;
125	:	00FFFAC2;
126	:	000000CA;
127	:	00000177;
128	:	00FFFFE2;
129	:	00FFFEB1;
130	:	00FFFE6A;
131	:	00000352;
132	:	00FFFC84;
133	:	000001E9;
134	:	0000084F;
135	:	00001290;
136	:	00000E29;
137	:	00FFFFF3;
138	:	00FFFFD8;
139	:	00FFFEC4;
140	:	00FFFF07;
141	:	00000352;
142	:	00FFFBFD;
143	:	00000BB4;
144	:	00002C0B;
145	:	0000380A;
146	:	000040F7;
147	:	0000562E;
148	:	0000396B;
149	:	00000C3B;
150	:	00FFF5D7;
151	:	00FFF15A;
152	:	000000C2;
153	:	00FFFA77;
154	:	00001D54;
155	:	000034E8;
156	:	00004878;
157	:	00004046;
158	:	0000566C;
159	:	000024EF;
160	:	00001B00;
161	:	00FFFA88;
162	:	00FFF1B0;
163	:	00FFF5B5;
164	:	00FFF954;
165	:	00003563;
166	:	00003732;
167	:	00004020;
168	:	00002C69;
169	:	000015EC;
170	:	00001EFA;
171	:	00000E4F;
172	:	00000874;
173	:	000009D3;
174	:	00FFFB79;
175	:	0000011C;
176	:	000028AB;
177	:	00001BA4;
178	:	000028BD;
179	:	00002EE7;
180	:	00FFF7D9;
181	:	000034CF;
182	:	0000251A;
183	:	000007F2;
184	:	00FFF9BB;
185	:	00FFFB15;
186	:	000004FB;
187	:	00003149;
188	:	0000047D;
189	:	0000279A;
190	:	00000617;
191	:	00FFE665;
192	:	00FFE45D;
193	:	00FFF332;
194	:	000012D5;
195	:	00001412;
196	:	000005E2;
197	:	00FFFBC2;
198	:	00000334;
199	:	00001304;
200	:	00002914;
201	:	00000C56;
202	:	00FFE938;
203	:	00FFEF96;
204	:	00FFF9B5;
205	:	00000A20;
206	:	0000021B;
207	:	00FFF916;
208	:	00FFF083;
209	:	00FFEAB9;
210	:	00FFDF3C;
211	:	00FFFB4E;
212	:	00FFF88C;
213	:	00FFEE98;
214	:	00FFC9A9;
215	:	00FFF3D8;
216	:	00000827;
217	:	000006C1;
218	:	000006FC;
219	:	000001D4;
220	:	00FFEA86;
221	:	00FFD621;
222	:	00FFBAF6;
223	:	00FFC073;
224	:	00FFD607;
225	:	00FFDCF0;
226	:	00FFF6EC;
227	:	00FFF6DA;
228	:	00FFF5C3;
229	:	00000980;
230	:	00FFFF54;
231	:	00FFDEA0;
232	:	00FFCFB2;
233	:	00FFB68E;
234	:	00FFCEFB;
235	:	00FFE044;
236	:	00FFDFC2;
237	:	00FFF2BE;
238	:	00FFEC2E;
239	:	00FFE84F;
240	:	00FFF098;
241	:	00FFFBA2;
242	:	00FFF702;
243	:	00FFFB39;
244	:	00FFFB78;
245	:	0000017C;
246	:	00FFFB80;
247	:	00000032;
248	:	00FFF971;
249	:	00FFFFC0;
250	:	00FFF949;
251	:	00FFF6D5;
252	:	00FFF71D;
253	:	00FFF693;
254	:	00FFF716;
255	:	00FFF72B;
256	:	00FFFE62;
257	:	00FFFF84;
258	:	00FFF4B2;
259	:	00FFEC67;
260	:	00FFF62E;
261	:	00FFF788;
262	:	00FFE139;
263	:	00FFEEC5;
264	:	00FFFB5C;
265	:	00FFEA02;
266	:	00FFEBA1;
267	:	00FFEA0C;
268	:	00FFF21D;
269	:	00FFD605;
270	:	00FFD09C;
271	:	0000114F;
272	:	00001003;
273	:	000006BF;
274	:	00000AAD;
275	:	00FFF7B3;
276	:	00FFED8F;
277	:	00FFFB78;
278	:	00002476;
279	:	000018B1;
280	:	00FFF906;
281	:	00000026;
282	:	00001697;
283	:	00FFF8F4;
284	:	00FFF753;
285	:	00002EE3;
286	:	00FFFF7D;
287	:	00001735;
288	:	00FFFD73;
289	:	00001BA5;
290	:	000019D5;
291	:	000016F4;
292	:	00FFF998;
293	:	0000085E;
294	:	00000A24;
295	:	00000D0B;
296	:	00000EE6;
297	:	00000E32;
298	:	0000204D;
299	:	00001FB8;
300	:	00002CEC;
301	:	000028B0;
302	:	00FFD53F;
303	:	00FFF16F;
304	:	0000082A;
305	:	00FFF65B;
306	:	00FFEA91;
307	:	00FFE748;
308	:	00001396;
309	:	00002212;
310	:	000024C1;
311	:	000029AA;
312	:	00FFEF87;
313	:	00FFFB3F;
314	:	00001071;
315	:	0000020D;
316	:	00000E1D;
317	:	00001F17;
318	:	00000F9F;
319	:	0000024C;
320	:	0000113D;
321	:	00000AA2;
322	:	00000539;
323	:	00FFE894;
324	:	00FFFE76;
325	:	00001F27;
326	:	000000BA;
327	:	00002B6B;
328	:	00000F71;
329	:	00FFFD70;
330	:	00FFFC5C;
331	:	00FFFC1A;
332	:	00000141;
333	:	0000022A;
334	:	00000729;
335	:	00000548;
336	:	0000097C;
337	:	000001CE;
338	:	0000259C;
339	:	00001AEA;
340	:	00FFFD11;
341	:	00FFF8FD;
342	:	00FFF94A;
343	:	00000171;
344	:	00002304;
345	:	00000CA4;
346	:	00FFFC2A;
347	:	00FFDB2B;
348	:	00000ED1;
349	:	00000323;
350	:	00FFEF8C;
351	:	00FFF090;
352	:	00FFF865;
353	:	000010CC;
354	:	0000218C;
355	:	00002475;
356	:	00001747;
357	:	00FFF4B5;
358	:	00FFF164;
359	:	00FFE22F;
360	:	00FFEA1D;
361	:	00FFE3AE;
362	:	00FFF563;
363	:	00FFFE68;
364	:	00FFFECB;
365	:	00FFFF6E;
366	:	000000F9;
367	:	00FFFAD1;
368	:	00FFFA3D;
369	:	00FFFE49;
370	:	00FFFFB5;
371	:	00FFFE5F;
372	:	00FFFD93;
373	:	00000211;
374	:	00000217;
375	:	00000867;
376	:	00FFFCE8;
377	:	0000010F;
378	:	00000A98;
379	:	00000AF9;
380	:	00FFECFB;
381	:	00FFE74C;
382	:	00FFEEA0;
383	:	00FFFC00;
384	:	00000333;
385	:	00FFFCAC;
386	:	00FFEA37;
387	:	00000C81;
388	:	00FFDC0B;
389	:	00FFE747;
390	:	00000E84;
391	:	000000EE;
392	:	00FFF560;
393	:	00FFEBC1;
394	:	00FFF63C;
395	:	00FFFCB4;
396	:	00000B56;
397	:	00001ABC;
398	:	000018BD;
399	:	00FFDDDE;
400	:	00FFF261;
401	:	00FFE533;
402	:	00001F7B;
403	:	000003FB;
404	:	00000B1B;
405	:	000006A4;
406	:	000004E5;
407	:	00000FFF;
408	:	00000D6D;
409	:	00FFF322;
410	:	00FFEC2C;
411	:	00FFEBE8;
412	:	00FFDFF2;
413	:	0000172B;
414	:	00003E1C;
415	:	00001A49;
416	:	000007BE;
417	:	0000048E;
418	:	00001544;
419	:	0000097D;
420	:	00FFF35A;
421	:	00FFEAAE;
422	:	00FFE302;
423	:	00FFBB65;
424	:	00FFF2F1;
425	:	000003FF;
426	:	00FFFE26;
427	:	00FFFFEC;
428	:	00FFFB6D;
429	:	00000198;
430	:	000007C7;
431	:	00000737;
432	:	000020E8;
433	:	00000398;
434	:	00FFE9BE;
435	:	00FFCEF2;
436	:	00FFD234;
437	:	00FFE8F3;
438	:	00FFFB51;
439	:	00FFFA44;
440	:	00FFF8CF;
441	:	00FFF737;
442	:	00000405;
443	:	00003157;
444	:	00001F39;
445	:	000004C4;
446	:	00FFF7EF;
447	:	00FFEB23;
448	:	00FFF04F;
449	:	00FFF966;
450	:	00FFF8FA;
451	:	00FFFD72;
452	:	0000027B;
453	:	0000140E;
454	:	000006B2;
455	:	00000271;
456	:	00FFE58D;
457	:	00FFEF9A;
458	:	00FFF960;
459	:	00FFFE7A;
460	:	00FFFBEA;
461	:	00FFFF25;
462	:	00FFFFE4;
463	:	00FFF4C7;
464	:	00FFE69C;
465	:	00FFFBFA;
466	:	00FFEB4C;
467	:	00FFEA79;
468	:	00FFECE2;
469	:	00FFF4BB;
470	:	00FFFAC3;
471	:	000000A2;
472	:	000001D3;
473	:	00000138;
474	:	00FFF818;
475	:	00FFF4FF;
476	:	00FFEBE8;
477	:	00FFDCC1;
478	:	00FFE96A;
479	:	00FFEF4A;
480	:	00FFED9A;
481	:	00FFF845;
482	:	00FFFE76;
483	:	00FFFD19;
484	:	000000D1;
485	:	00000446;
486	:	00000438;
487	:	00FFFF90;
488	:	000002E5;
489	:	00FFFDD9;
490	:	00000160;
491	:	00000485;
492	:	000000C0;
493	:	00FFFDB1;
494	:	000003F3;
495	:	00FFFB55;
496	:	00000343;
497	:	00000594;
498	:	00FFFD19;
499	:	00FFFE4F;
500	:	0000023C;
501	:	00FFFE5E;
502	:	00FFFCC3;
503	:	00FFF7DE;
504	:	00FFF8F0;
505	:	00FFFA69;
506	:	00FFFE08;
507	:	00FFFFA4;
508	:	0000087F;
509	:	00001070;
510	:	000003E0;
511	:	00000440;
512	:	00FFFA4E;
513	:	00FFE33E;
514	:	00FFE5D9;
515	:	00FFEC99;
516	:	00FFF694;
517	:	00000503;
518	:	00FFF7C0;
519	:	00FFFED4;
520	:	00FFF3F0;
521	:	00FFD736;
522	:	00FFDB25;
523	:	00FFC946;
524	:	00000044;
525	:	00000207;
526	:	00FFF50A;
527	:	00FFFC38;
528	:	00FFFDA0;
529	:	00FFFBB8;
530	:	00FFE24E;
531	:	00FFF1A6;
532	:	00FFE65B;
533	:	00FFBD7E;
534	:	00FFD2D3;
535	:	00003BC2;
536	:	00002255;
537	:	0000102B;
538	:	00000DED;
539	:	0000055E;
540	:	000000AB;
541	:	00FFDBC8;
542	:	00FFB317;
543	:	00FFA022;
544	:	00FFC4BF;
545	:	00FFFCBB;
546	:	000029F0;
547	:	00000CD6;
548	:	00001777;
549	:	00001630;
550	:	00FFFF4F;
551	:	00000179;
552	:	00FFF0A9;
553	:	00FFE518;
554	:	00FFD95A;
555	:	00FFEFA1;
556	:	00FFF2CB;
557	:	0000081A;
558	:	000005AC;
559	:	00FFFF07;
560	:	00000F73;
561	:	00FFFFE6;
562	:	0000022E;
563	:	00FFF238;
564	:	00FFF34A;
565	:	00FFF626;
566	:	00FFF0A4;
567	:	00FFD43B;
568	:	00FFFFFD;
569	:	00FFEB1B;
570	:	00000176;
571	:	00000571;
572	:	0000053B;
573	:	000000C8;
574	:	00FFF65C;
575	:	00FFEC39;
576	:	00FFEB90;
577	:	00FFFEE3;
578	:	00FFFB62;
579	:	00000C43;
580	:	00002391;
581	:	00001CB5;
582	:	000006B7;
583	:	00000016;
584	:	00FFFAE1;
585	:	00FFF81A;
586	:	00FFEFBC;
587	:	00FFEF42;
588	:	00FFF744;
589	:	000001D5;
590	:	00FFE9BE;
591	:	00001C7E;
592	:	00001DF8;
593	:	0000029D;
594	:	00FFFD11;
595	:	00FFFE75;
596	:	00000373;
597	:	000009BD;
598	:	00FFFFDA;
599	:	000010F2;
600	:	00000DE6;
601	:	00000D03;
602	:	00000E9E;
603	:	000007E6;
604	:	0000029A;
605	:	00FFFCC7;
606	:	00000C69;
607	:	000006E5;
608	:	00000923;
609	:	00FFFE26;
610	:	00000F9A;
611	:	00001021;
612	:	00000197;
613	:	00FFF8A1;
614	:	00FFF863;
615	:	000003DB;
616	:	0000026D;
617	:	0000202D;
618	:	000032FF;
619	:	00003B38;
620	:	0000359F;
621	:	000008C1;
622	:	000010D8;
623	:	00FFE753;
624	:	00FFE8AE;
625	:	00FFE8C4;
626	:	00FFFE20;
627	:	00000E4A;
628	:	00002C1F;
629	:	00002568;
630	:	000037C0;
631	:	00002722;
632	:	00000A05;
633	:	00001BDC;
634	:	0000044D;
635	:	00FFF3DF;
636	:	00FFF41D;
637	:	00FFF1BB;
638	:	0000169C;
639	:	00002254;
640	:	00001D22;
641	:	00001468;
642	:	000003E4;
643	:	00000B71;
644	:	00FFFF70;
645	:	0000133B;
646	:	000013ED;
647	:	0000020D;
648	:	000001A6;
649	:	00000043;
650	:	00FFF1F0;
651	:	00FFE9AD;
652	:	00FFFBBB;
653	:	00FFDEF2;
654	:	00FFE874;
655	:	00FFFAC6;
656	:	0000026B;
657	:	0000034C;
658	:	00FFFEBA;
659	:	00FFFFB2;
660	:	00FFF802;
661	:	00FFED0A;
662	:	00FFE9D3;
663	:	00FFBE7E;
664	:	00FFAD25;
665	:	00FFD8ED;
666	:	00FFE5CF;
667	:	00FFFAAD;
668	:	000007B3;
669	:	00FFFDD6;
670	:	00FFF84E;
671	:	00FFFB14;
672	:	00FFE8A8;
673	:	00FFDFE0;
674	:	00FFC9DC;
675	:	00FFCB9E;
676	:	00FFE97D;
677	:	00FFCCAE;
678	:	00FFD938;
679	:	00FFE2FE;
680	:	00FFE62A;
681	:	00FFEDF3;
682	:	000000F0;
683	:	00FFFB3F;
684	:	00FFECA4;
685	:	00FFEE08;
686	:	00FFEB2E;
687	:	00FFDDC4;
688	:	00FFBE78;
689	:	00FFE3CF;
690	:	00FFEAC5;
691	:	00FFDF08;
692	:	00FFF505;
693	:	00FFFE24;
694	:	00FFF30C;
695	:	00FFE6A0;
696	:	00FFECB1;
697	:	00FFF194;
698	:	00FFD968;
699	:	00FFC450;
700	:	00FFE386;
701	:	00FFF4EB;
702	:	00FFF739;
703	:	00FFFC2A;
704	:	00FFFD9D;
705	:	00FFF832;
706	:	00FFEFDC;
707	:	00FFE6BA;
708	:	00FFE476;
709	:	00FFD07B;
710	:	00FFCFFD;
711	:	00FFEAA3;
712	:	0000043D;
713	:	00FFEF9F;
714	:	00FFFCA2;
715	:	00FFFF8C;
716	:	00FFFB42;
717	:	00FFFC73;
718	:	0000013E;
719	:	00FFF8A8;
720	:	00FFF6C4;
721	:	00FFFB18;
722	:	00FFFDBB;
723	:	00FFFAEF;
724	:	00FFFC72;
725	:	00FFFCCF;
726	:	00000314;
727	:	00FFFF1B;
728	:	0000047C;
729	:	000000A2;
730	:	0000028B;
731	:	00FFFE11;
732	:	00FFFF26;
733	:	00FFFCBA;
734	:	00FFFB95;
735	:	000002C5;
736	:	000000B2;
737	:	00FFFB06;
738	:	00FFFC20;
739	:	00FFFDCB;
740	:	00FFFA94;
741	:	00FFFF27;
742	:	00FFFBD5;
743	:	00000281;
744	:	00000282;
745	:	00FFFCBE;
746	:	00FFFDFA;
747	:	00FFFDBA;
748	:	000002FE;
749	:	00000194;
750	:	00FFF4D3;
751	:	00FFF476;
752	:	00FFE8C6;
753	:	00FFDC12;
754	:	00FFEBCE;
755	:	00FFEECF;
756	:	00FFF236;
757	:	00FFFF12;
758	:	0000029F;
759	:	00FFFEF5;
760	:	00FFF97C;
761	:	00FFF92E;
762	:	000002A5;
763	:	0000081E;
764	:	00FFDF2F;
765	:	00FFF284;
766	:	00000E57;
767	:	00000E0C;
768	:	00FFFF9E;
769	:	0000023B;
770	:	00FFFC8A;
771	:	00000323;
772	:	00001F23;
773	:	00002FEE;
774	:	00002734;
775	:	00FFEEBF;
776	:	00000CD1;
777	:	00002028;
778	:	000017CB;
779	:	000011A3;
780	:	0000028F;
781	:	00FFFB86;
782	:	00000393;
783	:	000013B0;
784	:	00FFF58A;
785	:	00FFFAFD;
786	:	00FFDE46;
787	:	000000D6;
788	:	00001D38;
789	:	00001B2C;
790	:	00001794;
791	:	000007DA;
792	:	00000581;
793	:	0000117E;
794	:	00001248;
795	:	00000000;
796	:	00FFEF32;
797	:	00FFF89F;
798	:	00000397;
799	:	000011F5;
800	:	00000BDC;
801	:	0000102F;
802	:	00000803;
803	:	0000019A;
804	:	00000A94;
805	:	00FFFA2E;
806	:	00FFF0AE;
807	:	00001096;
808	:	00FFFCA2;
809	:	00001013;
810	:	00002BFA;
811	:	000019E8;
812	:	00001058;
813	:	000004D9;
814	:	00FFFAB6;
815	:	00FFF6C7;
816	:	00FFFC04;
817	:	000007B1;
818	:	00001AF5;
819	:	00000632;
820	:	000012DC;
821	:	00002DC4;
822	:	00001EC8;
823	:	000006B3;
824	:	00FFFBDB;
825	:	00FFFFA0;
826	:	00FFFE7E;
827	:	000000ED;
828	:	00000039;
829	:	00001478;
830	:	000017F3;
831	:	000022BE;
832	:	000039FC;
833	:	00001BA4;
834	:	0000075A;
835	:	00FFFE8F;
836	:	0000013C;
837	:	0000012F;
838	:	00000C0D;
839	:	00001B96;
840	:	00000B3C;
841	:	00FFFFDF;
842	:	00001202;
843	:	00001053;
844	:	000006B0;
845	:	0000012E;
846	:	00FFFED2;
847	:	000000F3;
848	:	00FFFF47;
849	:	00FFFC4F;
850	:	00000208;
851	:	000003CA;
852	:	00000407;
853	:	00000018;
854	:	000004AA;
855	:	00FFFD97;
856	:	00FFFCCA;
857	:	00FFFBC5;
858	:	00FFFDED;
859	:	00FFFB88;
860	:	00000473;
861	:	00FFFFCC;
862	:	00FFFF05;
863	:	00FFFD2A;
864	:	00FFFB03;
865	:	0000019B;
866	:	00FFFEBC;
867	:	00FFFD80;
868	:	0000003C;
869	:	00FFFFB8;
870	:	00000677;
871	:	00000703;
872	:	00000B26;
873	:	0000035A;
874	:	00FFFDAC;
875	:	00FFE71D;
876	:	00FFEE5B;
877	:	00000002;
878	:	000002AF;
879	:	00FFFD74;
880	:	00FFFFC0;
881	:	00FFFCB7;
882	:	00000A48;
883	:	0000218C;
884	:	000032E9;
885	:	00004402;
886	:	00001D8D;
887	:	00FFEB3D;
888	:	00000559;
889	:	00FFF820;
890	:	00FFFACD;
891	:	0000024D;
892	:	00000C33;
893	:	00002350;
894	:	00002B2D;
895	:	00002D83;
896	:	00003D52;
897	:	0000105D;
898	:	00FFFE07;
899	:	00000892;
900	:	00FFFA2D;
901	:	00FFF999;
902	:	00000789;
903	:	00001EA8;
904	:	00002F90;
905	:	00001250;
906	:	000000E3;
907	:	0000118D;
908	:	00FFFDAC;
909	:	000007CA;
910	:	00FFE850;
911	:	00FFEEA6;
912	:	00FFFEE4;
913	:	0000019F;
914	:	000011EC;
915	:	00001791;
916	:	00FFFE83;
917	:	00FFE43C;
918	:	00FFE8E1;
919	:	00FFF736;
920	:	000013D2;
921	:	000010D0;
922	:	000004CE;
923	:	00FFFD7D;
924	:	00FFFF54;
925	:	00000392;
926	:	00FFF463;
927	:	00FFD8B7;
928	:	00FFF2A6;
929	:	00001181;
930	:	00FFE7DC;
931	:	00000A5A;
932	:	00001F14;
933	:	00000FE6;
934	:	00FFFCC3;
935	:	00FFFE0B;
936	:	00FFF71F;
937	:	00FFF324;
938	:	00FFEFAD;
939	:	0000004F;
940	:	000000C6;
941	:	00FFF1D8;
942	:	00000DF3;
943	:	00000D89;
944	:	00000677;
945	:	00FFFC00;
946	:	00FFF78B;
947	:	00FFF95B;
948	:	00FFEFDD;
949	:	00FFE22F;
950	:	00FFE3E4;
951	:	00FFECF4;
952	:	00FFE618;
953	:	00FFF47F;
954	:	000005D5;
955	:	00000CD7;
956	:	00FFFE02;
957	:	000004FB;
958	:	00FFF446;
959	:	00FFEF46;
960	:	00FFF407;
961	:	00FFD9B5;
962	:	00FFD36D;
963	:	00FFD95C;
964	:	00FFE7FD;
965	:	00FFF790;
966	:	00FFF999;
967	:	00000351;
968	:	00000000;
969	:	00000000;
970	:	00000000;
971	:	00000000;
972	:	00000000;
973	:	00000000;
974	:	00000000;
975	:	00000000;
976	:	00000000;
977	:	00000000;
978	:	00000000;
979	:	00000000;
980	:	00000000;
981	:	00000000;
982	:	00000000;
983	:	00000000;
984	:	00000000;
985	:	00000000;
986	:	00000000;
987	:	00000000;
988	:	00000000;
989	:	00000000;
990	:	00000000;
991	:	00000000;
992	:	00000000;
993	:	00000000;
994	:	00000000;
995	:	00000000;
996	:	00000000;
997	:	00000000;
998	:	00000000;
999	:	00000000;
1000	:	00000000;
1001	:	00000000;
1002	:	00000000;
1003	:	00000000;
1004	:	00000000;
1005	:	00000000;
1006	:	00000000;
1007	:	00000000;
1008	:	00000000;
1009	:	00000000;
1010	:	00000000;
1011	:	00000000;
1012	:	00000000;
1013	:	00000000;
1014	:	00000000;
1015	:	00000000;
1016	:	00000000;
1017	:	00000000;
1018	:	00000000;
1019	:	00000000;
1020	:	00000000;
1021	:	00000000;
1022	:	00000000;
1023	:	00000000;
END;