WIDTH = 24;
DEPTH=1024;

ADDRESS_RADIX=UNS;
DATA_RADIX=HEX;

CONTENT BEGIN
0	:	000001F5;
1	:	00FFFF80;
2	:	000001E7;
3	:	00FFFFA3;
4	:	00000515;
5	:	00FFFA36;
6	:	00FFE9E1;
7	:	00FFF6FA;
8	:	00FFECDD;
9	:	00000309;
10	:	00FFE2A6;
11	:	0000022E;
12	:	00FFFF58;
13	:	000000F0;
14	:	00FFFF71;
15	:	00FFFBA2;
16	:	00FFECFE;
17	:	00FFCCC7;
18	:	00FFF707;
19	:	00002382;
20	:	00FFFD5F;
21	:	00FFE2FA;
22	:	00FFFC7E;
23	:	00FFFD8A;
24	:	00FFFC7A;
25	:	00FFF79E;
26	:	00FFE0DB;
27	:	00FFD087;
28	:	00FFDC82;
29	:	00001E7C;
30	:	00004828;
31	:	00001519;
32	:	0000026C;
33	:	00FFFD3F;
34	:	00FFF9C2;
35	:	00FFFE9F;
36	:	00FFE777;
37	:	00FFD80F;
38	:	00FFE27C;
39	:	00FFE85B;
40	:	000002D4;
41	:	00FFFC1E;
42	:	0000240D;
43	:	00000EDD;
44	:	00FFFE52;
45	:	000004E7;
46	:	000002A6;
47	:	00FFE07F;
48	:	00FFEEEA;
49	:	000000A4;
50	:	00FFFE7E;
51	:	00FFD7D9;
52	:	00FFE006;
53	:	00FFFFE7;
54	:	00FFF3BB;
55	:	00FFFF76;
56	:	00FFFE90;
57	:	00FFF942;
58	:	00000339;
59	:	00000940;
60	:	00000992;
61	:	00FFF6C1;
62	:	00FFC9D8;
63	:	00FFDF67;
64	:	00FFC79A;
65	:	00FFDB59;
66	:	00FFFE08;
67	:	00FFFC4B;
68	:	00FFF04D;
69	:	00FFE375;
70	:	00FFF311;
71	:	000011ED;
72	:	00001A71;
73	:	0000000D;
74	:	00FFF188;
75	:	00FFFC96;
76	:	00FFE908;
77	:	00FFFBA8;
78	:	00FFFC7E;
79	:	00FFE693;
80	:	00FFFE40;
81	:	00001035;
82	:	00001BAE;
83	:	00003131;
84	:	00002DDF;
85	:	00000D00;
86	:	000011A8;
87	:	00001B69;
88	:	00FFFD16;
89	:	00FFFF67;
90	:	00FFF7CF;
91	:	00001677;
92	:	00000910;
93	:	000024F7;
94	:	0000316E;
95	:	00002373;
96	:	00002497;
97	:	00003902;
98	:	000015B2;
99	:	0000019E;
100	:	00FFFEE6;
101	:	0000061F;
102	:	0000126C;
103	:	00001618;
104	:	00001458;
105	:	00001701;
106	:	00002358;
107	:	0000207E;
108	:	00003538;
109	:	00000696;
110	:	00FFFE2E;
111	:	000002CA;
112	:	00FFFE97;
113	:	00FFFC38;
114	:	00FFEF28;
115	:	00FFECB2;
116	:	00FFF156;
117	:	00FFF85D;
118	:	00FFEDD4;
119	:	00FFFD79;
120	:	00FFF30F;
121	:	00FFFF52;
122	:	000007E6;
123	:	00000652;
124	:	000003DB;
125	:	0000011D;
126	:	00000083;
127	:	00FFFFB5;
128	:	00FFFBA8;
129	:	00000244;
130	:	00000449;
131	:	00000534;
132	:	00FFFC9F;
133	:	00000227;
134	:	00FFF8FA;
135	:	00FFFB0C;
136	:	00FFF803;
137	:	00FFE6DA;
138	:	00FFEE58;
139	:	00FFFF46;
140	:	00000D97;
141	:	00000405;
142	:	00000582;
143	:	00FFF345;
144	:	00000426;
145	:	00000983;
146	:	00FFEE88;
147	:	00FFE7AC;
148	:	00FFE36D;
149	:	00FFEBFD;
150	:	00000B57;
151	:	00001318;
152	:	000000EE;
153	:	00FFFD96;
154	:	00000196;
155	:	00FFF58F;
156	:	00000B7B;
157	:	00FFE543;
158	:	00FFCC89;
159	:	00FFCFB9;
160	:	00FFECF8;
161	:	00FFD434;
162	:	00FFEE28;
163	:	00000003;
164	:	000004C7;
165	:	0000004F;
166	:	00FFFC10;
167	:	00FFF59D;
168	:	00FFD718;
169	:	00FFC3A4;
170	:	00FFDD9C;
171	:	00FFF8CD;
172	:	00FFE7C7;
173	:	00FFF08F;
174	:	00000117;
175	:	00000B7A;
176	:	000012C1;
177	:	00FFFB63;
178	:	00FFECC4;
179	:	00FFE36A;
180	:	00FFA2AB;
181	:	00FFD797;
182	:	00000A0E;
183	:	00FFFDA2;
184	:	00000714;
185	:	00000754;
186	:	00000CF9;
187	:	000009F5;
188	:	00FFE6F9;
189	:	00FFE77F;
190	:	00FFE8ED;
191	:	00FFBB5B;
192	:	00FFEAED;
193	:	0000187F;
194	:	00001B47;
195	:	00001165;
196	:	00000469;
197	:	00FFFB97;
198	:	00FFF713;
199	:	00FFE39B;
200	:	00FFD325;
201	:	00FFDB6A;
202	:	00FFC2C4;
203	:	00FFDD61;
204	:	00000200;
205	:	000014AB;
206	:	00FFFCDA;
207	:	00FFF228;
208	:	00FFFC88;
209	:	00FFED83;
210	:	00FFD629;
211	:	00FFC1A5;
212	:	00FFB15D;
213	:	00FFDF88;
214	:	00FFF8CC;
215	:	00FFF504;
216	:	00FFF5FC;
217	:	00FFE91A;
218	:	00FFEE07;
219	:	00FFF75E;
220	:	000003B2;
221	:	00FFFD14;
222	:	00FFEEFB;
223	:	00FFF9AB;
224	:	0000099D;
225	:	000007C5;
226	:	00FFF4DB;
227	:	00FFEE8D;
228	:	00FFE98D;
229	:	00FFF0F9;
230	:	00FFF6E8;
231	:	00FFF511;
232	:	000028EB;
233	:	000018BB;
234	:	00000D69;
235	:	00000571;
236	:	00000C91;
237	:	00FFFF57;
238	:	00000A21;
239	:	00FFF91D;
240	:	00FFFE10;
241	:	00FFF9B8;
242	:	00000058;
243	:	00FFFE5A;
244	:	00FFFA29;
245	:	00FFFE54;
246	:	0000025D;
247	:	00FFFD17;
248	:	00FFFD7E;
249	:	00FFFDD1;
250	:	00FFF0C1;
251	:	00FFF3C4;
252	:	00FFF953;
253	:	0000021B;
254	:	00FFFCF8;
255	:	00FFFF50;
256	:	0000091E;
257	:	00FFFDE4;
258	:	00FFF70B;
259	:	000006D3;
260	:	000015F7;
261	:	00000796;
262	:	00001C0D;
263	:	00FFF2B7;
264	:	00FFFC34;
265	:	00FFFF07;
266	:	0000075B;
267	:	00000313;
268	:	00FFF1B3;
269	:	00FFF29F;
270	:	00000574;
271	:	00FFFE4A;
272	:	00FFFF66;
273	:	000013A4;
274	:	000011C3;
275	:	00FFF9D0;
276	:	00FFFD85;
277	:	00000EA6;
278	:	00FFEB40;
279	:	00FFE706;
280	:	00FFEA7A;
281	:	00FFDEF1;
282	:	00002479;
283	:	000020F8;
284	:	000007BC;
285	:	00002B57;
286	:	00FFF5EA;
287	:	00FFEC56;
288	:	00FFD446;
289	:	00FFCDD6;
290	:	00FFE68E;
291	:	00FFB9A3;
292	:	00FFEB02;
293	:	00002AB6;
294	:	00003DCB;
295	:	00003E55;
296	:	0000386C;
297	:	00FFFB72;
298	:	00FFF390;
299	:	00FFE6F0;
300	:	00FFE052;
301	:	00FFECF8;
302	:	00FFF1AC;
303	:	00FFE65F;
304	:	00002DBA;
305	:	00003351;
306	:	00004C11;
307	:	00001A30;
308	:	00FFFEDB;
309	:	00FFF8FB;
310	:	00000A18;
311	:	00001CF8;
312	:	0000290F;
313	:	00FFDF8C;
314	:	00FFE633;
315	:	00003D41;
316	:	00001BED;
317	:	00001051;
318	:	00FFE8A0;
319	:	00FFFD18;
320	:	000000B3;
321	:	00002767;
322	:	00001D6B;
323	:	000012DB;
324	:	00FFFCCE;
325	:	00000239;
326	:	00000209;
327	:	00FFE234;
328	:	00FFCD7D;
329	:	00FFEC64;
330	:	00FFF5E3;
331	:	00FFEE93;
332	:	00FFFD69;
333	:	00FFF19C;
334	:	00FFE328;
335	:	00FFD9F7;
336	:	00FFFDE2;
337	:	000009C9;
338	:	00FFF2CA;
339	:	0000022F;
340	:	00FFFC7E;
341	:	00FFF5B5;
342	:	00FFF2EF;
343	:	000000E6;
344	:	00FFDA11;
345	:	00FFD5F0;
346	:	00FFEC12;
347	:	00000EE5;
348	:	00000755;
349	:	00FFFCB8;
350	:	0000172E;
351	:	00000E86;
352	:	00FFF45B;
353	:	00FFFA18;
354	:	00FFE0DE;
355	:	00FFC236;
356	:	00FFCF10;
357	:	00FFEEC7;
358	:	00001616;
359	:	00002FC1;
360	:	00001727;
361	:	000029B6;
362	:	00000B85;
363	:	00FFFCB5;
364	:	00FFFC25;
365	:	00000355;
366	:	000006FE;
367	:	00FFFAAB;
368	:	00FFFBCE;
369	:	00FFF619;
370	:	00FFFC5E;
371	:	00FFFEBA;
372	:	00000739;
373	:	00FFFB66;
374	:	000001CF;
375	:	0000032C;
376	:	00001FA2;
377	:	00003D5F;
378	:	0000275B;
379	:	00002EE8;
380	:	0000180C;
381	:	0000030D;
382	:	00000332;
383	:	00FFEE5E;
384	:	00FFFAE9;
385	:	00FFFEB2;
386	:	00000784;
387	:	000012A5;
388	:	00003482;
389	:	000025B6;
390	:	00002DF4;
391	:	0000137B;
392	:	000014BE;
393	:	000000AB;
394	:	00FFEFF1;
395	:	00FFEF04;
396	:	00000045;
397	:	00000C7A;
398	:	00001113;
399	:	00000FEC;
400	:	00002505;
401	:	00001820;
402	:	00001340;
403	:	00001B2F;
404	:	00001082;
405	:	000009EB;
406	:	00FFFD4D;
407	:	00FFFBE3;
408	:	000019CF;
409	:	0000129B;
410	:	00FFE10D;
411	:	000002A2;
412	:	00FFF57F;
413	:	00FFF7AB;
414	:	00000B2B;
415	:	0000103D;
416	:	0000142C;
417	:	00000193;
418	:	00FFFDE6;
419	:	0000066F;
420	:	00FFDDF7;
421	:	00FFE6C9;
422	:	00FFEE02;
423	:	00FFDB6C;
424	:	0000002A;
425	:	00001E9B;
426	:	00000FD7;
427	:	00000C58;
428	:	00FFFCAA;
429	:	00FFFF16;
430	:	00FFF3FA;
431	:	00FFEEC9;
432	:	00FFFFA5;
433	:	00000DC2;
434	:	00FFFAF4;
435	:	00FFE722;
436	:	00001295;
437	:	000013AC;
438	:	00FFFB5D;
439	:	00000252;
440	:	00FFFE30;
441	:	00FFF50D;
442	:	00000F73;
443	:	00001C22;
444	:	00002C0E;
445	:	000013E1;
446	:	00FFFFDB;
447	:	00FFF85B;
448	:	00FFFBD1;
449	:	0000008E;
450	:	0000001B;
451	:	00FFFE31;
452	:	00FFEE32;
453	:	000007CD;
454	:	0000248D;
455	:	000039E3;
456	:	00000EFF;
457	:	00000211;
458	:	00FFFEDB;
459	:	00FFFC8D;
460	:	00FFF848;
461	:	00FFFFAC;
462	:	00FFFD31;
463	:	00000243;
464	:	00000865;
465	:	00000A45;
466	:	00000ADA;
467	:	00000227;
468	:	00FFF04B;
469	:	00000788;
470	:	000002E8;
471	:	00FFFE15;
472	:	0000021B;
473	:	00FFF90A;
474	:	00FFFF2D;
475	:	00FFEEB0;
476	:	00FFEA7E;
477	:	00FFDC5D;
478	:	00FFDDCD;
479	:	00FFF8C8;
480	:	00000B29;
481	:	00000180;
482	:	0000055A;
483	:	000002FF;
484	:	00000345;
485	:	00FFFC80;
486	:	00FFFB5B;
487	:	00FFFFD6;
488	:	00000449;
489	:	00000462;
490	:	00FFFDB0;
491	:	00000483;
492	:	00FFF976;
493	:	000000F3;
494	:	00FFFD61;
495	:	0000008A;
496	:	00FFFCD4;
497	:	00FFFE14;
498	:	0000073D;
499	:	00FFFC7A;
500	:	00FFFD9A;
501	:	00FFF49E;
502	:	00FFF572;
503	:	00FFF7D0;
504	:	00FFFB8B;
505	:	00FFF821;
506	:	00FFFCDC;
507	:	00FFFF6D;
508	:	0000070D;
509	:	00000D33;
510	:	00000D61;
511	:	000008F0;
512	:	00002A35;
513	:	00FFFFA6;
514	:	00FFFCA1;
515	:	00FFEF9E;
516	:	00FFF7F4;
517	:	00FFFAFC;
518	:	00000091;
519	:	0000074E;
520	:	000020BE;
521	:	00001D8B;
522	:	00002930;
523	:	000027EE;
524	:	00002221;
525	:	00FFEE29;
526	:	00FFE7D7;
527	:	00FFF8BF;
528	:	00FFFDDA;
529	:	000000B9;
530	:	00002456;
531	:	00002B81;
532	:	00001C6C;
533	:	00000A26;
534	:	00001B38;
535	:	000004C9;
536	:	00FFE5DA;
537	:	00001159;
538	:	00FFFD66;
539	:	00FFFB4E;
540	:	000001C4;
541	:	000005C2;
542	:	0000229B;
543	:	00001D21;
544	:	00000BB6;
545	:	00000BD9;
546	:	00001A14;
547	:	00001534;
548	:	00001168;
549	:	00FFFFEA;
550	:	00FFFD5E;
551	:	00FFFE9C;
552	:	00FFF5CE;
553	:	00FFE6D7;
554	:	00000161;
555	:	00FFE62C;
556	:	000020B9;
557	:	000034DF;
558	:	0000083C;
559	:	00FFF5F7;
560	:	00FFF3D2;
561	:	0000041E;
562	:	00FFFE21;
563	:	00FFFB6D;
564	:	000000B5;
565	:	00002446;
566	:	00000D3F;
567	:	000023F9;
568	:	00000BCF;
569	:	00FFF031;
570	:	00FFF2E7;
571	:	00FFECB7;
572	:	00FFFEDD;
573	:	0000027E;
574	:	0000178F;
575	:	000034D0;
576	:	00003013;
577	:	00002AEE;
578	:	00000EC3;
579	:	0000212B;
580	:	0000074A;
581	:	00FFF38E;
582	:	00FFFC56;
583	:	00FFFD72;
584	:	00FFFA96;
585	:	00FFFBED;
586	:	00002343;
587	:	000026B2;
588	:	00001BC9;
589	:	00000D2F;
590	:	000002A2;
591	:	00FFF7DD;
592	:	00FFF468;
593	:	00FFFF9B;
594	:	00FFFBD7;
595	:	00FFFC2D;
596	:	000002FB;
597	:	00FFF99B;
598	:	00FFF485;
599	:	00FFDE7F;
600	:	00FFF306;
601	:	00FFFD2B;
602	:	00FFF99F;
603	:	00FFFA4E;
604	:	00FFFEAF;
605	:	0000008E;
606	:	000002AA;
607	:	000011FA;
608	:	000001C5;
609	:	0000036E;
610	:	0000026F;
611	:	00FFF5A5;
612	:	00000605;
613	:	00FFEB45;
614	:	00FFFD6E;
615	:	0000062D;
616	:	00FFFA7E;
617	:	00FFEB2F;
618	:	00FFEAA8;
619	:	00FFEE67;
620	:	00FFF822;
621	:	00FFFB34;
622	:	00001430;
623	:	00002D3A;
624	:	00002424;
625	:	00002050;
626	:	000017C6;
627	:	00FFFD43;
628	:	00000298;
629	:	0000171F;
630	:	000018B4;
631	:	00001B52;
632	:	00000616;
633	:	00001ED9;
634	:	000004E1;
635	:	000015D0;
636	:	000027E8;
637	:	00002801;
638	:	00FFFE22;
639	:	00FFFF74;
640	:	000019CF;
641	:	000024A1;
642	:	000056B8;
643	:	000046B6;
644	:	00001940;
645	:	00FFDC24;
646	:	00FFF541;
647	:	00FFFC20;
648	:	00001794;
649	:	00FFFAAE;
650	:	00001927;
651	:	00003EB7;
652	:	000036F6;
653	:	00005E8C;
654	:	000024C2;
655	:	0000007A;
656	:	00FFF5DB;
657	:	000003CA;
658	:	000006A3;
659	:	0000063C;
660	:	00FFFE6C;
661	:	00000662;
662	:	000017A8;
663	:	000041B5;
664	:	00004CED;
665	:	000004F7;
666	:	00FFF9B8;
667	:	000005A1;
668	:	0000313A;
669	:	00000F66;
670	:	00FFFD15;
671	:	00FFFEB2;
672	:	00FFFA56;
673	:	0000061F;
674	:	00001CE8;
675	:	000031F2;
676	:	00FFEB94;
677	:	00002AEA;
678	:	00002DCB;
679	:	00003205;
680	:	000017CA;
681	:	00FFF38B;
682	:	00FFFB29;
683	:	00FFF33A;
684	:	00000942;
685	:	00001E87;
686	:	00FFF882;
687	:	000015CF;
688	:	000025C2;
689	:	00000361;
690	:	0000253C;
691	:	00000B12;
692	:	00000E26;
693	:	00FFFAE8;
694	:	00FFF8F9;
695	:	00001F95;
696	:	00000662;
697	:	00000D4B;
698	:	00FFEB0C;
699	:	00002392;
700	:	00001B1B;
701	:	00FFFD63;
702	:	00FFF9DD;
703	:	00FFF66E;
704	:	00FFFBF7;
705	:	00FFFCDF;
706	:	00000B8F;
707	:	00FFF740;
708	:	00FFF291;
709	:	00FFFCAB;
710	:	00FFE7C9;
711	:	00FFFDB3;
712	:	00FFF05E;
713	:	00FFF943;
714	:	000005DC;
715	:	00FFFC3F;
716	:	000001DC;
717	:	000002C5;
718	:	0000046B;
719	:	00FFF699;
720	:	00FFF645;
721	:	00000574;
722	:	00FFFAD4;
723	:	00FFFC41;
724	:	000001B9;
725	:	00000644;
726	:	00FFFEE0;
727	:	00000258;
728	:	00000169;
729	:	0000035A;
730	:	000002D7;
731	:	00FFFFB8;
732	:	00FFFAD0;
733	:	000002E1;
734	:	0000018F;
735	:	000001C7;
736	:	00FFFD66;
737	:	00FFFC31;
738	:	00000171;
739	:	0000024B;
740	:	0000017E;
741	:	00FFF9C8;
742	:	00FFFDE7;
743	:	00FFF74A;
744	:	00FFF46F;
745	:	00FFFB29;
746	:	000002F0;
747	:	00FFFC6C;
748	:	0000017F;
749	:	000003C6;
750	:	00000512;
751	:	00FFFE66;
752	:	00000E70;
753	:	0000145D;
754	:	00FFEE72;
755	:	00FFFBD3;
756	:	00FFF023;
757	:	00FFF378;
758	:	00FFFC1B;
759	:	00FFFE7D;
760	:	00000B07;
761	:	00000559;
762	:	0000112B;
763	:	000000BD;
764	:	00FFE3BC;
765	:	00FFFB5A;
766	:	00FFF6D8;
767	:	00FFEFCE;
768	:	00FFFC61;
769	:	00FFFE44;
770	:	00FFFEDC;
771	:	00000122;
772	:	00FFFC02;
773	:	00000E27;
774	:	00FFED3F;
775	:	00FFEBA1;
776	:	00FFDDD8;
777	:	00FFF761;
778	:	00FFFB3D;
779	:	00FFF263;
780	:	00FFFB8E;
781	:	00FFFD24;
782	:	00FFFB80;
783	:	00FFE076;
784	:	00FFE467;
785	:	00FFEEF2;
786	:	00FFE26A;
787	:	00FFE14A;
788	:	00FFE42B;
789	:	00FFF88C;
790	:	00FFFA91;
791	:	000001F8;
792	:	00FFFE3A;
793	:	00FFFC73;
794	:	0000024B;
795	:	0000010F;
796	:	00000B55;
797	:	00001D5C;
798	:	00FFE38C;
799	:	00FFE87C;
800	:	00FFD97D;
801	:	00FFEA9C;
802	:	0000032B;
803	:	0000015B;
804	:	00000AD0;
805	:	00002A89;
806	:	00002D58;
807	:	0000263A;
808	:	0000211A;
809	:	00FFE3A9;
810	:	00FFC51D;
811	:	00FFD7B5;
812	:	00FFEC70;
813	:	000002BE;
814	:	00FFFCA2;
815	:	00000181;
816	:	00002666;
817	:	00003357;
818	:	000033F1;
819	:	0000038B;
820	:	00FFE9B5;
821	:	00FFD84D;
822	:	00FFD2A3;
823	:	00FFF287;
824	:	00FFFB65;
825	:	000003C4;
826	:	000003EC;
827	:	0000096E;
828	:	00001064;
829	:	00FFFC53;
830	:	00FFEDD2;
831	:	00FFEB12;
832	:	00FFEF64;
833	:	00FFED35;
834	:	00FFFA9F;
835	:	0000049E;
836	:	0000000C;
837	:	00000023;
838	:	00FFFEA7;
839	:	00FFE886;
840	:	00FFED7D;
841	:	00FFF6B2;
842	:	0000076D;
843	:	00FFF8B7;
844	:	00FFFEB9;
845	:	00FFFB26;
846	:	00FFFEE5;
847	:	00FFFD1D;
848	:	00FFFC0E;
849	:	00FFFDF8;
850	:	000003AA;
851	:	00FFFF7F;
852	:	00000093;
853	:	00FFFFCF;
854	:	000003AA;
855	:	0000045C;
856	:	0000024E;
857	:	00FFFB05;
858	:	00FFFD00;
859	:	00FFFAFA;
860	:	00FFFD93;
861	:	00FFFDF8;
862	:	00FFF489;
863	:	00FFEF02;
864	:	00FFF6C1;
865	:	0000005A;
866	:	000001AF;
867	:	0000004E;
868	:	00000137;
869	:	00000122;
870	:	00FFFBB9;
871	:	00FFFC49;
872	:	00FFE426;
873	:	00FFDDBB;
874	:	00FFDE7F;
875	:	00FFDA48;
876	:	00FFF5E5;
877	:	00000014;
878	:	00FFFA5E;
879	:	00FFF9DF;
880	:	00000363;
881	:	00000584;
882	:	00FFEEA9;
883	:	00FFE22F;
884	:	00000234;
885	:	00001CDE;
886	:	00FFFDCF;
887	:	000019E3;
888	:	000020D1;
889	:	00000328;
890	:	00FFFAFA;
891	:	00FFFE28;
892	:	00FFFCC6;
893	:	00FFEE6B;
894	:	00FFF7CC;
895	:	00FFFB12;
896	:	00FFFD7A;
897	:	0000043D;
898	:	00FFF510;
899	:	00001521;
900	:	000009B8;
901	:	00000495;
902	:	00FFFF24;
903	:	00000717;
904	:	00FFFA0B;
905	:	00FFEC2D;
906	:	00FFDF16;
907	:	00FFF169;
908	:	00002470;
909	:	000016F8;
910	:	000020E9;
911	:	00000A8A;
912	:	00000AB4;
913	:	0000026F;
914	:	00000483;
915	:	00FFFE94;
916	:	00FFFC81;
917	:	00FFFD65;
918	:	000015D2;
919	:	00001E10;
920	:	00000C56;
921	:	000016D7;
922	:	0000061D;
923	:	00000874;
924	:	00FFFFEA;
925	:	00FFFCDC;
926	:	00FFFAF6;
927	:	000012B0;
928	:	00000C54;
929	:	000002C4;
930	:	00FFFF3C;
931	:	00FFFD83;
932	:	00FFFD89;
933	:	00FFFA0D;
934	:	00FFFAEB;
935	:	00000017;
936	:	00FFF818;
937	:	00FFEFC6;
938	:	00FFE82A;
939	:	00FFF159;
940	:	00FFE4F1;
941	:	00FFF5EB;
942	:	00FFDB0B;
943	:	00FFE574;
944	:	00FFF143;
945	:	000001BB;
946	:	00000112;
947	:	00FFFB44;
948	:	00FFFD8B;
949	:	00000D55;
950	:	00FFEAF0;
951	:	00FFF99B;
952	:	00FFFCF4;
953	:	00FFF67C;
954	:	00FFF62D;
955	:	00FFFD36;
956	:	00FFFD85;
957	:	00FFFA50;
958	:	00FFFB72;
959	:	00FFFA5B;
960	:	00FFEC89;
961	:	00FFD042;
962	:	00FFE3E1;
963	:	00FFEA64;
964	:	0000205B;
965	:	00001CC2;
966	:	000005CA;
967	:	00FFFB39;
968	:	00000000;
969	:	00000000;
970	:	00000000;
971	:	00000000;
972	:	00000000;
973	:	00000000;
974	:	00000000;
975	:	00000000;
976	:	00000000;
977	:	00000000;
978	:	00000000;
979	:	00000000;
980	:	00000000;
981	:	00000000;
982	:	00000000;
983	:	00000000;
984	:	00000000;
985	:	00000000;
986	:	00000000;
987	:	00000000;
988	:	00000000;
989	:	00000000;
990	:	00000000;
991	:	00000000;
992	:	00000000;
993	:	00000000;
994	:	00000000;
995	:	00000000;
996	:	00000000;
997	:	00000000;
998	:	00000000;
999	:	00000000;
1000	:	00000000;
1001	:	00000000;
1002	:	00000000;
1003	:	00000000;
1004	:	00000000;
1005	:	00000000;
1006	:	00000000;
1007	:	00000000;
1008	:	00000000;
1009	:	00000000;
1010	:	00000000;
1011	:	00000000;
1012	:	00000000;
1013	:	00000000;
1014	:	00000000;
1015	:	00000000;
1016	:	00000000;
1017	:	00000000;
1018	:	00000000;
1019	:	00000000;
1020	:	00000000;
1021	:	00000000;
1022	:	00000000;
1023	:	00000000;
END;