WIDTH = 24;
DEPTH=1024;

ADDRESS_RADIX=UNS;
DATA_RADIX=HEX;

CONTENT BEGIN
0	:	000012F0;
1	:	0000422D;
2	:	00001B2E;
3	:	000025B5;
4	:	00003A31;
5	:	00003AB0;
6	:	00002777;
7	:	00FFFA69;
8	:	00FFFB91;
9	:	00FFFCF4;
10	:	00FFFC31;
11	:	00000F5D;
12	:	00002867;
13	:	00FFF38B;
14	:	00FFFAE8;
15	:	00001962;
16	:	000038D7;
17	:	00000FAC;
18	:	00FFE7A7;
19	:	00FFF206;
20	:	000001A6;
21	:	00FFFF25;
22	:	00000960;
23	:	00FFF822;
24	:	00002A77;
25	:	000001BE;
26	:	00001928;
27	:	000007FF;
28	:	00FFEF6F;
29	:	00FFE8BC;
30	:	00FFFB4A;
31	:	00FFFC4C;
32	:	0000018F;
33	:	00FFF777;
34	:	00000D06;
35	:	00000EC0;
36	:	00000FD7;
37	:	000007F6;
38	:	00FFE1B5;
39	:	00FFDD2D;
40	:	00FFEA81;
41	:	0000055D;
42	:	00FFFB52;
43	:	0000001C;
44	:	000002B7;
45	:	00001A92;
46	:	00001E6A;
47	:	00000972;
48	:	0000242D;
49	:	00FFE818;
50	:	00FFD74B;
51	:	00FFF671;
52	:	00FFFEC6;
53	:	00000DB2;
54	:	00FFFFA3;
55	:	00000BB7;
56	:	00001FF8;
57	:	0000301A;
58	:	00001C12;
59	:	00001B31;
60	:	00FFF1F7;
61	:	00FFEFAB;
62	:	00FFF892;
63	:	00FFF979;
64	:	000011EF;
65	:	000002AA;
66	:	0000262F;
67	:	00001819;
68	:	00001D58;
69	:	00001F89;
70	:	0000040D;
71	:	00FFED9A;
72	:	00FFE848;
73	:	00FFEDE1;
74	:	00FFF2F1;
75	:	00000262;
76	:	00000198;
77	:	00001AA9;
78	:	00001A83;
79	:	00001C33;
80	:	00000F66;
81	:	00001A05;
82	:	00FFD19D;
83	:	00FFE017;
84	:	00FFC3D4;
85	:	00FFDE2B;
86	:	00FFF89A;
87	:	000000F0;
88	:	00FFED7A;
89	:	00FFEB65;
90	:	00FFF049;
91	:	00000804;
92	:	00000504;
93	:	00FFAC03;
94	:	00FFB72C;
95	:	00FFBEB9;
96	:	00FFD552;
97	:	00FFF521;
98	:	00FFFD50;
99	:	00FFE2AE;
100	:	00FFF2B6;
101	:	00FFD4D6;
102	:	00FFDB60;
103	:	00FFC0EA;
104	:	00FFCA45;
105	:	00FFCDF2;
106	:	00FFDB60;
107	:	00FFE74B;
108	:	00FFFE6B;
109	:	000004AF;
110	:	00FFF5CA;
111	:	00FFEF3C;
112	:	00FFDB98;
113	:	00FFD5B6;
114	:	00FFE427;
115	:	00FFED39;
116	:	00FFE6EE;
117	:	00FFF538;
118	:	00FFFF82;
119	:	000004CF;
120	:	000001FF;
121	:	00001C35;
122	:	0000189F;
123	:	00FFED2E;
124	:	00FFD036;
125	:	00FFE82A;
126	:	00FFE280;
127	:	00FFE435;
128	:	00FFF2D3;
129	:	00FFEDAA;
130	:	000009C9;
131	:	00FFF765;
132	:	00000DA8;
133	:	00001127;
134	:	00FFF4D7;
135	:	00FFD41F;
136	:	00FFCECD;
137	:	00FFD003;
138	:	00FFDB7C;
139	:	00FFFDB7;
140	:	00001701;
141	:	0000032B;
142	:	00FFF21E;
143	:	0000024F;
144	:	00FFFE38;
145	:	00FFE76B;
146	:	00FFE6FA;
147	:	00FFE59D;
148	:	00FFEEDE;
149	:	000000F5;
150	:	00002658;
151	:	00001FC1;
152	:	000019CC;
153	:	00FFFBA6;
154	:	00FFFD8C;
155	:	00FFE9E4;
156	:	00FFDF7C;
157	:	00FFDB3B;
158	:	00FFE2EC;
159	:	00FFED3F;
160	:	00002BA2;
161	:	0000560B;
162	:	00000873;
163	:	00FFF9D6;
164	:	00000129;
165	:	00FFFCD8;
166	:	00FFEF2B;
167	:	00FFDF69;
168	:	00FFCFCA;
169	:	00FFE650;
170	:	00001970;
171	:	000051AF;
172	:	00004AEE;
173	:	00000ECA;
174	:	00FFFE5A;
175	:	00FFECBF;
176	:	00FFFABE;
177	:	00FFF496;
178	:	00FFE53B;
179	:	00FFE765;
180	:	00FFE8AA;
181	:	00000F8A;
182	:	00007038;
183	:	000025A1;
184	:	00FFF7D0;
185	:	00FFF9F5;
186	:	00FFF1DB;
187	:	00FFFB6D;
188	:	00FFE973;
189	:	00FFE907;
190	:	00FFFDC8;
191	:	000017DB;
192	:	00000589;
193	:	0000355E;
194	:	0000030A;
195	:	00FFDDF6;
196	:	00FFE4CB;
197	:	00FFEC61;
198	:	000000B5;
199	:	00FFF89A;
200	:	00FFFCB2;
201	:	00002181;
202	:	00000FA9;
203	:	00FFF41F;
204	:	00FFFE32;
205	:	00FFCD2C;
206	:	00FFC84F;
207	:	00FFE8EA;
208	:	000004F0;
209	:	00FFFEE9;
210	:	00FFFC06;
211	:	00000587;
212	:	00000EBE;
213	:	00002864;
214	:	0000108B;
215	:	00FFF7D6;
216	:	00FFDD29;
217	:	00FFF73B;
218	:	00FFFD58;
219	:	0000017F;
220	:	0000088C;
221	:	000001D2;
222	:	0000005D;
223	:	00FFFDFE;
224	:	00FFF732;
225	:	00FFFBC4;
226	:	00FFF89B;
227	:	00FFFBBF;
228	:	0000048E;
229	:	000003BF;
230	:	00000BE9;
231	:	0000094A;
232	:	000008F7;
233	:	00000D0A;
234	:	000009DC;
235	:	0000080C;
236	:	0000082D;
237	:	00000BDA;
238	:	00000B2B;
239	:	000005CA;
240	:	000007F6;
241	:	000006AF;
242	:	00FFFB18;
243	:	00FFF513;
244	:	00FFDBFD;
245	:	00FFDD19;
246	:	00FFE16B;
247	:	000031A1;
248	:	0000261E;
249	:	00002EA4;
250	:	000021C4;
251	:	00FFF9BA;
252	:	00000344;
253	:	00FFFEA0;
254	:	00FFEFD7;
255	:	00FFF62C;
256	:	00FFE802;
257	:	000003FF;
258	:	00000DC8;
259	:	0000178E;
260	:	00001BEC;
261	:	00FFF525;
262	:	00FFFD77;
263	:	00FFFD7F;
264	:	00FFF5D7;
265	:	00FFF9CD;
266	:	00000405;
267	:	00FFE17D;
268	:	00FFF5A8;
269	:	00002A04;
270	:	00001B8A;
271	:	00FFEFAC;
272	:	00FFF277;
273	:	00FFFB77;
274	:	000003E2;
275	:	00FFE37F;
276	:	00FFF5F0;
277	:	0000029B;
278	:	00FFE45E;
279	:	00FFE990;
280	:	000001A6;
281	:	00FFF602;
282	:	00FFDF48;
283	:	00FFDF95;
284	:	00FFEBD8;
285	:	000006BE;
286	:	00FFE773;
287	:	00FFEAB1;
288	:	00000C0A;
289	:	00FFE635;
290	:	00FFF537;
291	:	000018B4;
292	:	00FFE926;
293	:	00FFB174;
294	:	00FFD7EF;
295	:	00FFF977;
296	:	000000BB;
297	:	00FFEA42;
298	:	00FFFD3E;
299	:	00FFFF6D;
300	:	000017D0;
301	:	0000087C;
302	:	00002A00;
303	:	00FFD992;
304	:	00FFF01B;
305	:	00FFE988;
306	:	00FFFA10;
307	:	00FFFC59;
308	:	00FFE4AC;
309	:	00FFEFCF;
310	:	000013D4;
311	:	00001C42;
312	:	0000021A;
313	:	00FFE9CE;
314	:	00FFE935;
315	:	00FFF987;
316	:	00001666;
317	:	00000182;
318	:	00000254;
319	:	00FFBF88;
320	:	00FFFCF1;
321	:	00FFFD63;
322	:	00FFF690;
323	:	0000005D;
324	:	00001169;
325	:	00000B56;
326	:	00FFF0C0;
327	:	00000CAE;
328	:	000009E0;
329	:	00000674;
330	:	00FFDBF7;
331	:	00FFEE9E;
332	:	00FFF060;
333	:	00FFFEB2;
334	:	00000AC3;
335	:	000013BC;
336	:	000012C0;
337	:	00002386;
338	:	000002F3;
339	:	00FFFD74;
340	:	0000035A;
341	:	00FFEAF4;
342	:	00FFD978;
343	:	00FFDA1A;
344	:	00FFEB2E;
345	:	00FFF241;
346	:	00FFF3F1;
347	:	00FFF85B;
348	:	00FFFA80;
349	:	000002E5;
350	:	00FFFFF1;
351	:	0000081B;
352	:	00000598;
353	:	0000026C;
354	:	000004FB;
355	:	000003DC;
356	:	00FFF939;
357	:	00FFFFCA;
358	:	00FFFC5C;
359	:	00FFFF22;
360	:	000003CF;
361	:	00000929;
362	:	00000869;
363	:	00FFFDB3;
364	:	00FFFE80;
365	:	00FFFB98;
366	:	00FFF348;
367	:	00000363;
368	:	00001232;
369	:	00000538;
370	:	00FFF37C;
371	:	00000846;
372	:	00FFF9D9;
373	:	000000B3;
374	:	000000F2;
375	:	00000108;
376	:	00FFF442;
377	:	00FFF7DD;
378	:	00001EEE;
379	:	000005BB;
380	:	00FFE4AC;
381	:	00FFF74D;
382	:	00FFFCC1;
383	:	00FFFB74;
384	:	00FFFC3F;
385	:	00FFFB82;
386	:	00FFFC38;
387	:	00FFF3CF;
388	:	0000085B;
389	:	00001BF4;
390	:	0000036A;
391	:	00FFD799;
392	:	00FFF066;
393	:	00FFEE93;
394	:	00FFEFAD;
395	:	00FFF7BF;
396	:	00FFFD1C;
397	:	00FFFAB4;
398	:	00FFFAD7;
399	:	000016D5;
400	:	00001CF5;
401	:	00000994;
402	:	00FFEAE9;
403	:	00FFE989;
404	:	00FFE300;
405	:	00FFF864;
406	:	00FFFCDF;
407	:	00FFFBEA;
408	:	0000045E;
409	:	00000FCE;
410	:	00000F1C;
411	:	00002A29;
412	:	000038A5;
413	:	00FFED06;
414	:	00FFE106;
415	:	00FFEED9;
416	:	00FFE9D7;
417	:	00FFFBE8;
418	:	00FFFED2;
419	:	00FFF723;
420	:	000001C8;
421	:	00001149;
422	:	00001302;
423	:	00001886;
424	:	00FFEBE2;
425	:	00FFE3CF;
426	:	00FFF286;
427	:	00FFF1B0;
428	:	00FFFDB4;
429	:	00FFFDF6;
430	:	00FFF48C;
431	:	00FFF468;
432	:	00000694;
433	:	00000425;
434	:	00FFFDAE;
435	:	000027D5;
436	:	00001ECA;
437	:	00001F55;
438	:	00FFFD4E;
439	:	00FFF486;
440	:	00FFFA12;
441	:	00FFE6D3;
442	:	00FFEBAB;
443	:	00001FF9;
444	:	00001CB8;
445	:	00003DB2;
446	:	00004C6F;
447	:	00001C75;
448	:	00001969;
449	:	00000A3C;
450	:	00FFF9B1;
451	:	00FFF880;
452	:	000002C3;
453	:	00000865;
454	:	00000F85;
455	:	00003127;
456	:	00003F6D;
457	:	00004F76;
458	:	00002D70;
459	:	00001284;
460	:	00FFFA49;
461	:	00FFF664;
462	:	00000000;
463	:	00FFF18E;
464	:	00FFF199;
465	:	0000086F;
466	:	00FFF891;
467	:	0000188C;
468	:	00002EB8;
469	:	0000013E;
470	:	00FFF2FA;
471	:	00000024;
472	:	00FFFA50;
473	:	00000390;
474	:	00FFFF97;
475	:	00FFFAD1;
476	:	00FFF914;
477	:	00FFFE99;
478	:	00000237;
479	:	000002D9;
480	:	00FFFEEC;
481	:	00FFFC45;
482	:	00FFFA70;
483	:	00000231;
484	:	0000010B;
485	:	00FFF93A;
486	:	000006E0;
487	:	000018AA;
488	:	0000250C;
489	:	0000147E;
490	:	0000074A;
491	:	00FFFB2D;
492	:	0000019A;
493	:	00FFFCD8;
494	:	00FFFB59;
495	:	0000064F;
496	:	000006CC;
497	:	0000063F;
498	:	0000182F;
499	:	00000DE6;
500	:	00FFF1A6;
501	:	00FFDF30;
502	:	00FFE7C9;
503	:	000000AC;
504	:	00FFFAB0;
505	:	00FFFA03;
506	:	00000184;
507	:	00000BC6;
508	:	00FFF853;
509	:	00FFE319;
510	:	00FFE1D2;
511	:	00FFE37D;
512	:	00FFE908;
513	:	00000243;
514	:	00000A22;
515	:	00FFFFCB;
516	:	00FFFA6E;
517	:	0000032C;
518	:	0000168B;
519	:	0000074D;
520	:	00FFDE2D;
521	:	00FFD7E5;
522	:	00FFDC2A;
523	:	00000F63;
524	:	0000199C;
525	:	0000141A;
526	:	000005A9;
527	:	00FFFD3C;
528	:	0000079B;
529	:	00000884;
530	:	00FFED00;
531	:	00FFBDD7;
532	:	00FFC215;
533	:	00FFFBA8;
534	:	00001E35;
535	:	00001F31;
536	:	00002847;
537	:	00000CBE;
538	:	000000DB;
539	:	00000128;
540	:	00FFEC47;
541	:	00FFD801;
542	:	00FFCC6C;
543	:	00FFD4A4;
544	:	00001CE8;
545	:	00003143;
546	:	000024BA;
547	:	00001D39;
548	:	000008E8;
549	:	00FFFFF0;
550	:	00000A5B;
551	:	00FFF8BA;
552	:	00FFEDB1;
553	:	00FFEEEC;
554	:	00001B0B;
555	:	0000462B;
556	:	00002DEE;
557	:	000031A2;
558	:	00001953;
559	:	00FFFF35;
560	:	00000025;
561	:	000001F4;
562	:	00001664;
563	:	00FFF62A;
564	:	000019B4;
565	:	00001AE3;
566	:	000023C7;
567	:	00002A03;
568	:	00001B04;
569	:	00FFF9E8;
570	:	00FFFB9D;
571	:	00FFFB26;
572	:	00FFFDFC;
573	:	000008A9;
574	:	00FFF32C;
575	:	00FFF3E5;
576	:	00FFE54A;
577	:	00000BC1;
578	:	000000BE;
579	:	00FFF669;
580	:	00FFFC42;
581	:	00FFFF0D;
582	:	00FFFBC0;
583	:	00FFFDEF;
584	:	00FFF5B1;
585	:	00FFF4E3;
586	:	00FFF6EB;
587	:	00FFF1F0;
588	:	00FFF24D;
589	:	00FFF77C;
590	:	00FFFE93;
591	:	000000C9;
592	:	00FFFA0D;
593	:	00000038;
594	:	000000AF;
595	:	00FFFFB8;
596	:	000002A2;
597	:	00FFFCD3;
598	:	00FFF95A;
599	:	00FFFD5A;
600	:	00FFFC13;
601	:	000001BE;
602	:	00000156;
603	:	000001DF;
604	:	00FFFD78;
605	:	0000014D;
606	:	00000D14;
607	:	0000197C;
608	:	00000C23;
609	:	000015CA;
610	:	00FFFFEA;
611	:	00000161;
612	:	00FFFC63;
613	:	00000042;
614	:	000000F0;
615	:	00000394;
616	:	0000062B;
617	:	00001085;
618	:	00002528;
619	:	000003B1;
620	:	00001226;
621	:	00000915;
622	:	00000F65;
623	:	00FFFAD7;
624	:	00FFEE22;
625	:	00FFF607;
626	:	00FFFAE1;
627	:	00000ABE;
628	:	00000CC5;
629	:	00FFED99;
630	:	00FFE549;
631	:	00FFE1A1;
632	:	000014A6;
633	:	000029A2;
634	:	00000623;
635	:	000015F6;
636	:	00000118;
637	:	00FFFF2F;
638	:	0000039D;
639	:	00000717;
640	:	00FFEA64;
641	:	00FFAD5C;
642	:	00FFCD35;
643	:	00FFDA96;
644	:	00FFF8C0;
645	:	00000959;
646	:	000005D3;
647	:	00FFF44C;
648	:	00FFF73B;
649	:	00FFF531;
650	:	00FFF292;
651	:	00FFE3ED;
652	:	00FFC085;
653	:	00FFC1C9;
654	:	00FFD51A;
655	:	00000934;
656	:	00001561;
657	:	00FFFFFB;
658	:	000011EB;
659	:	00FFF46D;
660	:	00FFF86C;
661	:	00FFE18E;
662	:	00FFD953;
663	:	00000031;
664	:	00FFD7CF;
665	:	00FFE2E1;
666	:	00FFE927;
667	:	00001FDB;
668	:	0000302C;
669	:	00001CF2;
670	:	0000052F;
671	:	00FFF0A9;
672	:	00FFEB8E;
673	:	00FFE779;
674	:	00FFEF60;
675	:	00001439;
676	:	00FFEDC9;
677	:	00FFE7AB;
678	:	000035B5;
679	:	000037AD;
680	:	00000883;
681	:	00FFF9A9;
682	:	00FFEF63;
683	:	00000666;
684	:	000004A3;
685	:	00000873;
686	:	00FFFA42;
687	:	00001A12;
688	:	00002355;
689	:	000014DA;
690	:	00FFFA8B;
691	:	00FFE605;
692	:	00FFEFDC;
693	:	0000014C;
694	:	000007B0;
695	:	00000C00;
696	:	000004B1;
697	:	00002B5D;
698	:	0000293D;
699	:	00FFFA81;
700	:	00FFD8C8;
701	:	00FFDAF3;
702	:	00FFEA95;
703	:	00FFF953;
704	:	000004AC;
705	:	00001A7D;
706	:	000012AE;
707	:	00000E99;
708	:	000024BC;
709	:	00000EE8;
710	:	00FFE0FE;
711	:	00FFD31B;
712	:	00FFEC22;
713	:	00FFFD53;
714	:	00FFFE73;
715	:	00000366;
716	:	00FFFA9E;
717	:	00000A27;
718	:	00000A8E;
719	:	00FFF9B5;
720	:	00FFE183;
721	:	00FFEDF5;
722	:	00FFEDC3;
723	:	00FFF952;
724	:	00FFFD91;
725	:	0000033D;
726	:	00FFFDBF;
727	:	00FFFFD6;
728	:	00FFFFDA;
729	:	00000863;
730	:	00001362;
731	:	000020CB;
732	:	000021EA;
733	:	00001E1B;
734	:	0000000E;
735	:	00000178;
736	:	00FFFBA9;
737	:	00FFFF09;
738	:	00FFFFBE;
739	:	00FFF89E;
740	:	0000028D;
741	:	00FFF2C3;
742	:	00FFF836;
743	:	0000070B;
744	:	00000434;
745	:	00FFEA37;
746	:	00FFFFE0;
747	:	00000011;
748	:	00FFFBF9;
749	:	000004B5;
750	:	00FFF691;
751	:	00000EFD;
752	:	00FFEFF5;
753	:	00FFF395;
754	:	00FFE390;
755	:	00FFD9BE;
756	:	00FFFA11;
757	:	0000038B;
758	:	00000070;
759	:	00FFF897;
760	:	00FFFF58;
761	:	000011E4;
762	:	00FFFA90;
763	:	00FFE84D;
764	:	00FFFFBE;
765	:	00FFDA3A;
766	:	00FFF14B;
767	:	00FFF502;
768	:	00000090;
769	:	000002A2;
770	:	00FFFE8B;
771	:	00FFFF95;
772	:	000009E6;
773	:	00FFFD80;
774	:	00000D4A;
775	:	00FFDAFB;
776	:	00FFE1D8;
777	:	00FFEC13;
778	:	00FFEBEC;
779	:	00FFFD85;
780	:	00FFFF3D;
781	:	00FFFBE0;
782	:	00FFF108;
783	:	00FFF6FC;
784	:	0000195B;
785	:	0000101F;
786	:	00FFFD7F;
787	:	00FFF507;
788	:	000027FD;
789	:	00001021;
790	:	00002761;
791	:	00000678;
792	:	00FFFB49;
793	:	00000CE0;
794	:	00FFF218;
795	:	00FFEE2F;
796	:	00001631;
797	:	00000E49;
798	:	0000093C;
799	:	00FFF2A1;
800	:	00001B69;
801	:	00002EE8;
802	:	0000030E;
803	:	0000000A;
804	:	00FFF96F;
805	:	00FFE282;
806	:	00FFDCE6;
807	:	00000319;
808	:	00000B85;
809	:	000016B0;
810	:	00001E28;
811	:	00003156;
812	:	00000FA0;
813	:	00FFFF33;
814	:	0000034C;
815	:	00FFF7F5;
816	:	00FFE3B3;
817	:	00FFEE76;
818	:	00FFF133;
819	:	00FFF310;
820	:	00002D68;
821	:	00000B49;
822	:	0000070C;
823	:	00FFFE86;
824	:	00000336;
825	:	00FFFA88;
826	:	00FFFA1E;
827	:	00FFFFA7;
828	:	00FFFBC3;
829	:	00FFFF4A;
830	:	00FFFD3A;
831	:	0000034F;
832	:	00FFFCCC;
833	:	0000006F;
834	:	00FFFD6F;
835	:	00FFFE7B;
836	:	00FFFFAB;
837	:	00FFFB84;
838	:	00FFFCAF;
839	:	0000037F;
840	:	00FFFB44;
841	:	00FFFB6E;
842	:	0000017E;
843	:	00000162;
844	:	00FFFBD0;
845	:	000003B5;
846	:	000000B1;
847	:	00FFFAFF;
848	:	00FFFF49;
849	:	00FFEF8A;
850	:	00FFF3BC;
851	:	00FFF960;
852	:	00000534;
853	:	00FFFBC8;
854	:	0000052C;
855	:	00FFF434;
856	:	00FFFA2A;
857	:	00FFF84A;
858	:	00000154;
859	:	00FFFBBE;
860	:	00FFE6D6;
861	:	00FFE378;
862	:	00FFE52B;
863	:	00FFDD66;
864	:	00FFF7C1;
865	:	00FFFE9D;
866	:	0000011B;
867	:	00000073;
868	:	000000B7;
869	:	00FFFAA9;
870	:	00FFF129;
871	:	00FFEA5D;
872	:	00FFE6FE;
873	:	00FFDE58;
874	:	00FFE6D7;
875	:	00FFEB00;
876	:	00FFFC01;
877	:	00000214;
878	:	00FFFC4A;
879	:	0000015D;
880	:	00FFFA95;
881	:	00FFF0EB;
882	:	00FFC359;
883	:	00FFDAF3;
884	:	00001303;
885	:	00FFE3FE;
886	:	00FFE1E6;
887	:	000019FF;
888	:	00000014;
889	:	00FFFD11;
890	:	00000055;
891	:	00000691;
892	:	000003AB;
893	:	00FFF4A9;
894	:	00000173;
895	:	00001DA3;
896	:	00000288;
897	:	000004FF;
898	:	00001149;
899	:	00FFF190;
900	:	00FFF867;
901	:	000005A7;
902	:	000001D0;
903	:	00000BF1;
904	:	00000F27;
905	:	00FFEE61;
906	:	00000BED;
907	:	00FFF75C;
908	:	00FFFCC4;
909	:	000005BF;
910	:	00FFF6F0;
911	:	00FFEDB0;
912	:	00FFFD30;
913	:	00FFF92B;
914	:	00FFF2EB;
915	:	00FFE8DE;
916	:	00FFEFBD;
917	:	00FFEBAF;
918	:	00FFD371;
919	:	00FFF881;
920	:	00FFF7C9;
921	:	00FFF199;
922	:	00FFF28C;
923	:	00FFFD21;
924	:	00FFF62F;
925	:	00FFF909;
926	:	00FFF3C5;
927	:	00FFF46F;
928	:	00FFDDE0;
929	:	00FFDF0C;
930	:	00000ADB;
931	:	0000065D;
932	:	00FFFC99;
933	:	00FFF7F0;
934	:	0000011F;
935	:	00FFF992;
936	:	00FFFEB5;
937	:	0000004B;
938	:	00000879;
939	:	00001008;
940	:	00000B03;
941	:	0000300A;
942	:	000013A7;
943	:	00000299;
944	:	00FFFAC1;
945	:	00FFFFB6;
946	:	0000014C;
947	:	00FFFC9D;
948	:	00000383;
949	:	00000278;
950	:	00FFFF59;
951	:	000004D4;
952	:	00000108;
953	:	00000089;
954	:	00FFFF00;
955	:	00FFFE92;
956	:	000001E1;
957	:	00FFFD5E;
958	:	00FFFD86;
959	:	0000040F;
960	:	00FFFCA5;
961	:	00FFFF1A;
962	:	00FFFCE0;
963	:	00FFFED3;
964	:	00000156;
965	:	00FFFC65;
966	:	00FFFF14;
967	:	00000522;
968	:	00000000;
969	:	00000000;
970	:	00000000;
971	:	00000000;
972	:	00000000;
973	:	00000000;
974	:	00000000;
975	:	00000000;
976	:	00000000;
977	:	00000000;
978	:	00000000;
979	:	00000000;
980	:	00000000;
981	:	00000000;
982	:	00000000;
983	:	00000000;
984	:	00000000;
985	:	00000000;
986	:	00000000;
987	:	00000000;
988	:	00000000;
989	:	00000000;
990	:	00000000;
991	:	00000000;
992	:	00000000;
993	:	00000000;
994	:	00000000;
995	:	00000000;
996	:	00000000;
997	:	00000000;
998	:	00000000;
999	:	00000000;
1000	:	00000000;
1001	:	00000000;
1002	:	00000000;
1003	:	00000000;
1004	:	00000000;
1005	:	00000000;
1006	:	00000000;
1007	:	00000000;
1008	:	00000000;
1009	:	00000000;
1010	:	00000000;
1011	:	00000000;
1012	:	00000000;
1013	:	00000000;
1014	:	00000000;
1015	:	00000000;
1016	:	00000000;
1017	:	00000000;
1018	:	00000000;
1019	:	00000000;
1020	:	00000000;
1021	:	00000000;
1022	:	00000000;
1023	:	00000000;
END;