WIDTH = 24;
DEPTH=1024;

ADDRESS_RADIX=UNS;
DATA_RADIX=HEX;

CONTENT BEGIN
0	:	00FFFD31;
1	:	00FFF718;
2	:	00FFF5B5;
3	:	00FFEF19;
4	:	00FFFBA3;
5	:	00FFFBF0;
6	:	00FFFCD8;
7	:	00FFFEBC;
8	:	00FFFA7A;
9	:	0000002A;
10	:	000003B2;
11	:	00FFF8D6;
12	:	00FFF8B1;
13	:	00FFE8BA;
14	:	00FFF0CB;
15	:	00FFE7B6;
16	:	00FFE3A6;
17	:	00FFF650;
18	:	00FFFAFB;
19	:	00FFFE66;
20	:	000003AF;
21	:	000002B3;
22	:	00FFF3BE;
23	:	00FFFB1D;
24	:	00FFFEEE;
25	:	00000E31;
26	:	00FFEB21;
27	:	00FFED9A;
28	:	000005DA;
29	:	00000835;
30	:	00FFF9CC;
31	:	00FFFACB;
32	:	00000159;
33	:	00FFFCC7;
34	:	00FFEC14;
35	:	00000364;
36	:	00001D67;
37	:	00FFF87E;
38	:	00FFFAC3;
39	:	0000075F;
40	:	00FFFF1A;
41	:	000015BC;
42	:	00FFFB55;
43	:	00FFFCDB;
44	:	000002D1;
45	:	00FFF8F7;
46	:	0000191D;
47	:	00001385;
48	:	00FFF8CC;
49	:	00FFF4CE;
50	:	00000494;
51	:	000008AE;
52	:	0000259C;
53	:	00FFF5AF;
54	:	00FFFFB6;
55	:	00001703;
56	:	00002577;
57	:	00FFF5A7;
58	:	00FFF04D;
59	:	00FFE194;
60	:	00FFE7FA;
61	:	000010E3;
62	:	000013EE;
63	:	00003327;
64	:	0000044A;
65	:	00FFFF9E;
66	:	0000086E;
67	:	00FFF304;
68	:	00FFD568;
69	:	00FFBFB3;
70	:	00FFBE97;
71	:	00FFF770;
72	:	000016AB;
73	:	00002163;
74	:	00003624;
75	:	00000F58;
76	:	000001AA;
77	:	00FFD081;
78	:	00FFC8FE;
79	:	00FFB425;
80	:	00FFB4B9;
81	:	00FFD9C2;
82	:	00FFFA04;
83	:	0000097E;
84	:	000028DE;
85	:	000020ED;
86	:	000016A4;
87	:	0000015C;
88	:	00FFD91F;
89	:	00FFE17A;
90	:	00FFBE0C;
91	:	00FFCB9B;
92	:	00FFFC38;
93	:	000005E2;
94	:	0000231B;
95	:	00003D67;
96	:	00001795;
97	:	00001548;
98	:	00FFFBE9;
99	:	00FFFCEA;
100	:	00FFFECE;
101	:	00FFD96A;
102	:	00FFED98;
103	:	0000112D;
104	:	00000D5E;
105	:	00002AFA;
106	:	0000342E;
107	:	00001D6E;
108	:	00000E42;
109	:	00FFFF14;
110	:	00001009;
111	:	00000AAB;
112	:	00001009;
113	:	00002206;
114	:	00002EFB;
115	:	00003592;
116	:	000033F2;
117	:	00003265;
118	:	0000163E;
119	:	0000069E;
120	:	000000FC;
121	:	00FFF5ED;
122	:	00FFEB55;
123	:	00FFF48B;
124	:	00FFFFD9;
125	:	00FFFEA1;
126	:	00002825;
127	:	00002D42;
128	:	00002016;
129	:	00FFFCA3;
130	:	00FFD72C;
131	:	00FFE906;
132	:	000005C5;
133	:	00000084;
134	:	00FFFDDD;
135	:	000018E1;
136	:	00002837;
137	:	00004005;
138	:	00004662;
139	:	00001806;
140	:	0000001D;
141	:	00FFF12B;
142	:	00FFEF38;
143	:	00FFFD64;
144	:	00FFFE23;
145	:	00FFF281;
146	:	0000038B;
147	:	000013E7;
148	:	000010B7;
149	:	0000064E;
150	:	00001AFA;
151	:	000000FE;
152	:	00FFF44F;
153	:	00FFF35F;
154	:	00FFFCC7;
155	:	00FFFC12;
156	:	00FFF052;
157	:	000001C1;
158	:	00001B31;
159	:	0000074C;
160	:	00FFEDC3;
161	:	00FFCAB6;
162	:	00FFD57D;
163	:	00FFFA33;
164	:	00000865;
165	:	000000AC;
166	:	00000015;
167	:	0000033B;
168	:	0000052C;
169	:	00001269;
170	:	000000FD;
171	:	00FFD87F;
172	:	00FFA61A;
173	:	00FFC248;
174	:	00FFE87E;
175	:	00FFFE41;
176	:	00FFF4B6;
177	:	00FFF8F9;
178	:	000005AC;
179	:	00000060;
180	:	00000D8D;
181	:	00FFEF71;
182	:	00FFC515;
183	:	00FFC88C;
184	:	00FFCD1F;
185	:	00FFD355;
186	:	00FFF02D;
187	:	00FFEF15;
188	:	00FFEAB8;
189	:	00001044;
190	:	00000494;
191	:	00FFF20B;
192	:	00FFDCB5;
193	:	00FFD30B;
194	:	00FFCA9C;
195	:	00FFD070;
196	:	00FFD7F9;
197	:	00FFEEBD;
198	:	00FFFB4D;
199	:	00000EA3;
200	:	00002C3E;
201	:	00001727;
202	:	00FFED54;
203	:	00FFE8B9;
204	:	00FFDDC4;
205	:	00FFDBED;
206	:	00FFDC15;
207	:	00FFEA9C;
208	:	00FFF3B5;
209	:	00000BA2;
210	:	00001116;
211	:	00001429;
212	:	00FFFE99;
213	:	00FFE7B6;
214	:	00FFE5B2;
215	:	00FFE337;
216	:	00FFE497;
217	:	00FFE6A4;
218	:	00FFEF7F;
219	:	000001F5;
220	:	00FFF93A;
221	:	00FFFF55;
222	:	00FFFF38;
223	:	00FFFC1C;
224	:	00FFE530;
225	:	00FFE4C0;
226	:	00FFE6BC;
227	:	00FFEAC7;
228	:	00FFF082;
229	:	00FFFA82;
230	:	00000249;
231	:	000001B2;
232	:	00000A1A;
233	:	0000017A;
234	:	000000C2;
235	:	00000036;
236	:	00FFFDC8;
237	:	00FFFD9C;
238	:	00FFFCC6;
239	:	00FFFA54;
240	:	00FFFBDA;
241	:	00000478;
242	:	00FFF800;
243	:	000007E0;
244	:	000016C3;
245	:	00000BE6;
246	:	00FFEB27;
247	:	00FFE3A1;
248	:	00FFE38D;
249	:	00FFEC94;
250	:	00FFFBAF;
251	:	00FFF647;
252	:	00FFFD78;
253	:	00000648;
254	:	000008E1;
255	:	00FFF7A9;
256	:	000005E4;
257	:	00FFFAA8;
258	:	00FFFED9;
259	:	00FFE5DE;
260	:	000001D4;
261	:	00FFF9E4;
262	:	00FFF379;
263	:	00FFF832;
264	:	00FFF3DF;
265	:	00FFF473;
266	:	00FFFC08;
267	:	00000B1E;
268	:	00000B18;
269	:	00FFFF90;
270	:	0000005E;
271	:	00FFF889;
272	:	00FFF243;
273	:	00FFEF1E;
274	:	00FFFE9E;
275	:	00000729;
276	:	0000155B;
277	:	00001F75;
278	:	0000235D;
279	:	00FFF5FB;
280	:	00FFEF4D;
281	:	00FFEF65;
282	:	00FFFE19;
283	:	00FFF733;
284	:	00FFF82B;
285	:	00FFFC50;
286	:	0000081F;
287	:	00FFFD73;
288	:	00FFF50C;
289	:	00FFF959;
290	:	0000023F;
291	:	00FFF1AF;
292	:	00FFED4D;
293	:	000001B1;
294	:	00000120;
295	:	00FFFCB4;
296	:	00FFF824;
297	:	00FFF390;
298	:	00FFE1E1;
299	:	00FFDA7B;
300	:	00FFF434;
301	:	00FFF362;
302	:	00FFF39E;
303	:	00FFE6E1;
304	:	00FFEEF3;
305	:	000011FE;
306	:	000000D7;
307	:	00FFF96C;
308	:	00FFD0E2;
309	:	00FFCAC4;
310	:	00FFE8B6;
311	:	00FFFDEE;
312	:	00001B1C;
313	:	00FFFA56;
314	:	00FFF2F8;
315	:	00000575;
316	:	00000D73;
317	:	00FFFA8A;
318	:	00FFFCD8;
319	:	00FFD190;
320	:	00FFE6E9;
321	:	000001DD;
322	:	000007A1;
323	:	0000285D;
324	:	0000115B;
325	:	00000418;
326	:	00002AF7;
327	:	00000CDA;
328	:	00000297;
329	:	00FFFC95;
330	:	00FFEBF3;
331	:	00000486;
332	:	00000036;
333	:	0000126E;
334	:	00003904;
335	:	00001518;
336	:	00001BBE;
337	:	00001F2B;
338	:	00000D8B;
339	:	00FFFDED;
340	:	0000024A;
341	:	00000DA0;
342	:	000014F8;
343	:	000017BE;
344	:	00001A22;
345	:	00003858;
346	:	000025C8;
347	:	00001EAD;
348	:	00000F38;
349	:	0000096C;
350	:	000002F8;
351	:	000001E9;
352	:	00001154;
353	:	0000223B;
354	:	00002AD4;
355	:	0000254E;
356	:	00003070;
357	:	00002D1C;
358	:	00001937;
359	:	000011E3;
360	:	00000661;
361	:	00FFFA84;
362	:	00FFFACA;
363	:	00000140;
364	:	00FFFC19;
365	:	00FFFE45;
366	:	00000330;
367	:	00FFF803;
368	:	00FFF263;
369	:	00FFFD4E;
370	:	00FFF8B1;
371	:	00FFFDBF;
372	:	00FFFE23;
373	:	00FFFF95;
374	:	00FFFFF4;
375	:	00FFFF7A;
376	:	00FFFB9B;
377	:	00FFF6F8;
378	:	000004CF;
379	:	00FFF9B3;
380	:	00FFEDCD;
381	:	00FFF796;
382	:	00FFFEC2;
383	:	000000B2;
384	:	00000065;
385	:	00FFFEE7;
386	:	00FFFFA5;
387	:	00FFECAA;
388	:	0000009C;
389	:	00FFEE73;
390	:	00FFFD51;
391	:	00FFFEA3;
392	:	00FFF959;
393	:	00FFEE5B;
394	:	00FFF64C;
395	:	00FFFDF9;
396	:	00FFFEEE;
397	:	00FFFB67;
398	:	00FFF62A;
399	:	00FFED21;
400	:	000007AF;
401	:	00000B97;
402	:	00000287;
403	:	00FFFBCA;
404	:	00000876;
405	:	00FFFE62;
406	:	00FFF944;
407	:	00FFF7A7;
408	:	0000082F;
409	:	00001F4E;
410	:	00002E2E;
411	:	00003036;
412	:	0000080B;
413	:	00000395;
414	:	00001233;
415	:	00000554;
416	:	00FFFC8B;
417	:	00FFFBCF;
418	:	00FFFC9D;
419	:	00001412;
420	:	00002BEE;
421	:	00002810;
422	:	00002863;
423	:	00001454;
424	:	000006F0;
425	:	000016C6;
426	:	000006EB;
427	:	00000012;
428	:	0000018B;
429	:	00FFFE86;
430	:	00000873;
431	:	00003851;
432	:	0000304E;
433	:	000005C9;
434	:	00FFFC2B;
435	:	00FFE918;
436	:	00FFF27D;
437	:	00FFFAFC;
438	:	00FFF50B;
439	:	0000000D;
440	:	00FFFCA3;
441	:	00FFFA4A;
442	:	000023F1;
443	:	00001C0A;
444	:	00FFED5B;
445	:	00FFC96F;
446	:	00FFCBD0;
447	:	00FFCEEA;
448	:	00FFDCA9;
449	:	00FFEEF4;
450	:	00FFFDCF;
451	:	00000DD1;
452	:	00FFFD45;
453	:	000001F9;
454	:	00FFEA31;
455	:	00FFE393;
456	:	00FFD4D9;
457	:	00FFBA56;
458	:	00FFB3F1;
459	:	00FFE32B;
460	:	00FFFA51;
461	:	00FFFFE7;
462	:	00000908;
463	:	00000C80;
464	:	000020D6;
465	:	00001BFD;
466	:	00FFFC5D;
467	:	00FFDEDE;
468	:	00FFBB91;
469	:	00FFE54C;
470	:	00FFFA51;
471	:	0000052C;
472	:	00FFFF5D;
473	:	00000260;
474	:	0000031E;
475	:	00FFFEE9;
476	:	00FFF3DF;
477	:	0000016E;
478	:	00FFF21A;
479	:	00FFF818;
480	:	00FFFA0A;
481	:	00000234;
482	:	00000221;
483	:	00000211;
484	:	000001B6;
485	:	000005B8;
486	:	00FFFB3A;
487	:	00FFFC7F;
488	:	00000363;
489	:	00FFFE1E;
490	:	0000031D;
491	:	00FFFE2D;
492	:	000002F1;
493	:	00FFFD84;
494	:	000002CB;
495	:	00FFFD79;
496	:	00000259;
497	:	00FFFD60;
498	:	00FFFE12;
499	:	00FFFBDD;
500	:	00FFFF6F;
501	:	00FFFC0E;
502	:	00FFF90D;
503	:	00FFFDE1;
504	:	00FFFCDA;
505	:	00FFFED9;
506	:	00FFF9BC;
507	:	00FFEE35;
508	:	00FFF29E;
509	:	00000EF7;
510	:	00001808;
511	:	00001149;
512	:	00001C84;
513	:	00FFFDE3;
514	:	00FFF75F;
515	:	00000139;
516	:	0000044F;
517	:	00FFF5CE;
518	:	00FFF395;
519	:	0000038F;
520	:	00000FE5;
521	:	00001409;
522	:	00002504;
523	:	00FFF4F8;
524	:	00000FE6;
525	:	0000120D;
526	:	00FFFF36;
527	:	0000023F;
528	:	000004D1;
529	:	00FFFA8C;
530	:	00FFF550;
531	:	0000139A;
532	:	00002E51;
533	:	00002434;
534	:	00001B9D;
535	:	000029D0;
536	:	00000D8F;
537	:	000003E9;
538	:	00FFFF31;
539	:	00FFF6C3;
540	:	00FFE862;
541	:	00FFEB07;
542	:	00FFFD9E;
543	:	00001844;
544	:	0000392A;
545	:	000010E5;
546	:	00001AD1;
547	:	0000059C;
548	:	00FFFCE2;
549	:	000000EA;
550	:	00FFEFB5;
551	:	00FFDB1C;
552	:	00FFD96F;
553	:	00FFEC61;
554	:	00001B66;
555	:	00002A03;
556	:	00001EAF;
557	:	00000BA9;
558	:	00000567;
559	:	0000003A;
560	:	00000050;
561	:	00FFED36;
562	:	00FFD5A4;
563	:	00FFDAC7;
564	:	00FFFA4F;
565	:	0000226B;
566	:	000013E8;
567	:	00000FD7;
568	:	00001020;
569	:	0000064A;
570	:	00FFFEB9;
571	:	00FFFCB2;
572	:	00FFFBC9;
573	:	00FFF1A3;
574	:	00FFEF4E;
575	:	000006A8;
576	:	00FFEC70;
577	:	00000D92;
578	:	00000E59;
579	:	00000CA6;
580	:	00FFFE48;
581	:	00FFFBAB;
582	:	00000262;
583	:	00FFFED6;
584	:	00000025;
585	:	00FFF45E;
586	:	00FFF6B3;
587	:	00FFF2E0;
588	:	00000E2B;
589	:	00000903;
590	:	000009D2;
591	:	00FFFFD9;
592	:	000000D0;
593	:	00FFFC1C;
594	:	00000269;
595	:	00000424;
596	:	00000416;
597	:	00FFFA46;
598	:	00FFFEE4;
599	:	00FFFE1A;
600	:	0000094F;
601	:	0000064F;
602	:	00000286;
603	:	00FFFD57;
604	:	000000C5;
605	:	00FFFD72;
606	:	00FFFF8D;
607	:	00000392;
608	:	000005B5;
609	:	00FFFF32;
610	:	00FFFFB3;
611	:	000000FC;
612	:	0000019E;
613	:	000000FD;
614	:	00FFFE9A;
615	:	00FFFCD1;
616	:	00FFFD80;
617	:	00FFFEDE;
618	:	00FFFA81;
619	:	00FFEFCC;
620	:	00000482;
621	:	00002162;
622	:	00FFFCD7;
623	:	00FFF735;
624	:	00FFFAFE;
625	:	00000461;
626	:	00FFFE4A;
627	:	00FFF67D;
628	:	0000002C;
629	:	00000057;
630	:	00FFF10A;
631	:	000002E2;
632	:	00001990;
633	:	00FFFCD8;
634	:	00FFEDF0;
635	:	00FFFE91;
636	:	00FFF9AF;
637	:	00000480;
638	:	00FFF6DB;
639	:	0000044F;
640	:	00000965;
641	:	0000135A;
642	:	00000A73;
643	:	00000D14;
644	:	00FFF00A;
645	:	00FFF16F;
646	:	000007A6;
647	:	00FFEE10;
648	:	00FFFD0A;
649	:	00000DB1;
650	:	00001014;
651	:	00000EA8;
652	:	00002AC1;
653	:	00000E80;
654	:	0000202D;
655	:	000002D9;
656	:	00001D4A;
657	:	00001C91;
658	:	00FFFC33;
659	:	00FFFC2C;
660	:	00001142;
661	:	000017DA;
662	:	000020DA;
663	:	00002132;
664	:	00001036;
665	:	00000697;
666	:	0000156A;
667	:	00001805;
668	:	00000B6F;
669	:	0000025C;
670	:	00FFFD93;
671	:	000019E1;
672	:	00001E73;
673	:	000016FE;
674	:	00002CC6;
675	:	0000043D;
676	:	00FFF8D9;
677	:	00FFEC6E;
678	:	00FFF2CC;
679	:	00FFF31F;
680	:	00FFFFD2;
681	:	00FFFF85;
682	:	00001759;
683	:	00001D59;
684	:	00000981;
685	:	00000BFC;
686	:	00FFEF73;
687	:	00FFD2FE;
688	:	00FFCEB6;
689	:	00FFF7C4;
690	:	00FFF685;
691	:	000001D0;
692	:	00FFFA9D;
693	:	00FFF765;
694	:	00FFF46B;
695	:	00FFFA1E;
696	:	00FFF14A;
697	:	00FFDCDF;
698	:	00FFCFCF;
699	:	00FFD63E;
700	:	00FFEAB6;
701	:	00FFFC2D;
702	:	00FFFD3C;
703	:	00FFFDD6;
704	:	00FFFC5F;
705	:	00000589;
706	:	00000980;
707	:	00FFF8C3;
708	:	00FFE5B4;
709	:	00FFCE39;
710	:	00FFD22F;
711	:	00FFE495;
712	:	00FFF737;
713	:	00FFF833;
714	:	00FFFDEC;
715	:	000001B1;
716	:	00000462;
717	:	00001469;
718	:	00FFF3BA;
719	:	00FFE3DC;
720	:	00FFF009;
721	:	00FFD335;
722	:	00FFED7B;
723	:	00FFFF33;
724	:	00FFFEDF;
725	:	00000347;
726	:	00000429;
727	:	0000037B;
728	:	00FFFD84;
729	:	00FFFDD2;
730	:	00000170;
731	:	00FFF78F;
732	:	00FFFE82;
733	:	00FFFBCA;
734	:	00FFFAD3;
735	:	00000083;
736	:	00FFFF69;
737	:	00FFFB66;
738	:	000003D8;
739	:	00FFF9FC;
740	:	00FFE6AA;
741	:	00FFE56A;
742	:	00FFF4CE;
743	:	00000E14;
744	:	00FFF507;
745	:	00FFF8F7;
746	:	00000155;
747	:	00FFFEA9;
748	:	00FFFD3A;
749	:	00FFFEB4;
750	:	00FFED83;
751	:	00FFE95C;
752	:	00000F82;
753	:	00001CEB;
754	:	00000008;
755	:	000017B2;
756	:	000004B3;
757	:	00FFF966;
758	:	00FFFFEC;
759	:	00000530;
760	:	00FFFEB8;
761	:	00FFFBDA;
762	:	00000E7B;
763	:	000026DF;
764	:	00000AB8;
765	:	0000231F;
766	:	00002469;
767	:	00000C91;
768	:	00FFFFC5;
769	:	00FFFD5F;
770	:	000003FE;
771	:	00FFF993;
772	:	00FFFAD8;
773	:	00001C5F;
774	:	00002250;
775	:	00000F7B;
776	:	00003F93;
777	:	00002A4C;
778	:	00001D46;
779	:	000001C8;
780	:	0000056C;
781	:	0000016E;
782	:	00FFF1A2;
783	:	00FFE885;
784	:	00000C4B;
785	:	0000055D;
786	:	00FFF45F;
787	:	00001D45;
788	:	0000317E;
789	:	000019D5;
790	:	00FFFA2B;
791	:	00FFFDD1;
792	:	00FFF930;
793	:	00FFF413;
794	:	00FFE377;
795	:	00FFFB40;
796	:	00FFF801;
797	:	00FFF26A;
798	:	00000798;
799	:	00000F37;
800	:	0000096E;
801	:	00FFF8E7;
802	:	00FFFBFE;
803	:	00FFFD1A;
804	:	00FFF880;
805	:	00FFEA2A;
806	:	00FFFAC4;
807	:	00FFF1E0;
808	:	00001B76;
809	:	00000DBF;
810	:	000005E1;
811	:	00000617;
812	:	00FFFE2F;
813	:	00FFFC80;
814	:	00FFF970;
815	:	00FFFDFB;
816	:	00FFF7FF;
817	:	00FFF65D;
818	:	00000F49;
819	:	00001A06;
820	:	00000E08;
821	:	00000326;
822	:	0000155D;
823	:	0000006E;
824	:	00FFFC1A;
825	:	0000025B;
826	:	00000171;
827	:	00000A25;
828	:	00000276;
829	:	00000404;
830	:	00001AB0;
831	:	0000176B;
832	:	00000527;
833	:	00000842;
834	:	00FFFE36;
835	:	00FFFE1D;
836	:	00FFFF90;
837	:	0000014B;
838	:	0000019C;
839	:	00000155;
840	:	00FFFC85;
841	:	0000027F;
842	:	000004CA;
843	:	00000342;
844	:	000003C9;
845	:	00FFFE7C;
846	:	0000021A;
847	:	000004A3;
848	:	00FFFC89;
849	:	00FFFE0A;
850	:	00FFFFB4;
851	:	00FFFE0B;
852	:	00FFFE20;
853	:	000012D0;
854	:	00000118;
855	:	00FFFC35;
856	:	00FFFE0F;
857	:	00FFFB31;
858	:	00FFFE39;
859	:	000001D1;
860	:	000005F4;
861	:	0000127E;
862	:	00FFFD63;
863	:	00FFFEE9;
864	:	00FFFD09;
865	:	00FFF9D1;
866	:	00FFFE31;
867	:	00FFFFAB;
868	:	00FFFC15;
869	:	00000947;
870	:	00001640;
871	:	00001AA8;
872	:	00001449;
873	:	000022AD;
874	:	00000E92;
875	:	00FFF2E0;
876	:	00000000;
877	:	00FFFA23;
878	:	00000143;
879	:	00FFFF5E;
880	:	000006F8;
881	:	00000996;
882	:	00000C72;
883	:	000010D3;
884	:	0000050C;
885	:	00FFFD70;
886	:	0000036D;
887	:	00FFE91A;
888	:	00FFFBF6;
889	:	00FFFCDE;
890	:	00FFFCC2;
891	:	00FFFD66;
892	:	00FFFE64;
893	:	00FFF9C7;
894	:	00FFFF57;
895	:	00FFF644;
896	:	0000040D;
897	:	00001A7E;
898	:	00FFF6E8;
899	:	00FFF3C0;
900	:	00FFFE1A;
901	:	000004D0;
902	:	00FFF589;
903	:	00FFF11B;
904	:	00FFF3B8;
905	:	00FFF373;
906	:	00001B17;
907	:	00001B86;
908	:	00000AD1;
909	:	00FFF619;
910	:	00FFF778;
911	:	00FFFD7B;
912	:	00000503;
913	:	00FFFB25;
914	:	00FFEFB1;
915	:	00000713;
916	:	00001786;
917	:	0000027D;
918	:	00FFEFAD;
919	:	00FFFE57;
920	:	00FFEAEB;
921	:	00FFF5A5;
922	:	00FFF854;
923	:	000001C6;
924	:	000005FA;
925	:	00FFF86F;
926	:	00001C82;
927	:	00FFFA84;
928	:	00FFFF13;
929	:	00FFFB0B;
930	:	00FFFF61;
931	:	00FFEDF5;
932	:	00FFF513;
933	:	00FFFC46;
934	:	00FFFD84;
935	:	0000088C;
936	:	00001AEA;
937	:	00002C48;
938	:	000026CD;
939	:	000032CF;
940	:	00FFF937;
941	:	00FFF713;
942	:	00000457;
943	:	00FFFAE9;
944	:	00FFFE64;
945	:	000002C7;
946	:	00FFFE34;
947	:	0000092B;
948	:	0000043E;
949	:	00000782;
950	:	00FFFD91;
951	:	00FFFD3B;
952	:	0000002D;
953	:	00FFFE62;
954	:	00FFFB54;
955	:	0000002E;
956	:	000004C3;
957	:	00FFFBD8;
958	:	00000388;
959	:	0000029C;
960	:	000000EE;
961	:	00000050;
962	:	00FFFCB9;
963	:	000001C1;
964	:	000000E9;
965	:	00FFFC46;
966	:	0000011D;
967	:	00FFFDD0;
968	:	00000000;
969	:	00000000;
970	:	00000000;
971	:	00000000;
972	:	00000000;
973	:	00000000;
974	:	00000000;
975	:	00000000;
976	:	00000000;
977	:	00000000;
978	:	00000000;
979	:	00000000;
980	:	00000000;
981	:	00000000;
982	:	00000000;
983	:	00000000;
984	:	00000000;
985	:	00000000;
986	:	00000000;
987	:	00000000;
988	:	00000000;
989	:	00000000;
990	:	00000000;
991	:	00000000;
992	:	00000000;
993	:	00000000;
994	:	00000000;
995	:	00000000;
996	:	00000000;
997	:	00000000;
998	:	00000000;
999	:	00000000;
1000	:	00000000;
1001	:	00000000;
1002	:	00000000;
1003	:	00000000;
1004	:	00000000;
1005	:	00000000;
1006	:	00000000;
1007	:	00000000;
1008	:	00000000;
1009	:	00000000;
1010	:	00000000;
1011	:	00000000;
1012	:	00000000;
1013	:	00000000;
1014	:	00000000;
1015	:	00000000;
1016	:	00000000;
1017	:	00000000;
1018	:	00000000;
1019	:	00000000;
1020	:	00000000;
1021	:	00000000;
1022	:	00000000;
1023	:	00000000;
END;