WIDTH = 24;
DEPTH=1024;

ADDRESS_RADIX=UNS;
DATA_RADIX=HEX;

CONTENT BEGIN
0	:	00FFFBF2;
1	:	0000016F;
2	:	00FFFCD5;
3	:	00FFFCD0;
4	:	000003FC;
5	:	00FFE5D7;
6	:	00FFEF2D;
7	:	00FFEFC0;
8	:	00000C61;
9	:	00FFF4F9;
10	:	00FFF4E0;
11	:	0000018B;
12	:	00FFFF37;
13	:	00FFF81B;
14	:	00FFF509;
15	:	00FFFD57;
16	:	00FFD85A;
17	:	00FFD4A7;
18	:	00FFB7A9;
19	:	00FFEB18;
20	:	00FFD866;
21	:	00FFE410;
22	:	00FFFF39;
23	:	00FFFBD4;
24	:	00FFFB83;
25	:	00FFFC4C;
26	:	00FFFA7F;
27	:	00FFE4E5;
28	:	00FF98DA;
29	:	00FFA05A;
30	:	00FFB1B3;
31	:	00FFB097;
32	:	00FFBFF5;
33	:	0000045F;
34	:	00FFF95F;
35	:	00000400;
36	:	000011A3;
37	:	00002FA9;
38	:	00000D0D;
39	:	00FFC0C7;
40	:	00FFADA4;
41	:	00FFC180;
42	:	00FFAD3D;
43	:	00FFBDBE;
44	:	00FFFD29;
45	:	00FFF87C;
46	:	00FFF4D4;
47	:	00000965;
48	:	00002AE4;
49	:	00001303;
50	:	00FFFF0D;
51	:	00FFD050;
52	:	00FFF1DB;
53	:	00FFD739;
54	:	00FFD52C;
55	:	00FFFAB3;
56	:	00FFF136;
57	:	00FFF08B;
58	:	00FFEC83;
59	:	00000CD8;
60	:	000013E3;
61	:	000016AD;
62	:	00FFFF7B;
63	:	0000363E;
64	:	0000030F;
65	:	00FFEBEC;
66	:	00000128;
67	:	00FFF8F9;
68	:	00FFFAA9;
69	:	00FFE90C;
70	:	00FFEF2D;
71	:	00001A16;
72	:	000019E3;
73	:	0000316E;
74	:	000006D0;
75	:	00FFF96A;
76	:	000008E7;
77	:	00000254;
78	:	00FFFF56;
79	:	00FFF785;
80	:	00FFE539;
81	:	00FFE4BB;
82	:	000019CE;
83	:	000011CA;
84	:	000015F4;
85	:	00002EAC;
86	:	00000D4B;
87	:	00000E95;
88	:	000001FF;
89	:	00FFFA3D;
90	:	00000276;
91	:	00FFE8A4;
92	:	00FFEF5A;
93	:	0000188E;
94	:	000012DF;
95	:	00000A27;
96	:	000004B8;
97	:	0000178A;
98	:	00001961;
99	:	00000199;
100	:	00FFFF37;
101	:	00FFFCCE;
102	:	00FFF7D2;
103	:	00FFEEA8;
104	:	000011A0;
105	:	00FFF69D;
106	:	00FFF6A2;
107	:	00FFEDBE;
108	:	00FFEE59;
109	:	00FFFB36;
110	:	00000067;
111	:	00000472;
112	:	00FFFD0B;
113	:	00FFFA24;
114	:	00FFFB9C;
115	:	00FFFDC2;
116	:	00FFFB95;
117	:	00FFEAC9;
118	:	00FFEBF9;
119	:	00FFE9E2;
120	:	00FFFB61;
121	:	00FFFE83;
122	:	00FFFDA0;
123	:	00FFFA74;
124	:	00FFF8C9;
125	:	00FFF94B;
126	:	00FFF296;
127	:	00FFFC1E;
128	:	00FFFFCA;
129	:	0000033A;
130	:	00FFFE8C;
131	:	00FFFA71;
132	:	00FFE959;
133	:	00FFDD0D;
134	:	00FFD558;
135	:	00FFD391;
136	:	00FFE7E8;
137	:	000001AF;
138	:	00002832;
139	:	00000E94;
140	:	000014F2;
141	:	000012F3;
142	:	000007F3;
143	:	00FFCC9E;
144	:	00FFC427;
145	:	00FFD38D;
146	:	00FFE358;
147	:	00FFE506;
148	:	00001B20;
149	:	00003C93;
150	:	000037D2;
151	:	00002A82;
152	:	00003480;
153	:	0000162E;
154	:	00FFE26C;
155	:	00FFD577;
156	:	00FFEDB7;
157	:	00000625;
158	:	00000125;
159	:	00000AED;
160	:	00003001;
161	:	00004CF5;
162	:	0000482C;
163	:	00004DBE;
164	:	000022FA;
165	:	00FFD86A;
166	:	00FFE692;
167	:	000012A9;
168	:	00002973;
169	:	000030BB;
170	:	0000251B;
171	:	000019D1;
172	:	00004468;
173	:	00004502;
174	:	00005D0E;
175	:	0000385E;
176	:	00FFF7C4;
177	:	000019E5;
178	:	000018B0;
179	:	00001EB1;
180	:	0000404D;
181	:	000018C7;
182	:	000010F3;
183	:	00002304;
184	:	00002E99;
185	:	00000FF9;
186	:	000004BF;
187	:	000006A1;
188	:	00001925;
189	:	00001B7C;
190	:	0000343A;
191	:	000027BD;
192	:	00002494;
193	:	00001239;
194	:	00FFFA71;
195	:	00FFFE40;
196	:	00FFF594;
197	:	00FFF7AD;
198	:	00001AA4;
199	:	00000CFA;
200	:	0000228F;
201	:	00002E17;
202	:	0000166C;
203	:	00FFEF5E;
204	:	00FFF84F;
205	:	00FFFBB6;
206	:	00FFF0CB;
207	:	00FFEE89;
208	:	00FFF9D0;
209	:	00002BD7;
210	:	00002635;
211	:	000037B8;
212	:	0000349A;
213	:	00000E71;
214	:	00FFF5E2;
215	:	00FFF78D;
216	:	00FFDEA2;
217	:	00FFE5DE;
218	:	00FFEECB;
219	:	00FFF58D;
220	:	00001A13;
221	:	00002D9C;
222	:	00003807;
223	:	000027E4;
224	:	000008FB;
225	:	00FFF8DC;
226	:	00FFE7B9;
227	:	00FFDA31;
228	:	00FFE442;
229	:	00FFF07D;
230	:	00FFFA97;
231	:	00000666;
232	:	000007C5;
233	:	00002404;
234	:	0000209F;
235	:	00000D2D;
236	:	00000532;
237	:	00FFD560;
238	:	00FFF480;
239	:	00FFEFD4;
240	:	00FFFB1D;
241	:	0000079F;
242	:	00000204;
243	:	0000041A;
244	:	0000007D;
245	:	00000002;
246	:	00000215;
247	:	00000075;
248	:	000002D3;
249	:	00000AB8;
250	:	00001E9A;
251	:	0000130E;
252	:	0000047E;
253	:	00FFFF37;
254	:	00FFFA73;
255	:	00000359;
256	:	000006D9;
257	:	000015B4;
258	:	0000089B;
259	:	00002F69;
260	:	000036CE;
261	:	000043BF;
262	:	00001E29;
263	:	00002690;
264	:	00FFFB32;
265	:	00FFF6B9;
266	:	00FFF654;
267	:	00FFE4AA;
268	:	00FFEC01;
269	:	00FFF5B1;
270	:	00001B16;
271	:	00001374;
272	:	00004210;
273	:	00003513;
274	:	000038A8;
275	:	00FFFAD0;
276	:	00FFF1BF;
277	:	00FFDFFD;
278	:	00FFCFD5;
279	:	00FFF5E9;
280	:	00FFE528;
281	:	00FFF616;
282	:	00FFE9A7;
283	:	00FFFA5E;
284	:	000015FD;
285	:	000033F8;
286	:	00FFF887;
287	:	00FFF77A;
288	:	00FFE07D;
289	:	00FFF7A4;
290	:	00FFF49D;
291	:	00000E0E;
292	:	00FFE4FA;
293	:	00FFC702;
294	:	00FFC992;
295	:	00FFE29C;
296	:	00FFFFDC;
297	:	00FFF93B;
298	:	00FFF8BD;
299	:	00FFE42A;
300	:	00FFEC48;
301	:	00000067;
302	:	00001C27;
303	:	00FFFCAD;
304	:	00FFB99E;
305	:	00FFAF47;
306	:	00FFC41C;
307	:	00FFDB3B;
308	:	00FFFCA7;
309	:	00FFF7A7;
310	:	00FFF3E5;
311	:	00FFDEA9;
312	:	000000FC;
313	:	00FFEA7B;
314	:	00FFD807;
315	:	00FFCED4;
316	:	00FFE13C;
317	:	00FFDAAC;
318	:	00FFE513;
319	:	00FFFCC5;
320	:	00000493;
321	:	000006D2;
322	:	00FFFEAA;
323	:	00FFF86E;
324	:	00FFF75B;
325	:	00001502;
326	:	00000C4A;
327	:	00FFD77F;
328	:	00FFE376;
329	:	00FFEF66;
330	:	00FFFB7D;
331	:	00000FEF;
332	:	000012E2;
333	:	000014BD;
334	:	0000076D;
335	:	00000550;
336	:	00000F7E;
337	:	00FFF199;
338	:	00FFECE7;
339	:	00FFD692;
340	:	00FFF7A9;
341	:	00FFFC01;
342	:	00000465;
343	:	000008B2;
344	:	000008D0;
345	:	00001143;
346	:	000012D6;
347	:	000009C4;
348	:	00001A56;
349	:	0000170E;
350	:	00001AD0;
351	:	00000A61;
352	:	000001BE;
353	:	0000041B;
354	:	00FFF31F;
355	:	000016CE;
356	:	00002F98;
357	:	00001D00;
358	:	00001A5B;
359	:	000030D6;
360	:	00001554;
361	:	00000A5D;
362	:	000018A6;
363	:	00000147;
364	:	000003AD;
365	:	00000060;
366	:	00FFF8D5;
367	:	00FFFC63;
368	:	00FFF54C;
369	:	00FFF83D;
370	:	0000054A;
371	:	00000640;
372	:	00FFFBDC;
373	:	00FFFEF1;
374	:	000002EF;
375	:	00FFF92B;
376	:	00FFE98C;
377	:	00FFF561;
378	:	00FFF099;
379	:	00FFE87A;
380	:	00FFFBEB;
381	:	00FFEF2F;
382	:	00FFE5BE;
383	:	00001AA0;
384	:	0000081B;
385	:	000002CF;
386	:	00FFF49F;
387	:	00001922;
388	:	00002387;
389	:	00FFF731;
390	:	000006F9;
391	:	00001D98;
392	:	00001392;
393	:	000015E1;
394	:	0000200E;
395	:	00000E68;
396	:	00FFF64D;
397	:	00FFFC75;
398	:	000009A4;
399	:	000006B8;
400	:	00FFF192;
401	:	00FFF6A6;
402	:	000018EF;
403	:	00000E77;
404	:	00001A31;
405	:	00002EFD;
406	:	00000FD4;
407	:	0000008F;
408	:	00FFEB2A;
409	:	00FFE9E5;
410	:	00FFFA8F;
411	:	00FFFCF1;
412	:	000004C3;
413	:	0000075E;
414	:	0000046F;
415	:	000006DA;
416	:	00000A83;
417	:	00000136;
418	:	00FFFAFC;
419	:	00FFEABA;
420	:	00FFED2C;
421	:	00FFF410;
422	:	00FFF301;
423	:	00FFFE9A;
424	:	000009EE;
425	:	0000061B;
426	:	00FFF619;
427	:	00FFFF36;
428	:	00FFF995;
429	:	00000224;
430	:	0000012B;
431	:	00000853;
432	:	00FFEE63;
433	:	00FFE474;
434	:	000007E7;
435	:	00FFFDC0;
436	:	00000033;
437	:	00FFF682;
438	:	00FFFB74;
439	:	0000027E;
440	:	00000A2A;
441	:	000010E9;
442	:	00FFF647;
443	:	00FFE101;
444	:	00FFCDAB;
445	:	00FFEBA8;
446	:	00FFEF0B;
447	:	00FFF4BB;
448	:	000002AE;
449	:	00FFF7C9;
450	:	00FFFD2A;
451	:	000005AE;
452	:	000020F9;
453	:	00000F8B;
454	:	0000003E;
455	:	00FFF5DA;
456	:	00FFE537;
457	:	00FFE9E8;
458	:	00FFE69F;
459	:	00FFEFC1;
460	:	00FFF729;
461	:	00FFFDA1;
462	:	00FFF9CB;
463	:	00FFFCB2;
464	:	000001C0;
465	:	00001127;
466	:	00001580;
467	:	00FFF4B0;
468	:	00FFEF5B;
469	:	00FFFF45;
470	:	00000C7C;
471	:	00FFFF2A;
472	:	000000A1;
473	:	00FFFF12;
474	:	00000166;
475	:	00000E49;
476	:	0000190C;
477	:	00000FCB;
478	:	00000D08;
479	:	000015CB;
480	:	000007D8;
481	:	0000011B;
482	:	000004D9;
483	:	00FFFDC9;
484	:	000003EA;
485	:	00000535;
486	:	00000308;
487	:	00FFFC28;
488	:	00000026;
489	:	00FFFF17;
490	:	000000DC;
491	:	00000527;
492	:	00FFFFAC;
493	:	000000BB;
494	:	00FFFC9C;
495	:	00000361;
496	:	000000F2;
497	:	000007D1;
498	:	00FFFEC2;
499	:	0000075D;
500	:	0000099D;
501	:	00000F15;
502	:	00FFFE18;
503	:	00000875;
504	:	00FFFD7F;
505	:	00FFF8A5;
506	:	00FFFD1A;
507	:	00FFFF6B;
508	:	0000028A;
509	:	00000B1A;
510	:	00001407;
511	:	00000DFA;
512	:	00002E7A;
513	:	00FFF642;
514	:	0000164F;
515	:	00FFFE05;
516	:	00FFF9EE;
517	:	0000062D;
518	:	0000030E;
519	:	0000058E;
520	:	0000110C;
521	:	00001C60;
522	:	000008B8;
523	:	00001A82;
524	:	00FFCE35;
525	:	00FFF2CD;
526	:	00FFEEE5;
527	:	00FFF885;
528	:	00000192;
529	:	00000080;
530	:	00FFF834;
531	:	00000B9E;
532	:	00000EA3;
533	:	000006F8;
534	:	00FFFB99;
535	:	00FFC400;
536	:	00FFD29B;
537	:	00FFD22C;
538	:	00FFF193;
539	:	00FFFC84;
540	:	000001A2;
541	:	00FFECD6;
542	:	00000191;
543	:	000015E4;
544	:	00FFF8F6;
545	:	00FFF135;
546	:	00FFD9E2;
547	:	00FFE22F;
548	:	00FFEB63;
549	:	00FFED21;
550	:	00FFFC8F;
551	:	00FFFC9D;
552	:	00FFE533;
553	:	00FFE217;
554	:	00FFE9A6;
555	:	00FFFCD4;
556	:	00FFFBB6;
557	:	00FFF378;
558	:	00000141;
559	:	00001170;
560	:	00FFF64E;
561	:	00FFFCC2;
562	:	00FFFE00;
563	:	00FFEB82;
564	:	00FFE441;
565	:	00FFE694;
566	:	00FFF589;
567	:	00FFEFCF;
568	:	00FFE3FA;
569	:	00FFFD2A;
570	:	00FFFA16;
571	:	00FFFDFD;
572	:	00FFFE87;
573	:	00FFFA05;
574	:	000003DE;
575	:	00FFE748;
576	:	00FFD4F6;
577	:	00FFE163;
578	:	00FFD873;
579	:	00FFEDBF;
580	:	00FFF1E4;
581	:	00FFF76D;
582	:	0000030A;
583	:	00FFFFF1;
584	:	000002CC;
585	:	00FFFB70;
586	:	00FFF53A;
587	:	00FFF769;
588	:	00FFF27E;
589	:	00FFF700;
590	:	00FFF257;
591	:	00FFF87F;
592	:	00FFF32B;
593	:	00000306;
594	:	00000425;
595	:	00FFFCB5;
596	:	00000166;
597	:	00FFFD66;
598	:	00FFFC3C;
599	:	00FFFAE5;
600	:	00000080;
601	:	00FFFC70;
602	:	000004A5;
603	:	00FFFDCE;
604	:	00FFFDD2;
605	:	000002E2;
606	:	00FFFCE6;
607	:	00FFFFA6;
608	:	00000EF4;
609	:	00001057;
610	:	00FFE9D5;
611	:	00FFEEEF;
612	:	00FFECE0;
613	:	00FFD7F9;
614	:	00FFE57A;
615	:	00FFF638;
616	:	00FFFD76;
617	:	000002A0;
618	:	00000F63;
619	:	00001140;
620	:	00FFE9DA;
621	:	00FFE71E;
622	:	00FFF0E5;
623	:	00000383;
624	:	00FFE49D;
625	:	00FFCB7D;
626	:	00FFD9EA;
627	:	00FFF3E9;
628	:	00FFF685;
629	:	00FFF126;
630	:	00FFFB12;
631	:	00FFFA21;
632	:	00FFF4B9;
633	:	00FFE0F2;
634	:	00FFDEBA;
635	:	00FFE7CF;
636	:	00FFE2BC;
637	:	00FFF3BB;
638	:	00FFFE1B;
639	:	00FFFC3B;
640	:	000000D5;
641	:	0000068C;
642	:	00FFF34A;
643	:	00FFF624;
644	:	00FFFF52;
645	:	00000861;
646	:	00000AAC;
647	:	00FFEFA0;
648	:	00FFF44F;
649	:	0000010E;
650	:	0000003C;
651	:	00FFFB99;
652	:	0000057C;
653	:	0000294D;
654	:	00001D02;
655	:	00FFF79C;
656	:	00002DEB;
657	:	000029A0;
658	:	000014A6;
659	:	00000D4D;
660	:	0000079F;
661	:	000008CC;
662	:	00FFF89F;
663	:	00FFFEC6;
664	:	00000A22;
665	:	0000239F;
666	:	00002F16;
667	:	00005A8C;
668	:	00001680;
669	:	000013F5;
670	:	0000155C;
671	:	00000487;
672	:	00001EBE;
673	:	0000159A;
674	:	0000176F;
675	:	0000168A;
676	:	00003161;
677	:	00004B74;
678	:	00002BDE;
679	:	0000258D;
680	:	000017EE;
681	:	000015A1;
682	:	000006EE;
683	:	000022C1;
684	:	0000115E;
685	:	000006EA;
686	:	00000CFB;
687	:	0000085A;
688	:	00001CBF;
689	:	0000121F;
690	:	000008B0;
691	:	00000DC4;
692	:	00001A54;
693	:	00FFF8E1;
694	:	00000DAB;
695	:	0000056B;
696	:	00001324;
697	:	00000368;
698	:	00000432;
699	:	0000079E;
700	:	00FFF538;
701	:	00FFF067;
702	:	00FFF33C;
703	:	00FFFF67;
704	:	0000042A;
705	:	00FFFF68;
706	:	00FFF374;
707	:	00000477;
708	:	00001F33;
709	:	00FFE684;
710	:	00FFF75A;
711	:	00FFFA9C;
712	:	00FFF04A;
713	:	00FFF8E1;
714	:	00FFFE36;
715	:	0000035D;
716	:	000003E7;
717	:	00FFFA92;
718	:	00000423;
719	:	00000D99;
720	:	00000820;
721	:	00FFF9F9;
722	:	00FFF393;
723	:	000000AE;
724	:	00000264;
725	:	00000387;
726	:	000002F0;
727	:	00FFFFE5;
728	:	000004D0;
729	:	00FFFD4C;
730	:	00000124;
731	:	00000033;
732	:	00FFFD95;
733	:	00FFFD0A;
734	:	00FFFAF6;
735	:	000003F1;
736	:	0000000B;
737	:	00000513;
738	:	000000D7;
739	:	00000705;
740	:	000001C1;
741	:	00FFFF33;
742	:	00000479;
743	:	000021FB;
744	:	00002A21;
745	:	0000002C;
746	:	00FFF9B8;
747	:	0000000B;
748	:	00FFFD8E;
749	:	00000450;
750	:	0000257C;
751	:	0000260B;
752	:	00001D7B;
753	:	0000385C;
754	:	00002CCD;
755	:	00001A9D;
756	:	00FFEC85;
757	:	00000077;
758	:	000001C8;
759	:	00FFFB3F;
760	:	000004F2;
761	:	00000F37;
762	:	00000F10;
763	:	00000F1C;
764	:	000020C6;
765	:	00000E94;
766	:	00FFF3E7;
767	:	00FFE3B8;
768	:	00FFFA39;
769	:	00000331;
770	:	00FFFFF0;
771	:	00FFF4B4;
772	:	00FFFD43;
773	:	00FFF614;
774	:	000010A7;
775	:	00002605;
776	:	00000941;
777	:	00FFE36E;
778	:	00FFEB59;
779	:	00FFFA61;
780	:	000002CF;
781	:	00000306;
782	:	00FFEAB4;
783	:	00FFE129;
784	:	00FFDAF5;
785	:	000008C5;
786	:	00FFFA5E;
787	:	00FFDE08;
788	:	00FFDFD8;
789	:	00FFE478;
790	:	00FFF74B;
791	:	00000249;
792	:	00FFFFEF;
793	:	00FFED21;
794	:	00FFCEBE;
795	:	00FFD99C;
796	:	00FFD9D2;
797	:	00FFC830;
798	:	00FFD738;
799	:	00FFE872;
800	:	00FFF9E9;
801	:	00FFF978;
802	:	00FFFDCB;
803	:	00FFFF53;
804	:	00FFED3C;
805	:	00FFE62D;
806	:	00FFD45E;
807	:	00FFD0A0;
808	:	00FFE8FA;
809	:	0000002A;
810	:	00FFFF6E;
811	:	00FFFC3E;
812	:	00FFFFC1;
813	:	0000053F;
814	:	00FFFAC4;
815	:	0000040C;
816	:	00FFF34D;
817	:	00FFD81A;
818	:	00FFE8E8;
819	:	00FFFA38;
820	:	00FFF75C;
821	:	00000994;
822	:	0000106D;
823	:	0000040E;
824	:	000002A0;
825	:	0000029F;
826	:	000004DB;
827	:	00FFE76D;
828	:	00FFE525;
829	:	00FFEACE;
830	:	00FFF608;
831	:	00FFF621;
832	:	000013A6;
833	:	00000BFE;
834	:	000000FD;
835	:	00FFFC02;
836	:	00000090;
837	:	00FFFE01;
838	:	00FFF38C;
839	:	00FFFB2B;
840	:	0000010B;
841	:	00000135;
842	:	00FFFD33;
843	:	000002D3;
844	:	000000E6;
845	:	000001F7;
846	:	0000011E;
847	:	00FFFFA1;
848	:	00FFFE9D;
849	:	000000E3;
850	:	00FFFCA2;
851	:	00000352;
852	:	0000044C;
853	:	00000289;
854	:	000003C3;
855	:	000004DB;
856	:	00000187;
857	:	000003E9;
858	:	00FFFB88;
859	:	00FFFDAD;
860	:	00FFF91A;
861	:	00FFFDDD;
862	:	0000049E;
863	:	00000E80;
864	:	000012AF;
865	:	0000105A;
866	:	000016B1;
867	:	00FFF978;
868	:	00000025;
869	:	00FFFFBD;
870	:	00FFFB84;
871	:	00FFFDAD;
872	:	00000CBB;
873	:	000019FA;
874	:	0000441E;
875	:	00003126;
876	:	00003018;
877	:	00000C1B;
878	:	0000099C;
879	:	00000ACE;
880	:	00FFF8D4;
881	:	00FFF7E3;
882	:	00FFF0FC;
883	:	00FFFADC;
884	:	0000143B;
885	:	00001C37;
886	:	00002B31;
887	:	0000356E;
888	:	00002BF4;
889	:	000033BE;
890	:	000016A9;
891	:	000002D6;
892	:	00FFFC91;
893	:	00FFFB8B;
894	:	00FFF15B;
895	:	000002C9;
896	:	00000EA2;
897	:	00001FC6;
898	:	00002008;
899	:	000023F9;
900	:	00003533;
901	:	00001119;
902	:	00FFFEA0;
903	:	00000752;
904	:	00001746;
905	:	000010FC;
906	:	0000018B;
907	:	0000178F;
908	:	000007E6;
909	:	00FFF959;
910	:	00FFFDF6;
911	:	000001C7;
912	:	000002F2;
913	:	00000079;
914	:	00000181;
915	:	0000130D;
916	:	00000962;
917	:	00FFE2B8;
918	:	00001AA9;
919	:	00001157;
920	:	00FFEDB2;
921	:	00FFEA83;
922	:	00FFF65D;
923	:	00FFF9A9;
924	:	00FFFE95;
925	:	00000204;
926	:	00000136;
927	:	000005A2;
928	:	00FFF805;
929	:	00FFFE93;
930	:	00000419;
931	:	00000022;
932	:	00FFFC81;
933	:	00FFF7E6;
934	:	00FFFE28;
935	:	000000BD;
936	:	000005B4;
937	:	00FFFCF5;
938	:	00FFFAAF;
939	:	000007F7;
940	:	00FFFD52;
941	:	00FFFD2B;
942	:	00FFF3E2;
943	:	00FFED4F;
944	:	00FFF39B;
945	:	00FFFDD0;
946	:	00FFFDA9;
947	:	000002D5;
948	:	00001BA1;
949	:	00000B3A;
950	:	000012BE;
951	:	00002538;
952	:	000009B4;
953	:	00FFF540;
954	:	00FFF9E1;
955	:	00FFFFB8;
956	:	00FFFBC2;
957	:	00FFFF3B;
958	:	0000003C;
959	:	00000EFE;
960	:	0000149F;
961	:	00001ED8;
962	:	00002362;
963	:	0000153D;
964	:	000011C3;
965	:	00000B61;
966	:	00FFFFBD;
967	:	000004F3;
968	:	00000000;
969	:	00000000;
970	:	00000000;
971	:	00000000;
972	:	00000000;
973	:	00000000;
974	:	00000000;
975	:	00000000;
976	:	00000000;
977	:	00000000;
978	:	00000000;
979	:	00000000;
980	:	00000000;
981	:	00000000;
982	:	00000000;
983	:	00000000;
984	:	00000000;
985	:	00000000;
986	:	00000000;
987	:	00000000;
988	:	00000000;
989	:	00000000;
990	:	00000000;
991	:	00000000;
992	:	00000000;
993	:	00000000;
994	:	00000000;
995	:	00000000;
996	:	00000000;
997	:	00000000;
998	:	00000000;
999	:	00000000;
1000	:	00000000;
1001	:	00000000;
1002	:	00000000;
1003	:	00000000;
1004	:	00000000;
1005	:	00000000;
1006	:	00000000;
1007	:	00000000;
1008	:	00000000;
1009	:	00000000;
1010	:	00000000;
1011	:	00000000;
1012	:	00000000;
1013	:	00000000;
1014	:	00000000;
1015	:	00000000;
1016	:	00000000;
1017	:	00000000;
1018	:	00000000;
1019	:	00000000;
1020	:	00000000;
1021	:	00000000;
1022	:	00000000;
1023	:	00000000;
END;