WIDTH = 24;
DEPTH=1024;

ADDRESS_RADIX=UNS;
DATA_RADIX=HEX;

CONTENT BEGIN
0	:	00FFF385;
1	:	00FFF12D;
2	:	000001E3;
3	:	00FFF0EF;
4	:	00FFF4CC;
5	:	00000FDD;
6	:	00000D1D;
7	:	00FFFE03;
8	:	00001004;
9	:	00000906;
10	:	00000D53;
11	:	00FFF9CB;
12	:	00FFFD4C;
13	:	00001203;
14	:	00FFF34B;
15	:	00000EF8;
16	:	00FFFE0E;
17	:	00FFF226;
18	:	000004EA;
19	:	00FFFDBB;
20	:	00000E5B;
21	:	00001386;
22	:	000007A1;
23	:	00000F96;
24	:	000009A3;
25	:	00000681;
26	:	00FFFEFE;
27	:	000012FF;
28	:	00FFF2B7;
29	:	00FFF574;
30	:	0000106D;
31	:	00FFF4A2;
32	:	00000B53;
33	:	00FFFA49;
34	:	000001F1;
35	:	00FFED4B;
36	:	00000583;
37	:	0000097F;
38	:	00000DB8;
39	:	000004FC;
40	:	00FFFEF9;
41	:	00000371;
42	:	00FFFD60;
43	:	00FFFAB7;
44	:	00000600;
45	:	0000071D;
46	:	00FFF2C3;
47	:	00FFF105;
48	:	00FFF653;
49	:	00FFFB4B;
50	:	0000058F;
51	:	000004AE;
52	:	00FFF665;
53	:	00000C85;
54	:	000008DA;
55	:	00FFEE2A;
56	:	00FFF67F;
57	:	00001057;
58	:	00FFEE78;
59	:	00000651;
60	:	0000064D;
61	:	00FFF934;
62	:	00000BB0;
63	:	00FFFF5B;
64	:	000006B7;
65	:	000000A6;
66	:	00000173;
67	:	00000C43;
68	:	000007B9;
69	:	00000C19;
70	:	0000058B;
71	:	00000741;
72	:	0000007E;
73	:	00FFF906;
74	:	00FFEEB2;
75	:	00000272;
76	:	00FFF826;
77	:	00FFF37A;
78	:	00FFEC0F;
79	:	00FFF7D3;
80	:	00000D65;
81	:	00FFF596;
82	:	00FFF434;
83	:	00FFF3F6;
84	:	00FFF71A;
85	:	00FFED84;
86	:	00000786;
87	:	00FFEC00;
88	:	00FFF871;
89	:	00FFF80B;
90	:	00000C55;
91	:	00FFEFF6;
92	:	00001163;
93	:	00000293;
94	:	00FFEF9C;
95	:	00FFFA58;
96	:	00000C8A;
97	:	00FFF3C3;
98	:	00000946;
99	:	00FFFD90;
100	:	00000B4C;
101	:	00FFFC43;
102	:	0000079C;
103	:	00FFF857;
104	:	00FFF4AE;
105	:	000005F1;
106	:	00FFF433;
107	:	00000745;
108	:	00FFF983;
109	:	00FFF718;
110	:	00FFF1CB;
111	:	00000E5E;
112	:	000012AC;
113	:	00000405;
114	:	00FFEF3A;
115	:	00001031;
116	:	00FFFBE1;
117	:	00000434;
118	:	00000A4C;
119	:	00000902;
120	:	00FFF4F1;
121	:	000013A1;
122	:	000009BA;
123	:	00000329;
124	:	000013D1;
125	:	00FFFD82;
126	:	00FFEBFE;
127	:	00FFED6F;
128	:	00001375;
129	:	000010DE;
130	:	00000F5F;
131	:	00FFFC3A;
132	:	00FFF5C8;
133	:	00FFF99C;
134	:	000005FE;
135	:	00000B1E;
136	:	00000C53;
137	:	00FFF54E;
138	:	00000F95;
139	:	00000291;
140	:	00FFEDCC;
141	:	00000243;
142	:	00FFFA42;
143	:	000013A9;
144	:	00000DB5;
145	:	00FFF4C7;
146	:	00FFEBF9;
147	:	00FFECD4;
148	:	000002A4;
149	:	0000015B;
150	:	00FFF5F9;
151	:	00FFF25F;
152	:	00FFFA0B;
153	:	00FFF7F1;
154	:	00000BCC;
155	:	0000070F;
156	:	000000A0;
157	:	00FFEC45;
158	:	00FFF5EA;
159	:	00FFECE3;
160	:	00FFF79F;
161	:	00000E40;
162	:	00FFFB5E;
163	:	00FFECBC;
164	:	00000205;
165	:	00FFEF20;
166	:	00001023;
167	:	00001120;
168	:	00FFED92;
169	:	00000FE4;
170	:	00FFEDAF;
171	:	00FFF0AF;
172	:	00FFFD36;
173	:	00000A23;
174	:	00FFEF2A;
175	:	00FFFDFA;
176	:	00000FE1;
177	:	000008BA;
178	:	00000D7E;
179	:	00FFEFFB;
180	:	00000D47;
181	:	00FFF868;
182	:	00001049;
183	:	00FFF580;
184	:	00000595;
185	:	00FFEE8B;
186	:	000009AE;
187	:	00FFFF00;
188	:	00000E8A;
189	:	000006DB;
190	:	00FFFB09;
191	:	00FFFEB6;
192	:	00FFEDEC;
193	:	00FFECC9;
194	:	000006D2;
195	:	00FFFF39;
196	:	00000194;
197	:	000011C6;
198	:	000001D0;
199	:	00FFF9B9;
200	:	00000352;
201	:	00FFFBD5;
202	:	00000EA2;
203	:	00FFEE87;
204	:	00FFF188;
205	:	00FFECA9;
206	:	000000AB;
207	:	000001F2;
208	:	000004AD;
209	:	00000791;
210	:	00FFF3E0;
211	:	00FFEFA3;
212	:	00000D61;
213	:	000011E3;
214	:	00FFECA9;
215	:	0000087A;
216	:	00FFF554;
217	:	0000138E;
218	:	0000115D;
219	:	00FFF86C;
220	:	00FFFE74;
221	:	00FFEF7F;
222	:	00FFF3B3;
223	:	00FFF19A;
224	:	00000D16;
225	:	00FFF5D0;
226	:	00FFFCE6;
227	:	00000236;
228	:	0000025C;
229	:	00000193;
230	:	00000905;
231	:	00FFF5C6;
232	:	00000488;
233	:	00FFFF1F;
234	:	00FFECC1;
235	:	00FFF4A5;
236	:	00FFF1DA;
237	:	00FFFC30;
238	:	00000F5E;
239	:	000002B4;
240	:	000000A6;
241	:	00000948;
242	:	00000A16;
243	:	00001366;
244	:	000012CC;
245	:	00FFEE60;
246	:	0000075B;
247	:	00000D98;
248	:	00FFFFCA;
249	:	00FFEDB4;
250	:	00001295;
251	:	00FFF0B2;
252	:	00FFF296;
253	:	00001012;
254	:	00FFF4E4;
255	:	00FFF28E;
256	:	000008B2;
257	:	0000025B;
258	:	00FFF4CF;
259	:	00FFEDDA;
260	:	00FFFA17;
261	:	00001117;
262	:	00FFF3F9;
263	:	00FFF3DB;
264	:	00000ABC;
265	:	00FFEC58;
266	:	00FFFBB9;
267	:	00FFFB65;
268	:	00000716;
269	:	00000BE9;
270	:	00000C07;
271	:	00FFF72A;
272	:	00FFF900;
273	:	00FFFFA8;
274	:	00FFFAEF;
275	:	00000C8A;
276	:	000001E3;
277	:	00FFF6A3;
278	:	000010F2;
279	:	00FFF7F9;
280	:	00FFFC88;
281	:	00FFFE66;
282	:	00FFF684;
283	:	00FFF25C;
284	:	00000F91;
285	:	00000BFE;
286	:	00FFECCB;
287	:	00000E28;
288	:	0000009D;
289	:	000001C1;
290	:	00FFF788;
291	:	00000514;
292	:	00000508;
293	:	00FFF980;
294	:	00FFF427;
295	:	00FFFBF9;
296	:	00FFF69D;
297	:	00FFEEFB;
298	:	00000E95;
299	:	00000936;
300	:	00000BF4;
301	:	00FFF37A;
302	:	00001331;
303	:	00FFFD2A;
304	:	00FFEE55;
305	:	00000B01;
306	:	00000F8D;
307	:	00FFECF5;
308	:	00FFFB9F;
309	:	00FFEEED;
310	:	00001251;
311	:	00000DF6;
312	:	00FFFC6F;
313	:	00FFFDAB;
314	:	00FFF86F;
315	:	00FFFF9E;
316	:	00FFFBB2;
317	:	00FFF966;
318	:	0000019A;
319	:	0000136C;
320	:	00FFED97;
321	:	00FFFA18;
322	:	00FFFA79;
323	:	00FFF223;
324	:	00000A55;
325	:	00FFEDC0;
326	:	00FFEDD4;
327	:	00FFF700;
328	:	00000696;
329	:	00FFF9ED;
330	:	00000B7C;
331	:	00FFF88D;
332	:	000000A0;
333	:	00FFEF02;
334	:	00000AA7;
335	:	00FFFFBB;
336	:	0000067A;
337	:	00FFECDF;
338	:	00FFF221;
339	:	00FFF339;
340	:	00000B1A;
341	:	00FFFAAA;
342	:	00FFF6CF;
343	:	00FFF589;
344	:	00000E65;
345	:	00FFEC6C;
346	:	00FFF4EE;
347	:	00FFF972;
348	:	00FFF008;
349	:	000012CC;
350	:	00FFF4D5;
351	:	00000AAB;
352	:	00001265;
353	:	00FFEDA9;
354	:	000006F4;
355	:	00FFF919;
356	:	00FFFD28;
357	:	00000888;
358	:	00000E36;
359	:	00FFEE79;
360	:	00FFF829;
361	:	00FFF7D8;
362	:	00FFEEEB;
363	:	00FFF687;
364	:	00FFF7DA;
365	:	00FFF12C;
366	:	00FFF350;
367	:	00000253;
368	:	00FFFC0C;
369	:	00000C81;
370	:	0000099D;
371	:	00FFFB50;
372	:	00FFF2EA;
373	:	00FFFB5C;
374	:	00000CAC;
375	:	00FFF204;
376	:	000002EE;
377	:	00FFF2F9;
378	:	00FFFEA6;
379	:	00000736;
380	:	00FFEE16;
381	:	00FFFA25;
382	:	000011F7;
383	:	00FFEF90;
384	:	00FFF2DB;
385	:	00FFF85C;
386	:	000000D8;
387	:	00FFF2A0;
388	:	00000DBE;
389	:	00000020;
390	:	000009DC;
391	:	00FFFBD2;
392	:	00FFFD84;
393	:	00000BF0;
394	:	00FFF4C1;
395	:	00FFF639;
396	:	00FFF976;
397	:	00FFEF9A;
398	:	00000722;
399	:	00FFF70B;
400	:	00000B33;
401	:	00000988;
402	:	00000E82;
403	:	00FFF46B;
404	:	00000551;
405	:	00FFF192;
406	:	00FFEF8F;
407	:	0000073A;
408	:	00000F6F;
409	:	00FFEC46;
410	:	00000446;
411	:	00000DDE;
412	:	00FFFA8E;
413	:	00000E7A;
414	:	00FFF6CC;
415	:	00FFEC0C;
416	:	00FFFC1D;
417	:	00FFF8AD;
418	:	000013A7;
419	:	00000F96;
420	:	000001CE;
421	:	000011A8;
422	:	00FFF07B;
423	:	0000094D;
424	:	00000DD8;
425	:	00FFFDFF;
426	:	00FFF58F;
427	:	00FFFBBB;
428	:	000004B7;
429	:	00FFF2E2;
430	:	00FFFBE5;
431	:	00FFF95C;
432	:	0000046D;
433	:	00000899;
434	:	00FFF0C0;
435	:	000007C2;
436	:	00000541;
437	:	00FFF79A;
438	:	00FFEF23;
439	:	000013B6;
440	:	00FFFC27;
441	:	00FFF7A6;
442	:	00FFFFCE;
443	:	000007BF;
444	:	00FFFEF2;
445	:	00000EC4;
446	:	00001264;
447	:	00FFEE3F;
448	:	00FFED56;
449	:	00000ED3;
450	:	00FFF1A1;
451	:	00FFFE07;
452	:	00000B2A;
453	:	000005B8;
454	:	00FFFD37;
455	:	00000476;
456	:	00000C7E;
457	:	000002D5;
458	:	00000599;
459	:	00FFFD8E;
460	:	00FFFC6A;
461	:	00FFEF88;
462	:	00000644;
463	:	00FFEE5F;
464	:	00001373;
465	:	00000B07;
466	:	00FFFF6E;
467	:	0000055C;
468	:	00FFF811;
469	:	00000DAA;
470	:	00FFFC63;
471	:	00FFEDE5;
472	:	00FFF85F;
473	:	00FFF849;
474	:	00FFF3C7;
475	:	00000B3F;
476	:	00FFF1B2;
477	:	00FFEF2C;
478	:	00FFFB15;
479	:	00FFF3E9;
480	:	00FFFC2E;
481	:	00FFFA2D;
482	:	00FFED65;
483	:	0000085C;
484	:	00FFF4C9;
485	:	000002AC;
486	:	00FFF023;
487	:	000003C4;
488	:	00FFF234;
489	:	00FFFEBF;
490	:	00FFFCE7;
491	:	0000050A;
492	:	00FFEF63;
493	:	0000018D;
494	:	0000098D;
495	:	000002E9;
496	:	00FFF064;
497	:	000009C9;
498	:	00FFEEC5;
499	:	00FFF9F8;
500	:	00FFED8F;
501	:	00FFFCEC;
502	:	000012B2;
503	:	00000E43;
504	:	00000E4B;
505	:	00000290;
506	:	00FFEC88;
507	:	00FFF3FD;
508	:	00FFF78A;
509	:	0000114E;
510	:	00FFF226;
511	:	00FFFDD8;
512	:	00000DAC;
513	:	00000E81;
514	:	0000071F;
515	:	000001A6;
516	:	00FFF87D;
517	:	00000DB0;
518	:	00FFEC02;
519	:	00000E36;
520	:	00FFFDBD;
521	:	00FFFF33;
522	:	00000EFF;
523	:	000005A5;
524	:	00FFF470;
525	:	000009C0;
526	:	00FFF2F0;
527	:	000002D4;
528	:	000001CA;
529	:	00FFECAE;
530	:	00FFF598;
531	:	00000DA4;
532	:	00000BC7;
533	:	00FFFDB4;
534	:	00000914;
535	:	00FFFBED;
536	:	00FFFC46;
537	:	00FFFDB7;
538	:	00000F9B;
539	:	00FFF541;
540	:	00FFFA41;
541	:	00000466;
542	:	00FFF2BC;
543	:	00FFF4D5;
544	:	00FFEC78;
545	:	00FFEFF6;
546	:	00000EF0;
547	:	00FFF365;
548	:	00FFF2BD;
549	:	000001C8;
550	:	0000000F;
551	:	00FFF036;
552	:	00FFFC9B;
553	:	00FFECA2;
554	:	00000556;
555	:	00000CA1;
556	:	00000BA8;
557	:	00FFFA90;
558	:	00000FF3;
559	:	0000068F;
560	:	00FFFAAD;
561	:	00000C2D;
562	:	00FFFC1C;
563	:	00FFF0D0;
564	:	00FFF733;
565	:	00000ED3;
566	:	00FFF259;
567	:	000006A1;
568	:	00FFEE81;
569	:	00FFF4AD;
570	:	00FFEC93;
571	:	00000925;
572	:	00FFFDB1;
573	:	00FFFE6E;
574	:	00000AC1;
575	:	00FFF6AF;
576	:	00000F1B;
577	:	00FFF996;
578	:	00FFF677;
579	:	00FFEE52;
580	:	00000A60;
581	:	00FFF2C6;
582	:	00FFED67;
583	:	0000063F;
584	:	00FFF677;
585	:	0000069C;
586	:	00FFF0B2;
587	:	00FFF3CD;
588	:	00FFEDA9;
589	:	00FFFADE;
590	:	00FFFC64;
591	:	000011F1;
592	:	00000287;
593	:	00000C16;
594	:	00FFF478;
595	:	00FFEF07;
596	:	00FFF3E2;
597	:	00FFF84B;
598	:	00001122;
599	:	00001215;
600	:	00000D37;
601	:	00FFFE31;
602	:	00FFF463;
603	:	00001368;
604	:	0000037D;
605	:	00000624;
606	:	00FFF4EA;
607	:	00FFF877;
608	:	00000C13;
609	:	000010A2;
610	:	00FFF891;
611	:	00FFFA51;
612	:	00000AC8;
613	:	000003E3;
614	:	00000B00;
615	:	0000030A;
616	:	000000DA;
617	:	00000E1F;
618	:	00001188;
619	:	00FFF655;
620	:	00FFFFB3;
621	:	00000BDE;
622	:	00FFF819;
623	:	00FFEF52;
624	:	00FFF5E3;
625	:	00000437;
626	:	00FFF73F;
627	:	00FFF180;
628	:	00000100;
629	:	00FFF111;
630	:	00FFF3A8;
631	:	00FFF2E2;
632	:	00000C98;
633	:	00000938;
634	:	00FFEFC6;
635	:	000001D7;
636	:	00000B4F;
637	:	00FFEFBE;
638	:	00000B0E;
639	:	00FFF992;
640	:	00001325;
641	:	00000886;
642	:	00000E7A;
643	:	00FFEDE6;
644	:	00FFFFF8;
645	:	00000252;
646	:	0000017E;
647	:	00000C44;
648	:	00000AA0;
649	:	00001283;
650	:	00000843;
651	:	00FFFFFC;
652	:	00FFFE54;
653	:	00FFF8B8;
654	:	00FFFD51;
655	:	00FFFE42;
656	:	00000DC0;
657	:	00000D31;
658	:	00000F15;
659	:	00FFF641;
660	:	00001164;
661	:	00000CE6;
662	:	00FFF35A;
663	:	00FFFCCC;
664	:	00000556;
665	:	00001102;
666	:	000007C8;
667	:	00000DC0;
668	:	00FFF416;
669	:	00FFF487;
670	:	00000604;
671	:	00FFFDAF;
672	:	00FFF152;
673	:	00FFEF78;
674	:	00FFEEAC;
675	:	00000A13;
676	:	00FFF77A;
677	:	00000A09;
678	:	00FFF8A7;
679	:	00000661;
680	:	000004BF;
681	:	00FFF47D;
682	:	00000E08;
683	:	00FFF6D2;
684	:	00FFF60F;
685	:	00FFEC5A;
686	:	00FFF72B;
687	:	0000014A;
688	:	00000040;
689	:	000004B5;
690	:	00FFF58C;
691	:	00FFF596;
692	:	00000449;
693	:	00000305;
694	:	00FFFCE3;
695	:	00000F36;
696	:	00FFFE98;
697	:	0000026A;
698	:	00FFFCEC;
699	:	000006CD;
700	:	000012C1;
701	:	00000493;
702	:	00FFEF09;
703	:	00FFEE3D;
704	:	00FFF081;
705	:	00FFFB62;
706	:	00001103;
707	:	00FFF44D;
708	:	0000072A;
709	:	0000101D;
710	:	00FFF01D;
711	:	00FFFFF8;
712	:	00000127;
713	:	00FFEE97;
714	:	00FFFA94;
715	:	00000CA9;
716	:	00FFF6F5;
717	:	00000BD7;
718	:	000011FD;
719	:	00FFFD08;
720	:	00FFF1B1;
721	:	00FFFE73;
722	:	00FFF538;
723	:	00FFF7AB;
724	:	00FFF4C1;
725	:	00000393;
726	:	00FFF23D;
727	:	00000DBC;
728	:	00FFF8D6;
729	:	00FFF254;
730	:	0000045B;
731	:	00000BC5;
732	:	00FFF9AA;
733	:	00FFFAAD;
734	:	0000111A;
735	:	00FFFB2B;
736	:	00FFF23A;
737	:	00FFEEE0;
738	:	000013FF;
739	:	00000D2D;
740	:	00FFF604;
741	:	00FFF5F7;
742	:	000000B7;
743	:	00FFFC2A;
744	:	0000098C;
745	:	00000276;
746	:	00001321;
747	:	000008B8;
748	:	00FFEFDC;
749	:	00000AEF;
750	:	00000BC8;
751	:	00FFEF37;
752	:	00FFFF86;
753	:	00001236;
754	:	00FFEEC6;
755	:	00FFEC51;
756	:	00FFF9B5;
757	:	00000CC8;
758	:	00000D82;
759	:	000012C1;
760	:	00000EE8;
761	:	00FFFC14;
762	:	00FFF1D2;
763	:	00000B93;
764	:	00000BDB;
765	:	00000D5B;
766	:	00FFF69E;
767	:	00000241;
768	:	0000046A;
769	:	00FFF0CE;
770	:	00FFEC24;
771	:	000004FA;
772	:	00FFED1C;
773	:	0000024B;
774	:	000006C9;
775	:	00FFF6E0;
776	:	0000113B;
777	:	00FFEF86;
778	:	000013C1;
779	:	00000CE9;
780	:	00FFF651;
781	:	000013DB;
782	:	000007E7;
783	:	00000DF3;
784	:	00FFF7C5;
785	:	000001AD;
786	:	00FFF4AF;
787	:	00FFEC5E;
788	:	00FFEC90;
789	:	00000A2C;
790	:	00FFFB19;
791	:	00001284;
792	:	00FFEEB1;
793	:	00FFF0E3;
794	:	00FFFFCC;
795	:	000012E3;
796	:	00FFF536;
797	:	00000671;
798	:	00FFF155;
799	:	000013D0;
800	:	00FFF857;
801	:	0000041F;
802	:	00FFEDC7;
803	:	00000508;
804	:	00000610;
805	:	00FFFF7C;
806	:	000006D4;
807	:	00FFFDE8;
808	:	00001379;
809	:	00FFF1EE;
810	:	00FFF4E5;
811	:	00FFFFE9;
812	:	0000029B;
813	:	00000E9B;
814	:	00FFF096;
815	:	000004F4;
816	:	00000745;
817	:	00FFEF1F;
818	:	00001059;
819	:	00FFF0A3;
820	:	00000F0A;
821	:	00FFF0DA;
822	:	00000356;
823	:	00000226;
824	:	0000067E;
825	:	000005E0;
826	:	00FFED72;
827	:	00000EE2;
828	:	00FFFF0B;
829	:	00FFF5D8;
830	:	00001046;
831	:	000004DF;
832	:	00000070;
833	:	00001136;
834	:	00001253;
835	:	0000018E;
836	:	00FFF061;
837	:	00000D64;
838	:	0000027D;
839	:	00FFF28D;
840	:	00FFFBAB;
841	:	00FFF9A0;
842	:	00FFF814;
843	:	00FFF01D;
844	:	00FFFA7A;
845	:	00FFF9B6;
846	:	00FFFE18;
847	:	00FFF274;
848	:	00000D16;
849	:	0000016B;
850	:	00FFFCC8;
851	:	00FFFD65;
852	:	00FFF9C1;
853	:	000012ED;
854	:	00000948;
855	:	00FFF053;
856	:	00FFF8C7;
857	:	00FFEE2F;
858	:	00000B53;
859	:	00000BAB;
860	:	000000DA;
861	:	0000085D;
862	:	00FFFD3F;
863	:	00FFF2D2;
864	:	00000EDC;
865	:	000007F1;
866	:	00000E81;
867	:	00001071;
868	:	00FFFCDD;
869	:	00FFFAFF;
870	:	00000973;
871	:	00FFFB53;
872	:	000009C2;
873	:	00FFF126;
874	:	00000E9F;
875	:	00FFEC7A;
876	:	0000124E;
877	:	00001103;
878	:	00FFF340;
879	:	000010D9;
880	:	0000032F;
881	:	00FFFB75;
882	:	000011FA;
883	:	00FFF78F;
884	:	00FFF85E;
885	:	00FFFB1A;
886	:	00000174;
887	:	00000DB1;
888	:	00000343;
889	:	00FFFB06;
890	:	00000EDA;
891	:	00FFFBFF;
892	:	00FFFCA1;
893	:	00000E65;
894	:	000008AE;
895	:	00FFEC1E;
896	:	00FFECC9;
897	:	00FFF042;
898	:	0000021B;
899	:	000009ED;
900	:	00000616;
901	:	00000208;
902	:	00FFF82F;
903	:	000006C0;
904	:	0000060F;
905	:	00FFF632;
906	:	00FFECAE;
907	:	000013BF;
908	:	00FFFCD7;
909	:	00000531;
910	:	000004F5;
911	:	00001165;
912	:	0000077E;
913	:	00000618;
914	:	00FFF473;
915	:	000005D1;
916	:	00FFF3B8;
917	:	00FFFC78;
918	:	00000300;
919	:	0000016B;
920	:	000011C9;
921	:	00FFFA0F;
922	:	00000B27;
923	:	00000BB0;
924	:	00FFEDF4;
925	:	00000BCA;
926	:	00FFF155;
927	:	000007F6;
928	:	00000FF1;
929	:	000010BA;
930	:	00000FDC;
931	:	00FFFBD9;
932	:	00FFFE8B;
933	:	00000676;
934	:	00FFFAC5;
935	:	00000CD5;
936	:	00FFF447;
937	:	00001063;
938	:	00000B1E;
939	:	000006E4;
940	:	00FFEE48;
941	:	000002A8;
942	:	00FFF881;
943	:	0000057B;
944	:	00FFFD07;
945	:	00FFF2AC;
946	:	0000022F;
947	:	00000C64;
948	:	00000510;
949	:	00FFF56D;
950	:	00FFF756;
951	:	00FFEFAB;
952	:	00FFF575;
953	:	00FFFF08;
954	:	00FFF883;
955	:	00FFFB6A;
956	:	00FFFA68;
957	:	0000131D;
958	:	00000F4C;
959	:	00FFF269;
960	:	00000E52;
961	:	00FFF5FE;
962	:	00000882;
963	:	00FFF9CA;
964	:	00000C05;
965	:	00FFF33A;
966	:	0000093B;
967	:	00FFF356;
968	:	00000000;
969	:	00000000;
970	:	00000000;
971	:	00000000;
972	:	00000000;
973	:	00000000;
974	:	00000000;
975	:	00000000;
976	:	00000000;
977	:	00000000;
978	:	00000000;
979	:	00000000;
980	:	00000000;
981	:	00000000;
982	:	00000000;
983	:	00000000;
984	:	00000000;
985	:	00000000;
986	:	00000000;
987	:	00000000;
988	:	00000000;
989	:	00000000;
990	:	00000000;
991	:	00000000;
992	:	00000000;
993	:	00000000;
994	:	00000000;
995	:	00000000;
996	:	00000000;
997	:	00000000;
998	:	00000000;
999	:	00000000;
1000	:	00000000;
1001	:	00000000;
1002	:	00000000;
1003	:	00000000;
1004	:	00000000;
1005	:	00000000;
1006	:	00000000;
1007	:	00000000;
1008	:	00000000;
1009	:	00000000;
1010	:	00000000;
1011	:	00000000;
1012	:	00000000;
1013	:	00000000;
1014	:	00000000;
1015	:	00000000;
1016	:	00000000;
1017	:	00000000;
1018	:	00000000;
1019	:	00000000;
1020	:	00000000;
1021	:	00000000;
1022	:	00000000;
1023	:	00000000;
END;