WIDTH = 24;
DEPTH=1024;

ADDRESS_RADIX=UNS;
DATA_RADIX=HEX;

CONTENT BEGIN
0	:	00FFECB2;
1	:	0000046B;
2	:	00000B44;
3	:	00000717;
4	:	00FFFB39;
5	:	00FFF9CB;
6	:	00000EDB;
7	:	0000081A;
8	:	00001137;
9	:	00FFFE0B;
10	:	00FFF8F6;
11	:	000002D0;
12	:	0000068F;
13	:	0000029B;
14	:	00FFEC58;
15	:	00FFEEB8;
16	:	00000B84;
17	:	00FFF34D;
18	:	00FFF5B1;
19	:	0000000B;
20	:	000005C1;
21	:	00FFFE1F;
22	:	0000027D;
23	:	000011E8;
24	:	00000E04;
25	:	00000E15;
26	:	00FFEDFF;
27	:	00FFF055;
28	:	00000E78;
29	:	00000DF7;
30	:	000013C8;
31	:	00FFF61F;
32	:	0000092F;
33	:	000004F0;
34	:	00001351;
35	:	00FFF3FD;
36	:	00000296;
37	:	00000E02;
38	:	0000046E;
39	:	00FFF10F;
40	:	00FFFD5F;
41	:	00FFF384;
42	:	00FFEEB2;
43	:	00000150;
44	:	000003C8;
45	:	00FFED2B;
46	:	00FFFA6C;
47	:	00000D28;
48	:	00000733;
49	:	00FFF380;
50	:	00FFF9F8;
51	:	00001121;
52	:	00FFFCA2;
53	:	00FFF78F;
54	:	00FFEFFB;
55	:	00000F71;
56	:	000003D4;
57	:	00FFFD6C;
58	:	000009E8;
59	:	00FFFC16;
60	:	00FFFB62;
61	:	00FFF667;
62	:	00FFFD26;
63	:	0000018D;
64	:	00FFEE90;
65	:	000009F4;
66	:	00FFF4DB;
67	:	00001256;
68	:	000008D3;
69	:	000003FC;
70	:	00000088;
71	:	00FFEFB1;
72	:	000007CF;
73	:	00FFF0F7;
74	:	0000049A;
75	:	00001389;
76	:	00FFF9FE;
77	:	00FFEE52;
78	:	00000797;
79	:	00FFFE64;
80	:	00001106;
81	:	00FFFD24;
82	:	000009E3;
83	:	00FFFE97;
84	:	00000EDA;
85	:	00000EBD;
86	:	0000079A;
87	:	00FFFCEC;
88	:	00FFED84;
89	:	00FFF037;
90	:	00000C35;
91	:	00000978;
92	:	000002FC;
93	:	00000142;
94	:	00000647;
95	:	0000079C;
96	:	00FFFF55;
97	:	00FFEF83;
98	:	00FFF5C1;
99	:	00000EAF;
100	:	00FFFDE0;
101	:	00FFFDD2;
102	:	000001AA;
103	:	00FFFD10;
104	:	00FFF38B;
105	:	00FFFC93;
106	:	00000071;
107	:	00FFFA50;
108	:	00FFF460;
109	:	000006C9;
110	:	00FFFB55;
111	:	00000B23;
112	:	00FFEE7A;
113	:	00FFF4C1;
114	:	00FFECAC;
115	:	00FFF45A;
116	:	00FFFCD2;
117	:	000006E0;
118	:	00FFF3C2;
119	:	0000042B;
120	:	000000EB;
121	:	00FFF48A;
122	:	00000B2A;
123	:	0000069B;
124	:	000010B9;
125	:	000010F2;
126	:	00FFFD21;
127	:	00FFF9AF;
128	:	00FFF953;
129	:	000006DB;
130	:	00000D9D;
131	:	00FFFC4D;
132	:	00000814;
133	:	00FFF7DA;
134	:	00FFEF74;
135	:	00FFEDD2;
136	:	00000435;
137	:	00FFFD6C;
138	:	000000C9;
139	:	00000FCB;
140	:	00FFFC4C;
141	:	00FFF1D5;
142	:	00FFF4E9;
143	:	00FFF9FA;
144	:	00000DC4;
145	:	000009AE;
146	:	000013FE;
147	:	00FFF56A;
148	:	0000056A;
149	:	00FFF15B;
150	:	0000029E;
151	:	00000A67;
152	:	00FFF7E5;
153	:	00000348;
154	:	00FFFC52;
155	:	00000665;
156	:	00FFFDB1;
157	:	00FFFBBC;
158	:	00FFF28E;
159	:	00001331;
160	:	000009E3;
161	:	00FFF7FF;
162	:	00FFEDD6;
163	:	00000D55;
164	:	0000091F;
165	:	00FFFA82;
166	:	00000439;
167	:	00FFF0D0;
168	:	00FFF8D3;
169	:	00FFEE8F;
170	:	00FFFBFF;
171	:	00FFF9FD;
172	:	00001300;
173	:	00FFFC1C;
174	:	00FFFEA7;
175	:	00FFF8FE;
176	:	00FFED35;
177	:	00FFFA19;
178	:	00FFF166;
179	:	00000B70;
180	:	00000128;
181	:	00000786;
182	:	00000077;
183	:	00001326;
184	:	00FFEFF3;
185	:	00FFF3DB;
186	:	000006EC;
187	:	00FFF8DE;
188	:	00FFFE56;
189	:	00FFF967;
190	:	00FFFB73;
191	:	00000E77;
192	:	00000334;
193	:	00FFFD29;
194	:	000001B8;
195	:	000002DF;
196	:	00FFEDAC;
197	:	0000066A;
198	:	00000F90;
199	:	000005DD;
200	:	00000BA4;
201	:	00000C67;
202	:	0000039B;
203	:	00FFF167;
204	:	00FFED32;
205	:	00FFF159;
206	:	00FFF0D1;
207	:	00FFF3E7;
208	:	00FFEDF3;
209	:	00000996;
210	:	00000662;
211	:	00FFEE7D;
212	:	00FFF5DE;
213	:	00FFEDC1;
214	:	00FFEF06;
215	:	00000FD3;
216	:	00000949;
217	:	00FFF1AB;
218	:	00FFF7AB;
219	:	00FFFFE2;
220	:	00000F99;
221	:	00FFF2B3;
222	:	0000002A;
223	:	00000EDC;
224	:	00FFFE72;
225	:	00FFFF7C;
226	:	00000C89;
227	:	000010D0;
228	:	00000B4C;
229	:	00000184;
230	:	000001F6;
231	:	00FFFF71;
232	:	00FFFB03;
233	:	00000E65;
234	:	00FFFC43;
235	:	0000046B;
236	:	00FFF2DE;
237	:	00FFEE42;
238	:	00000C4D;
239	:	00000434;
240	:	00000991;
241	:	00FFEF7C;
242	:	0000092A;
243	:	00FFF0FC;
244	:	000000FA;
245	:	000010FD;
246	:	00000F34;
247	:	000010E7;
248	:	00FFF11B;
249	:	000005FF;
250	:	00000DFE;
251	:	00000800;
252	:	00FFFA50;
253	:	000005EF;
254	:	0000079D;
255	:	000000A7;
256	:	00001061;
257	:	00FFFE52;
258	:	00FFF9F9;
259	:	0000039F;
260	:	00FFFA1F;
261	:	00FFFA31;
262	:	00FFED40;
263	:	000012B0;
264	:	00FFF5C7;
265	:	0000019A;
266	:	0000127D;
267	:	00000BCF;
268	:	00FFFA0E;
269	:	00000997;
270	:	0000138D;
271	:	00FFF4D5;
272	:	0000124F;
273	:	00FFFB7D;
274	:	00FFEEDA;
275	:	000012C3;
276	:	00FFFCC9;
277	:	00FFFBB8;
278	:	00FFFF09;
279	:	0000038D;
280	:	00FFFD9C;
281	:	000007F6;
282	:	00FFFA28;
283	:	00FFFA7D;
284	:	00000915;
285	:	00FFEE72;
286	:	00000141;
287	:	00FFFDC0;
288	:	0000103A;
289	:	000002B2;
290	:	00000DBF;
291	:	00FFEF42;
292	:	00FFF21E;
293	:	0000029C;
294	:	00FFFF2C;
295	:	00000FAF;
296	:	00000F46;
297	:	000008C2;
298	:	00000602;
299	:	00FFF8F9;
300	:	00FFFBD3;
301	:	00FFFC3E;
302	:	00FFF66C;
303	:	000000F0;
304	:	00FFFE94;
305	:	00FFFA57;
306	:	00000B1E;
307	:	0000056A;
308	:	00FFFAC8;
309	:	00000462;
310	:	00FFF634;
311	:	00FFEE30;
312	:	00FFFEA7;
313	:	00FFEF82;
314	:	00FFFE4E;
315	:	00FFECC6;
316	:	00FFEC50;
317	:	000001A2;
318	:	00FFECF5;
319	:	00FFFB79;
320	:	000003DB;
321	:	0000128C;
322	:	000002BB;
323	:	0000038E;
324	:	000010C1;
325	:	00000FC4;
326	:	00FFF44B;
327	:	000005C0;
328	:	00000FD2;
329	:	00FFF3B5;
330	:	00001275;
331	:	00FFF37D;
332	:	00000833;
333	:	00FFED66;
334	:	000009C9;
335	:	00FFF334;
336	:	00000529;
337	:	00FFF979;
338	:	00000197;
339	:	00000D9C;
340	:	00FFF837;
341	:	00FFEF31;
342	:	00FFF6DA;
343	:	00FFFBF1;
344	:	00000371;
345	:	00FFF2E2;
346	:	00FFECB9;
347	:	00000520;
348	:	00000917;
349	:	00FFF07D;
350	:	00FFEF50;
351	:	000009BE;
352	:	00FFF2C1;
353	:	000008BB;
354	:	00000D04;
355	:	00000936;
356	:	00FFF8B0;
357	:	00FFF4DC;
358	:	0000038F;
359	:	00FFEE19;
360	:	00000260;
361	:	00000864;
362	:	00FFF1C8;
363	:	00FFF95F;
364	:	00000E1F;
365	:	00FFF20B;
366	:	00000F21;
367	:	00FFF2CD;
368	:	00FFEDBD;
369	:	00FFF108;
370	:	00000FE1;
371	:	00FFF1D3;
372	:	00000CE7;
373	:	00000581;
374	:	000003DC;
375	:	00FFF75B;
376	:	00000CCC;
377	:	00FFF27E;
378	:	000009E2;
379	:	00FFF872;
380	:	00FFF8E9;
381	:	00000275;
382	:	00000011;
383	:	00FFF679;
384	:	00000B95;
385	:	00FFFC85;
386	:	00FFF371;
387	:	0000033D;
388	:	00FFFEC0;
389	:	00FFF25D;
390	:	00FFFE58;
391	:	00FFEC23;
392	:	00000D78;
393	:	00FFFE49;
394	:	000004E1;
395	:	000008E7;
396	:	00FFFC1E;
397	:	00001072;
398	:	000012EE;
399	:	00000AC5;
400	:	00FFF3AE;
401	:	00000663;
402	:	00FFF05E;
403	:	00000942;
404	:	00FFEED0;
405	:	00FFF401;
406	:	00FFF576;
407	:	00FFF2BB;
408	:	00FFFAF9;
409	:	00FFFB4E;
410	:	00000880;
411	:	00FFFB22;
412	:	0000008B;
413	:	00000162;
414	:	00FFF808;
415	:	00FFFD2E;
416	:	000000AB;
417	:	00FFF739;
418	:	00FFF7F3;
419	:	0000024B;
420	:	0000139B;
421	:	000011AB;
422	:	00000C9E;
423	:	00FFEECA;
424	:	00FFFB57;
425	:	00FFEE0A;
426	:	00000D1C;
427	:	00FFED24;
428	:	000010B1;
429	:	00FFF2D0;
430	:	00FFF566;
431	:	00FFF101;
432	:	00FFF579;
433	:	00000812;
434	:	00FFEC4D;
435	:	00FFF9DF;
436	:	00FFF93A;
437	:	000011E1;
438	:	00FFF352;
439	:	00FFEF8E;
440	:	000004EA;
441	:	0000042C;
442	:	0000015D;
443	:	00000563;
444	:	00000843;
445	:	00FFFC39;
446	:	00FFFF03;
447	:	00000ECC;
448	:	000007D5;
449	:	0000101C;
450	:	00FFF32C;
451	:	00000992;
452	:	00FFED40;
453	:	00FFEEDD;
454	:	00000508;
455	:	000008CC;
456	:	00FFF974;
457	:	00FFEC00;
458	:	00FFEC57;
459	:	00FFFEB2;
460	:	00FFFAC5;
461	:	00000E27;
462	:	000007AD;
463	:	0000092A;
464	:	00000D20;
465	:	00000BFF;
466	:	00000EF8;
467	:	00FFF1EE;
468	:	00FFF1A1;
469	:	000012DD;
470	:	00FFF928;
471	:	00FFFCFA;
472	:	00FFFB65;
473	:	00FFFA92;
474	:	00000E69;
475	:	00FFF34E;
476	:	00FFFAA5;
477	:	00000D1F;
478	:	00FFFE1B;
479	:	0000048E;
480	:	0000090E;
481	:	00FFF592;
482	:	00FFFF48;
483	:	000005AA;
484	:	00FFF9DA;
485	:	000011E8;
486	:	00001087;
487	:	00FFF35F;
488	:	00FFFC36;
489	:	00FFF880;
490	:	00000037;
491	:	00000FBF;
492	:	00FFF321;
493	:	00FFFC7D;
494	:	00FFF673;
495	:	00FFF0F1;
496	:	000000D1;
497	:	000012AB;
498	:	00FFED5D;
499	:	00000BD0;
500	:	00FFF7CF;
501	:	00FFFF40;
502	:	000003C0;
503	:	00FFF4F3;
504	:	00000E3B;
505	:	0000091B;
506	:	00FFF9FB;
507	:	0000086F;
508	:	00FFEC1F;
509	:	00FFF1B0;
510	:	000013ED;
511	:	00FFEFBD;
512	:	00FFEF78;
513	:	00FFF4AB;
514	:	000006E0;
515	:	00000F59;
516	:	00FFF535;
517	:	00FFF7BD;
518	:	00000483;
519	:	00FFF107;
520	:	000004AB;
521	:	00FFF00C;
522	:	00000ECB;
523	:	00FFF95D;
524	:	00FFFD2F;
525	:	00FFF260;
526	:	00FFFD86;
527	:	000003CB;
528	:	00FFFE0C;
529	:	000004B6;
530	:	00FFF591;
531	:	00FFF0EA;
532	:	00FFFCBB;
533	:	000008BD;
534	:	00FFF8C1;
535	:	000006FC;
536	:	000004D4;
537	:	00FFF458;
538	:	00FFFFE9;
539	:	00FFF57E;
540	:	00FFF732;
541	:	00000783;
542	:	00000E57;
543	:	00000C3D;
544	:	00FFF1FC;
545	:	00000D24;
546	:	00000BE6;
547	:	000005F2;
548	:	000009C1;
549	:	00FFF56A;
550	:	00000A00;
551	:	00FFF9CA;
552	:	00FFEE90;
553	:	0000103B;
554	:	000006A5;
555	:	000005D6;
556	:	000004C9;
557	:	00FFF028;
558	:	00FFFE5E;
559	:	00FFF81F;
560	:	00FFFC9E;
561	:	00000A2D;
562	:	0000121C;
563	:	00FFEE60;
564	:	00FFFA31;
565	:	00000764;
566	:	00FFEFBB;
567	:	00FFF1C9;
568	:	00000593;
569	:	00000E73;
570	:	00FFFBDD;
571	:	000012B3;
572	:	00FFFBF0;
573	:	00000D2F;
574	:	00FFF064;
575	:	00FFF873;
576	:	00FFFE8D;
577	:	000013DD;
578	:	00FFFB34;
579	:	00FFFAB7;
580	:	00000562;
581	:	00FFF864;
582	:	000001E2;
583	:	000012FB;
584	:	00FFFB81;
585	:	00FFFA67;
586	:	00FFF1B3;
587	:	00FFF80B;
588	:	00FFF038;
589	:	00000D7B;
590	:	000003DA;
591	:	00FFFA96;
592	:	00000E20;
593	:	00000109;
594	:	0000078E;
595	:	00FFF657;
596	:	00000AE3;
597	:	00FFFED1;
598	:	00000162;
599	:	00000810;
600	:	00000303;
601	:	00FFF971;
602	:	00FFF990;
603	:	00FFECD6;
604	:	00001325;
605	:	00FFEE6F;
606	:	00000FEE;
607	:	0000070E;
608	:	00000FEE;
609	:	00FFFDF1;
610	:	00FFF441;
611	:	00FFFFF8;
612	:	00FFFEFB;
613	:	0000091D;
614	:	0000018B;
615	:	000003F6;
616	:	00FFFD8A;
617	:	00FFF44A;
618	:	00000D72;
619	:	0000066C;
620	:	000013EE;
621	:	00FFF4AD;
622	:	00FFF338;
623	:	00FFFE35;
624	:	00FFF956;
625	:	00FFFC66;
626	:	00000DBC;
627	:	00FFF1D7;
628	:	00000B9F;
629	:	00FFFF19;
630	:	00FFF468;
631	:	00FFF8FB;
632	:	000011E8;
633	:	00FFF4D2;
634	:	00001080;
635	:	000003AF;
636	:	00FFEDC8;
637	:	00000B81;
638	:	00FFFDBC;
639	:	00FFF974;
640	:	00FFF1A1;
641	:	00FFF26C;
642	:	0000136C;
643	:	00FFF888;
644	:	00FFFD4F;
645	:	000007D7;
646	:	0000052B;
647	:	00000B3B;
648	:	00000D06;
649	:	000013ED;
650	:	0000087C;
651	:	00FFFF35;
652	:	00FFF3FB;
653	:	000011B9;
654	:	00000C0E;
655	:	000002AB;
656	:	00FFFD62;
657	:	000008D4;
658	:	00FFFDA7;
659	:	00FFEE11;
660	:	0000099B;
661	:	00FFF260;
662	:	0000067B;
663	:	00FFF239;
664	:	00FFFF67;
665	:	00000AB5;
666	:	00FFF8E0;
667	:	00FFFA26;
668	:	000002B7;
669	:	00FFF5B1;
670	:	0000119C;
671	:	00FFFC52;
672	:	00FFF60D;
673	:	00FFF7A1;
674	:	00000CAC;
675	:	0000029C;
676	:	00FFFB1D;
677	:	00FFF4EB;
678	:	00FFF7D9;
679	:	00FFF842;
680	:	00001031;
681	:	00FFF947;
682	:	00000F28;
683	:	00FFEDBB;
684	:	00000B19;
685	:	00FFF704;
686	:	00FFEECA;
687	:	0000057A;
688	:	0000077B;
689	:	00FFFDE1;
690	:	00FFF803;
691	:	000013C5;
692	:	00001043;
693	:	00FFF462;
694	:	0000026D;
695	:	00FFF525;
696	:	00FFF0B6;
697	:	00FFF6A4;
698	:	00FFFC20;
699	:	00FFF5CB;
700	:	00FFFB8E;
701	:	00FFEF39;
702	:	00FFEDE4;
703	:	00FFF3E7;
704	:	00FFF732;
705	:	00FFF1CF;
706	:	00FFF879;
707	:	000009CF;
708	:	00000847;
709	:	00FFEF8E;
710	:	00FFEC5A;
711	:	000003E1;
712	:	000003DC;
713	:	00FFF27C;
714	:	000012C5;
715	:	000010D8;
716	:	00FFEC95;
717	:	00FFFE18;
718	:	0000050B;
719	:	00000305;
720	:	00FFF66E;
721	:	000008D1;
722	:	00FFF142;
723	:	00FFEF26;
724	:	00FFF256;
725	:	00FFFC35;
726	:	00FFFD63;
727	:	00001366;
728	:	00FFECB6;
729	:	0000103E;
730	:	00000B70;
731	:	00000955;
732	:	00000D34;
733	:	0000102E;
734	:	000012B2;
735	:	00FFED55;
736	:	00FFF445;
737	:	0000031A;
738	:	00FFFEF8;
739	:	00FFFF91;
740	:	00FFFB86;
741	:	00FFEFDD;
742	:	00000FC4;
743	:	00FFF334;
744	:	0000018C;
745	:	000012AF;
746	:	00FFEF39;
747	:	000002BE;
748	:	00FFFD9F;
749	:	00000706;
750	:	00FFF5D9;
751	:	00FFF87B;
752	:	00000005;
753	:	00000DC4;
754	:	0000054F;
755	:	00FFFD91;
756	:	0000044F;
757	:	00FFED45;
758	:	00000B25;
759	:	00FFF98D;
760	:	00000A41;
761	:	00FFF4C6;
762	:	00FFFFD2;
763	:	00001332;
764	:	00000C8F;
765	:	00FFFE9A;
766	:	00FFFED4;
767	:	00000B7F;
768	:	00FFF18E;
769	:	00FFF45D;
770	:	0000048B;
771	:	000003AF;
772	:	00000B13;
773	:	00000120;
774	:	00FFFCDC;
775	:	00000F20;
776	:	00FFFD2A;
777	:	00FFEC09;
778	:	00000A87;
779	:	00FFF188;
780	:	00000DBF;
781	:	00FFF098;
782	:	000001CC;
783	:	00FFF8F0;
784	:	000009CB;
785	:	000000B8;
786	:	00FFFACD;
787	:	000007D5;
788	:	00000648;
789	:	00000A28;
790	:	00000A6D;
791	:	00FFF1E1;
792	:	00FFF220;
793	:	00FFF07A;
794	:	00FFFA7F;
795	:	00FFFB8F;
796	:	00FFF63E;
797	:	00FFEEAE;
798	:	00000045;
799	:	000012EC;
800	:	00FFF1EC;
801	:	00FFEEA2;
802	:	000012CD;
803	:	00000373;
804	:	00FFF8E8;
805	:	00FFF4D5;
806	:	0000030C;
807	:	00FFFD69;
808	:	00000DB4;
809	:	00FFF91F;
810	:	00000812;
811	:	00000253;
812	:	00FFF2F1;
813	:	0000131F;
814	:	0000005D;
815	:	0000010B;
816	:	0000105D;
817	:	00FFFACE;
818	:	00FFF7C4;
819	:	00FFF2DA;
820	:	00FFEDE7;
821	:	00FFFCEF;
822	:	00000486;
823	:	00000504;
824	:	00FFEC77;
825	:	000011A1;
826	:	00000C22;
827	:	00FFF299;
828	:	00FFF1E7;
829	:	00FFEE57;
830	:	00FFF853;
831	:	00FFF80A;
832	:	00FFEF76;
833	:	00000158;
834	:	00000260;
835	:	00000B75;
836	:	00FFFFF8;
837	:	00FFED5E;
838	:	000005CB;
839	:	0000064C;
840	:	00000AFC;
841	:	00FFF854;
842	:	00FFEF62;
843	:	00000C3F;
844	:	00FFEDCB;
845	:	00FFF7D4;
846	:	000008ED;
847	:	00FFECEC;
848	:	000010FF;
849	:	00000423;
850	:	00FFF4B5;
851	:	000000C3;
852	:	00000B43;
853	:	000009B0;
854	:	00FFF608;
855	:	000012CC;
856	:	00FFF454;
857	:	000002C4;
858	:	00001281;
859	:	00000E29;
860	:	00FFFF5F;
861	:	00FFF950;
862	:	00FFFE6D;
863	:	00FFFBCB;
864	:	00000BB4;
865	:	00FFF869;
866	:	00FFFAB4;
867	:	00001059;
868	:	00000F6E;
869	:	00FFEF66;
870	:	00000D34;
871	:	00FFF8EC;
872	:	0000117B;
873	:	00FFF4FC;
874	:	000011B9;
875	:	000009B7;
876	:	00FFFCC6;
877	:	000001EA;
878	:	000008BA;
879	:	00001144;
880	:	00FFF641;
881	:	00000B5F;
882	:	00000B6A;
883	:	000005AE;
884	:	0000105C;
885	:	00FFF1AA;
886	:	000002E5;
887	:	00FFFC78;
888	:	00FFEFAD;
889	:	00FFFC91;
890	:	00000B84;
891	:	00FFED07;
892	:	00FFF871;
893	:	00000FEF;
894	:	00001230;
895	:	0000049B;
896	:	00000CBD;
897	:	00FFFD1D;
898	:	00FFF4D5;
899	:	000004EE;
900	:	00FFFA1F;
901	:	00000C13;
902	:	00FFF9D5;
903	:	00FFF437;
904	:	00FFF64C;
905	:	00FFFCA2;
906	:	00000102;
907	:	00FFFAFB;
908	:	00000DC1;
909	:	00FFF40F;
910	:	00FFFD2D;
911	:	000003B8;
912	:	00FFF67E;
913	:	00001268;
914	:	00000F5D;
915	:	000005F2;
916	:	00FFEC90;
917	:	000002E9;
918	:	00FFF224;
919	:	00000949;
920	:	00FFF93E;
921	:	00000AC1;
922	:	00FFFE6A;
923	:	00FFEF0D;
924	:	0000021E;
925	:	00001379;
926	:	00FFF2CB;
927	:	000002E6;
928	:	00001188;
929	:	00000A6D;
930	:	00FFF9A9;
931	:	00FFF996;
932	:	00000382;
933	:	000012BE;
934	:	00FFF7F0;
935	:	00FFFE1A;
936	:	000007AB;
937	:	00000CBC;
938	:	0000111F;
939	:	00000B75;
940	:	00FFFD7A;
941	:	00FFF397;
942	:	00000D12;
943	:	00FFEF57;
944	:	00FFF2B8;
945	:	00FFFF97;
946	:	00FFF682;
947	:	00FFF493;
948	:	00000D07;
949	:	00FFF36D;
950	:	00FFFBC8;
951	:	000009A5;
952	:	000010A5;
953	:	00000B73;
954	:	00FFF460;
955	:	00000419;
956	:	00FFF469;
957	:	00000448;
958	:	00000B2E;
959	:	00000F19;
960	:	00FFF029;
961	:	000002BF;
962	:	00000A87;
963	:	0000107A;
964	:	00000F65;
965	:	00FFFF36;
966	:	00000AC5;
967	:	00FFFE15;
968	:	00000000;
969	:	00000000;
970	:	00000000;
971	:	00000000;
972	:	00000000;
973	:	00000000;
974	:	00000000;
975	:	00000000;
976	:	00000000;
977	:	00000000;
978	:	00000000;
979	:	00000000;
980	:	00000000;
981	:	00000000;
982	:	00000000;
983	:	00000000;
984	:	00000000;
985	:	00000000;
986	:	00000000;
987	:	00000000;
988	:	00000000;
989	:	00000000;
990	:	00000000;
991	:	00000000;
992	:	00000000;
993	:	00000000;
994	:	00000000;
995	:	00000000;
996	:	00000000;
997	:	00000000;
998	:	00000000;
999	:	00000000;
1000	:	00000000;
1001	:	00000000;
1002	:	00000000;
1003	:	00000000;
1004	:	00000000;
1005	:	00000000;
1006	:	00000000;
1007	:	00000000;
1008	:	00000000;
1009	:	00000000;
1010	:	00000000;
1011	:	00000000;
1012	:	00000000;
1013	:	00000000;
1014	:	00000000;
1015	:	00000000;
1016	:	00000000;
1017	:	00000000;
1018	:	00000000;
1019	:	00000000;
1020	:	00000000;
1021	:	00000000;
1022	:	00000000;
1023	:	00000000;
END;