WIDTH = 24;
DEPTH=1024;

ADDRESS_RADIX=UNS;
DATA_RADIX=HEX;

CONTENT BEGIN
0	:	00FFFC9E;
1	:	00000257;
2	:	00FFFF5A;
3	:	00000077;
4	:	0000011E;
5	:	0000004C;
6	:	00FFDB4B;
7	:	000014BC;
8	:	000012B7;
9	:	00FFEF35;
10	:	0000020C;
11	:	00FFFBA8;
12	:	00FFFE7A;
13	:	00FFFA50;
14	:	00FFF3F3;
15	:	00FFF48B;
16	:	0000091E;
17	:	00000017;
18	:	00001134;
19	:	000032DF;
20	:	00001A75;
21	:	000011C9;
22	:	00FFFC0A;
23	:	00FFFB0C;
24	:	00FFEEB6;
25	:	00FFEC38;
26	:	000004FA;
27	:	00001558;
28	:	00002B2D;
29	:	00001C23;
30	:	00001692;
31	:	000024FC;
32	:	0000042B;
33	:	00FFFF70;
34	:	00FFFC5D;
35	:	00FFDD38;
36	:	00FFE05F;
37	:	00FFEBF2;
38	:	00001946;
39	:	00002D00;
40	:	00002721;
41	:	00001DC2;
42	:	0000201F;
43	:	00FFFD4D;
44	:	00000195;
45	:	00FFF121;
46	:	00FFD3B3;
47	:	00FFC7F9;
48	:	00FFD442;
49	:	00000D75;
50	:	00000C82;
51	:	000027ED;
52	:	000009E4;
53	:	00001D49;
54	:	00FFFC37;
55	:	000000F0;
56	:	00FFE9FF;
57	:	00FFCC35;
58	:	00FFD14D;
59	:	00FFE422;
60	:	00000A73;
61	:	00FFE1BB;
62	:	00001514;
63	:	00FFF1B6;
64	:	00000537;
65	:	00FFF781;
66	:	00FFFFC6;
67	:	00FFEB3D;
68	:	00FFDDBE;
69	:	00FFD652;
70	:	0000030A;
71	:	00000BB2;
72	:	00FFEEDB;
73	:	00FFD869;
74	:	00FFCD2E;
75	:	00FFC921;
76	:	00FFD98B;
77	:	00FFFCF8;
78	:	00000016;
79	:	00FFF16E;
80	:	00FFFBE3;
81	:	0000132F;
82	:	00FFFCF1;
83	:	00FFC097;
84	:	00FFDE10;
85	:	00FFDB65;
86	:	00FFE87F;
87	:	00FFCDE7;
88	:	00FFFF2E;
89	:	00000579;
90	:	00000435;
91	:	000007FD;
92	:	00FFF439;
93	:	00FFC75F;
94	:	00FFCEFE;
95	:	000002B7;
96	:	00FFF55C;
97	:	00FFE908;
98	:	00FFE555;
99	:	0000010B;
100	:	00FFFF87;
101	:	00000791;
102	:	000000C5;
103	:	00FFD78F;
104	:	00FFC03A;
105	:	00FFC327;
106	:	000006D8;
107	:	0000036C;
108	:	00FFE97C;
109	:	000001D9;
110	:	00FFFD91;
111	:	00FFFB57;
112	:	000000C0;
113	:	00FFE501;
114	:	00FFD2D0;
115	:	00FFCC96;
116	:	00FFDD30;
117	:	00FFF359;
118	:	000009D4;
119	:	00FFEB71;
120	:	00FFFCE0;
121	:	00FFFEB2;
122	:	00FFF9A4;
123	:	00FFFEA0;
124	:	000002D3;
125	:	00001515;
126	:	000012BB;
127	:	00000946;
128	:	00FFFC09;
129	:	00FFF78D;
130	:	00FFFD91;
131	:	0000014B;
132	:	00000271;
133	:	00001513;
134	:	00003034;
135	:	00004302;
136	:	0000280D;
137	:	00002563;
138	:	00002CAC;
139	:	00000FD7;
140	:	00FFFD37;
141	:	00FFF76E;
142	:	00FFFF2C;
143	:	000019BE;
144	:	0000278B;
145	:	000026F4;
146	:	00004044;
147	:	000024C7;
148	:	00003F7B;
149	:	00001EC7;
150	:	00FFFEC1;
151	:	00FFE490;
152	:	00FFF49F;
153	:	00FFFA38;
154	:	000002FE;
155	:	00000DB9;
156	:	000028FC;
157	:	00005432;
158	:	00002A0D;
159	:	00002647;
160	:	0000113B;
161	:	00FFFF3C;
162	:	00FFE556;
163	:	00FFF635;
164	:	00FFF8A0;
165	:	00001CE4;
166	:	00001130;
167	:	0000187A;
168	:	0000318C;
169	:	00002185;
170	:	000019CC;
171	:	00000204;
172	:	000006C1;
173	:	00FFE50F;
174	:	00FFF874;
175	:	00FFF89B;
176	:	00000CEF;
177	:	00003127;
178	:	00001912;
179	:	000001F9;
180	:	00FFF08A;
181	:	00FFEAAC;
182	:	00FFDA5A;
183	:	00FFE327;
184	:	00FFF58B;
185	:	00FFFFDD;
186	:	00000105;
187	:	00FFECC6;
188	:	00000280;
189	:	00FFCE58;
190	:	00FFC52D;
191	:	00FFF130;
192	:	00FFE9B8;
193	:	00FFF089;
194	:	000009CA;
195	:	00002477;
196	:	000039B8;
197	:	00001604;
198	:	00FFE72B;
199	:	00FFE1C2;
200	:	00FFDF14;
201	:	00FFE16C;
202	:	00FFF7E3;
203	:	00001750;
204	:	00001D6C;
205	:	000037FE;
206	:	00005105;
207	:	000049F5;
208	:	00002DC0;
209	:	00FFF5E8;
210	:	00FFE1C9;
211	:	00FFEF40;
212	:	00FFEF4B;
213	:	000006CF;
214	:	00000AE4;
215	:	0000133C;
216	:	00003CE7;
217	:	00003A83;
218	:	00003D13;
219	:	00001C16;
220	:	00000136;
221	:	00FFFD02;
222	:	00FFFDE3;
223	:	0000177A;
224	:	00FFFB1B;
225	:	00FFFF57;
226	:	00001C0E;
227	:	00004811;
228	:	000036FC;
229	:	00002486;
230	:	00000DDD;
231	:	00FFFE4F;
232	:	00FFF8BC;
233	:	00FFFF0B;
234	:	00FFEF53;
235	:	00FFFC74;
236	:	00FFE93F;
237	:	00001C2E;
238	:	00003847;
239	:	000036C1;
240	:	00001C00;
241	:	00000DBA;
242	:	00FFFE41;
243	:	00000699;
244	:	0000061D;
245	:	0000052F;
246	:	00FFFAEF;
247	:	00FFF4FE;
248	:	00FFE3C1;
249	:	00FFE022;
250	:	00FFF563;
251	:	00FFF4D2;
252	:	00FFFE9D;
253	:	00FFFD93;
254	:	00000882;
255	:	0000137B;
256	:	00001343;
257	:	00FFFBB2;
258	:	00000518;
259	:	00FFE898;
260	:	00FFD6B9;
261	:	00FFDBDA;
262	:	00FFDC91;
263	:	00FFF210;
264	:	000000AD;
265	:	00000D10;
266	:	000022A9;
267	:	00000C82;
268	:	0000158B;
269	:	00002E03;
270	:	00FFFA98;
271	:	00FFF169;
272	:	00FFAE4E;
273	:	00FFC617;
274	:	00FFD5A3;
275	:	000007F8;
276	:	00000F4A;
277	:	0000048B;
278	:	000009BD;
279	:	00001CC7;
280	:	0000148C;
281	:	00000120;
282	:	00FFF1B4;
283	:	000001FD;
284	:	00FFFDDB;
285	:	00FFF757;
286	:	00FFFF0D;
287	:	00000EA9;
288	:	0000061C;
289	:	0000106C;
290	:	00FFFB20;
291	:	00FFFC38;
292	:	00FFF33F;
293	:	00000F68;
294	:	000026D8;
295	:	00001FD8;
296	:	0000080D;
297	:	00000095;
298	:	00FFFD1E;
299	:	00FFEC32;
300	:	00FFDED8;
301	:	00FFF8E8;
302	:	00000018;
303	:	000000E5;
304	:	00002997;
305	:	00002B33;
306	:	000000F6;
307	:	00003B21;
308	:	00FFF735;
309	:	0000016D;
310	:	000019BC;
311	:	000010C1;
312	:	000025E3;
313	:	00002BF8;
314	:	00004424;
315	:	00002196;
316	:	00FFFB76;
317	:	000012B0;
318	:	000046C9;
319	:	0000000D;
320	:	0000078D;
321	:	00000D61;
322	:	00000C0D;
323	:	000037C0;
324	:	00001960;
325	:	00002AAB;
326	:	000002A7;
327	:	00000BA5;
328	:	00001263;
329	:	00001D1E;
330	:	00000B9D;
331	:	00000F8D;
332	:	000008BC;
333	:	000010FA;
334	:	00FFEC21;
335	:	00FFED19;
336	:	00000B29;
337	:	00FFF2A9;
338	:	00FFEC01;
339	:	00000161;
340	:	00FFFF84;
341	:	00001412;
342	:	0000134E;
343	:	00FFFC5F;
344	:	00FFEED7;
345	:	00FFEE02;
346	:	00FFF2AB;
347	:	00001712;
348	:	00000F4D;
349	:	00FFFECD;
350	:	0000003A;
351	:	00FFFDA6;
352	:	000002C8;
353	:	00FFF22C;
354	:	00FFE6AA;
355	:	00FFCBE2;
356	:	00FFB0F8;
357	:	00FFCD4C;
358	:	00FFE136;
359	:	00FFDC33;
360	:	00FFEBD8;
361	:	00FFF2DF;
362	:	00FFFE44;
363	:	00FFFD91;
364	:	00000006;
365	:	00000A79;
366	:	00001470;
367	:	00001552;
368	:	00001E47;
369	:	00001C75;
370	:	00000976;
371	:	00FFFF68;
372	:	00000169;
373	:	00FFFDAE;
374	:	00FFFC60;
375	:	00FFF6E3;
376	:	00000756;
377	:	00000954;
378	:	00001918;
379	:	00001272;
380	:	00004446;
381	:	00003758;
382	:	00001760;
383	:	00FFFC9A;
384	:	00FFFAA7;
385	:	0000011B;
386	:	0000026E;
387	:	00FFFBF6;
388	:	00FFF37A;
389	:	00FFFFC5;
390	:	00FFEEE5;
391	:	00001F76;
392	:	00001649;
393	:	000004BB;
394	:	00FFF0F3;
395	:	00FFF83F;
396	:	00FFFA55;
397	:	00FFEA57;
398	:	0000048C;
399	:	00000EF9;
400	:	00FFE2B0;
401	:	00FFF18A;
402	:	00FFE142;
403	:	00FFFAB1;
404	:	00FFF601;
405	:	00FFF564;
406	:	00FFF884;
407	:	00FFFC8D;
408	:	000004DF;
409	:	00000067;
410	:	00FFF204;
411	:	00FFE767;
412	:	00FFD84F;
413	:	00FFCD55;
414	:	00FFE3B0;
415	:	00FFE6D7;
416	:	00FFFB6B;
417	:	000005D4;
418	:	00FFF74E;
419	:	0000007B;
420	:	000029E5;
421	:	00003661;
422	:	000022CA;
423	:	00001297;
424	:	00FFD798;
425	:	00FFDB3F;
426	:	00FFF2EC;
427	:	00000256;
428	:	00000814;
429	:	00FFFFBF;
430	:	00002A4C;
431	:	00003EA6;
432	:	00003C6C;
433	:	0000446F;
434	:	00FFFFBD;
435	:	00FFFDFD;
436	:	00FFFAB7;
437	:	0000111B;
438	:	000012F8;
439	:	000017EF;
440	:	00FFFD64;
441	:	000007B4;
442	:	000023C6;
443	:	00004590;
444	:	000027DE;
445	:	00001CE6;
446	:	00FFFCAE;
447	:	00000DA8;
448	:	00001B84;
449	:	00001BB8;
450	:	00001719;
451	:	00000FE6;
452	:	0000098F;
453	:	00FFFFE2;
454	:	000000B3;
455	:	00001E9A;
456	:	00002AAB;
457	:	00000E02;
458	:	000025D9;
459	:	00001AA2;
460	:	000004DF;
461	:	00000678;
462	:	00000209;
463	:	00FFF903;
464	:	00FFE3B9;
465	:	00FFE85D;
466	:	00FFEF4C;
467	:	00000031;
468	:	00001B9C;
469	:	0000171D;
470	:	00001C3C;
471	:	00000BEA;
472	:	000003EB;
473	:	00FFF8A9;
474	:	00FFE9E8;
475	:	00FFF9EE;
476	:	00000BF1;
477	:	00FFFF6B;
478	:	0000108B;
479	:	000004E5;
480	:	00FFFEDF;
481	:	00FFFE12;
482	:	00FFFC37;
483	:	000000A4;
484	:	00FFFF9F;
485	:	00FFFF23;
486	:	0000029F;
487	:	000002DD;
488	:	00FFFAA2;
489	:	00000290;
490	:	000001A0;
491	:	00FFFE0C;
492	:	00000D72;
493	:	00FFFBB6;
494	:	00FFFFC1;
495	:	000001F6;
496	:	00FFFF49;
497	:	00FFFD3D;
498	:	00FFF39A;
499	:	00000015;
500	:	00FFF399;
501	:	00FFF3C0;
502	:	00FFF535;
503	:	000007AC;
504	:	0000045D;
505	:	0000019C;
506	:	000000BF;
507	:	0000046D;
508	:	00FFFA38;
509	:	00FFE099;
510	:	00FFF741;
511	:	00FFF7C2;
512	:	00FFE1E7;
513	:	00FFDF9C;
514	:	00FFE632;
515	:	00FFF4F7;
516	:	000009B1;
517	:	00000301;
518	:	00FFFC8A;
519	:	00FFF57C;
520	:	00FFE132;
521	:	00FFF19E;
522	:	00FFE76E;
523	:	00FFC720;
524	:	00FFE524;
525	:	00FFEFA9;
526	:	00000171;
527	:	00FFFC82;
528	:	000003E0;
529	:	00FFFF98;
530	:	00FFEB9E;
531	:	00FFC383;
532	:	00FFD063;
533	:	00FFD68D;
534	:	00FFE332;
535	:	00FFF39A;
536	:	00FFF16B;
537	:	00000762;
538	:	00FFF534;
539	:	00FFFDFB;
540	:	00FFFE76;
541	:	00FFE7B2;
542	:	00FFC588;
543	:	00FFE5D0;
544	:	00FFF06D;
545	:	00FFF564;
546	:	00FFE9BA;
547	:	000001C6;
548	:	00000D06;
549	:	00FFF243;
550	:	000001A7;
551	:	00FFFE21;
552	:	00FFEC2B;
553	:	00FFD9BE;
554	:	00FFEA89;
555	:	00FFFA96;
556	:	00001F13;
557	:	0000095A;
558	:	000012F5;
559	:	00001E7A;
560	:	00000619;
561	:	000001AA;
562	:	00000304;
563	:	00FFF002;
564	:	00FFF02B;
565	:	00000FA7;
566	:	000027CA;
567	:	000059FF;
568	:	00003D6E;
569	:	00003363;
570	:	00001C7B;
571	:	00000467;
572	:	0000027A;
573	:	00000301;
574	:	00000890;
575	:	00FFF2A8;
576	:	00001CBB;
577	:	00002A41;
578	:	00004324;
579	:	00003B8B;
580	:	0000171F;
581	:	00000637;
582	:	00000050;
583	:	00FFFB19;
584	:	00FFFF3D;
585	:	00FFFE53;
586	:	00FFF6C4;
587	:	0000040A;
588	:	00001423;
589	:	0000117C;
590	:	00000E2B;
591	:	00FFFAAB;
592	:	00FFFC3F;
593	:	00FFFDDA;
594	:	00000251;
595	:	00FFFA14;
596	:	00FFFC77;
597	:	00FFFC92;
598	:	00FFFCBD;
599	:	00FFF624;
600	:	00FFF897;
601	:	00FFF621;
602	:	00FFFE20;
603	:	00FFFD09;
604	:	00FFFCCF;
605	:	00FFFE0C;
606	:	00FFF2C7;
607	:	00FFF62F;
608	:	000004C2;
609	:	00001A07;
610	:	00002AE8;
611	:	00003757;
612	:	0000236B;
613	:	000025F8;
614	:	000014E8;
615	:	00000548;
616	:	00000164;
617	:	00FFF2A3;
618	:	00FFDF62;
619	:	00FFFB19;
620	:	00000772;
621	:	00003696;
622	:	000038B9;
623	:	00001053;
624	:	000000EC;
625	:	00FFF81A;
626	:	00FFFC7F;
627	:	00FFF931;
628	:	00FFF72A;
629	:	00FFE22F;
630	:	0000031B;
631	:	000009A7;
632	:	00000B43;
633	:	00002875;
634	:	0000285D;
635	:	00000CD9;
636	:	00FFFE90;
637	:	00FFE810;
638	:	00FFF9EA;
639	:	000001DE;
640	:	00FFE729;
641	:	00FFE970;
642	:	00FFF4C1;
643	:	00FFFF19;
644	:	00000D3E;
645	:	00FFFFFA;
646	:	00FFEEEF;
647	:	00000A65;
648	:	00FFF46D;
649	:	00FFFF39;
650	:	00FFFDAD;
651	:	00FFF517;
652	:	00FFF290;
653	:	00FFFEF8;
654	:	00FFF060;
655	:	00FFE63D;
656	:	00FFD9BE;
657	:	00FFD393;
658	:	00FFDB75;
659	:	00FFEE2E;
660	:	00FFFBBA;
661	:	00FFF79F;
662	:	00FFD3C8;
663	:	00FFD701;
664	:	0000045A;
665	:	000033F4;
666	:	00001368;
667	:	00FFC4D8;
668	:	00FFEEB0;
669	:	00FFED32;
670	:	00FFDF1B;
671	:	00FFFEE2;
672	:	00FFE1D8;
673	:	00FFD032;
674	:	00FFDDC8;
675	:	00000DD5;
676	:	00001168;
677	:	00FFF9AC;
678	:	00FFF6F0;
679	:	00FFEB72;
680	:	00000DBB;
681	:	0000008E;
682	:	00FFF6BA;
683	:	00FFEBC9;
684	:	00FFDC2E;
685	:	00FFE3FC;
686	:	00000E47;
687	:	00FFFE47;
688	:	00003289;
689	:	00003C2D;
690	:	00FFF994;
691	:	00FFFF34;
692	:	000004F2;
693	:	00FFF938;
694	:	00FFE7FF;
695	:	00FFF98F;
696	:	00FFFF83;
697	:	00FFF9EE;
698	:	00FFFA42;
699	:	000026FD;
700	:	00003C61;
701	:	000021DE;
702	:	00000602;
703	:	000001BF;
704	:	00000020;
705	:	00FFFB1C;
706	:	00FFF3E0;
707	:	00FFFBF7;
708	:	000002AF;
709	:	00001A1D;
710	:	00002620;
711	:	00003316;
712	:	00000F02;
713	:	00000D6E;
714	:	0000023F;
715	:	00FFFCAF;
716	:	000002ED;
717	:	000002CF;
718	:	00FFFEAB;
719	:	00FFFF6E;
720	:	00000ACC;
721	:	00001386;
722	:	00000DC5;
723	:	00000499;
724	:	00FFFC1E;
725	:	00FFFF4F;
726	:	00FFFC62;
727	:	0000013D;
728	:	00FFFF3F;
729	:	00000234;
730	:	00000493;
731	:	00FFFC43;
732	:	00FFF7C7;
733	:	00000171;
734	:	0000012F;
735	:	000001B2;
736	:	00FFFACE;
737	:	00FFFEFF;
738	:	00FFFBB8;
739	:	00FFF9AA;
740	:	00FFFD12;
741	:	0000093B;
742	:	00FFFE2B;
743	:	00FFF9D7;
744	:	00FFF3BE;
745	:	00FFF9AE;
746	:	00FFFC2B;
747	:	00FFFB80;
748	:	000002D7;
749	:	00FFF9F5;
750	:	00FFE5EA;
751	:	0000033A;
752	:	0000060E;
753	:	00FFDD27;
754	:	00FFEF5B;
755	:	00FFF6C5;
756	:	00FFF955;
757	:	00000066;
758	:	000001B7;
759	:	0000041C;
760	:	00FFE7D1;
761	:	00FFE5AE;
762	:	00FFFE91;
763	:	00FFEF2C;
764	:	00FFE0DC;
765	:	00FFDEB7;
766	:	00FFDDDB;
767	:	00FFF3EC;
768	:	00000289;
769	:	000002D3;
770	:	00FFFE5A;
771	:	00FFF624;
772	:	00FFDD0B;
773	:	00FFEB80;
774	:	00FFE698;
775	:	00FFD74E;
776	:	00FFD681;
777	:	00FFE076;
778	:	00FFF42C;
779	:	00FFFAE9;
780	:	00FFF987;
781	:	00FFFEE5;
782	:	00FFF2F1;
783	:	00FFE38A;
784	:	00FFDB8B;
785	:	00FFDE23;
786	:	00FFDB10;
787	:	00FFF68D;
788	:	00FFF7D6;
789	:	000003C0;
790	:	00FFF51D;
791	:	000000B4;
792	:	00000057;
793	:	0000086B;
794	:	00000E2F;
795	:	00000699;
796	:	00000CAC;
797	:	00FFF9CA;
798	:	00FFF89A;
799	:	000000B1;
800	:	00FFFF85;
801	:	00FFFF7E;
802	:	00FFFB35;
803	:	00FFFD58;
804	:	00002323;
805	:	00002013;
806	:	00002BA2;
807	:	00001CD1;
808	:	00000878;
809	:	0000119E;
810	:	00FFF35D;
811	:	00000122;
812	:	00FFFCA5;
813	:	00FFFAD1;
814	:	000004F0;
815	:	00001FCB;
816	:	000019DE;
817	:	00001BFB;
818	:	000027A2;
819	:	0000028D;
820	:	00FFF656;
821	:	00FFF7BB;
822	:	00FFF9E4;
823	:	00FFF850;
824	:	00FFFCFB;
825	:	00FFFE73;
826	:	00001152;
827	:	0000176D;
828	:	00000DA1;
829	:	00001806;
830	:	00FFFDA4;
831	:	00FFF717;
832	:	00FFE563;
833	:	00FFF121;
834	:	00000223;
835	:	00FFFF05;
836	:	0000021E;
837	:	00FFFF38;
838	:	00FFFCDC;
839	:	00FFF561;
840	:	00FFFEA8;
841	:	00FFFDF5;
842	:	00FFFC03;
843	:	00FFFF3F;
844	:	0000013E;
845	:	00FFFB2C;
846	:	00FFFDBB;
847	:	00FFFC01;
848	:	00FFFFBA;
849	:	00FFFB44;
850	:	00FFFCBE;
851	:	00000471;
852	:	00FFFECC;
853	:	000002CE;
854	:	00FFFF3E;
855	:	00FFFE61;
856	:	0000004D;
857	:	00FFFDEC;
858	:	00000242;
859	:	00FFFDCC;
860	:	00000499;
861	:	000005B3;
862	:	000012D3;
863	:	00000AFB;
864	:	000008A2;
865	:	00FFFC75;
866	:	00FFFED4;
867	:	00FFFD51;
868	:	00FFFCE1;
869	:	000000F2;
870	:	00000548;
871	:	000000DB;
872	:	000005F0;
873	:	000026AD;
874	:	000008B2;
875	:	00FFF626;
876	:	0000031E;
877	:	00FFF815;
878	:	00FFF824;
879	:	000001AF;
880	:	00000127;
881	:	00000647;
882	:	00001E91;
883	:	00FFF16F;
884	:	00000381;
885	:	0000080F;
886	:	000002A9;
887	:	00000CB2;
888	:	00FFF54A;
889	:	00FFF2D8;
890	:	00FFFE8C;
891	:	00000001;
892	:	0000047B;
893	:	00001AF1;
894	:	00000F24;
895	:	000009A7;
896	:	00FFFDAE;
897	:	00FFD71D;
898	:	00FFF5DD;
899	:	00FFEFDC;
900	:	00FFF272;
901	:	00FFFB6C;
902	:	0000001A;
903	:	000003BD;
904	:	00000743;
905	:	00000D6E;
906	:	00FFFF03;
907	:	00FFDD89;
908	:	00FFC763;
909	:	00FFEC33;
910	:	0000099C;
911	:	00000D07;
912	:	00FFFF07;
913	:	00FFFC14;
914	:	00FFF792;
915	:	00000456;
916	:	000021CE;
917	:	0000171F;
918	:	00FFDA6C;
919	:	00FFE9A4;
920	:	00000736;
921	:	00001CB5;
922	:	0000134E;
923	:	000001C3;
924	:	0000026D;
925	:	00FFF624;
926	:	00001C3C;
927	:	00002B3A;
928	:	00002F95;
929	:	00FFFFA3;
930	:	00FFFA49;
931	:	00001154;
932	:	00002B65;
933	:	00001018;
934	:	00000B8B;
935	:	00000144;
936	:	00001010;
937	:	00001CA3;
938	:	00002AEE;
939	:	00002001;
940	:	00002ABC;
941	:	000022E5;
942	:	00002034;
943	:	0000198D;
944	:	00000824;
945	:	00000704;
946	:	000007BC;
947	:	00001331;
948	:	0000009C;
949	:	000014FC;
950	:	000011C6;
951	:	000009B6;
952	:	00000750;
953	:	00000621;
954	:	000003F5;
955	:	00FFFBCF;
956	:	00000B87;
957	:	00FFFEDD;
958	:	000005C0;
959	:	00FFF9CA;
960	:	00FFF5D8;
961	:	00000382;
962	:	00FFFAAA;
963	:	00001109;
964	:	0000018D;
965	:	000005DE;
966	:	000003E4;
967	:	00FFFFE0;
968	:	00000000;
969	:	00000000;
970	:	00000000;
971	:	00000000;
972	:	00000000;
973	:	00000000;
974	:	00000000;
975	:	00000000;
976	:	00000000;
977	:	00000000;
978	:	00000000;
979	:	00000000;
980	:	00000000;
981	:	00000000;
982	:	00000000;
983	:	00000000;
984	:	00000000;
985	:	00000000;
986	:	00000000;
987	:	00000000;
988	:	00000000;
989	:	00000000;
990	:	00000000;
991	:	00000000;
992	:	00000000;
993	:	00000000;
994	:	00000000;
995	:	00000000;
996	:	00000000;
997	:	00000000;
998	:	00000000;
999	:	00000000;
1000	:	00000000;
1001	:	00000000;
1002	:	00000000;
1003	:	00000000;
1004	:	00000000;
1005	:	00000000;
1006	:	00000000;
1007	:	00000000;
1008	:	00000000;
1009	:	00000000;
1010	:	00000000;
1011	:	00000000;
1012	:	00000000;
1013	:	00000000;
1014	:	00000000;
1015	:	00000000;
1016	:	00000000;
1017	:	00000000;
1018	:	00000000;
1019	:	00000000;
1020	:	00000000;
1021	:	00000000;
1022	:	00000000;
1023	:	00000000;
END;