WIDTH = 24;
DEPTH=1024;

ADDRESS_RADIX=UNS;
DATA_RADIX=HEX;

CONTENT BEGIN
0	:	000000FC;
1	:	0000069E;
2	:	0000163E;
3	:	00003265;
4	:	000033F2;
5	:	00003592;
6	:	00002EFB;
7	:	00002206;
8	:	00001009;
9	:	00000AAB;
10	:	00001009;
11	:	00FFFF14;
12	:	00000E42;
13	:	00001D6E;
14	:	0000342E;
15	:	00002AFA;
16	:	00000D5E;
17	:	0000112D;
18	:	00FFED98;
19	:	00FFD96A;
20	:	00FFFECE;
21	:	00FFFCEA;
22	:	00FFFBE9;
23	:	00001548;
24	:	00001795;
25	:	00003D67;
26	:	0000231B;
27	:	000005E2;
28	:	00FFFC38;
29	:	00FFCB9B;
30	:	00FFBE0C;
31	:	00FFE17A;
32	:	00FFD91F;
33	:	0000015C;
34	:	000016A4;
35	:	000020ED;
36	:	000028DE;
37	:	0000097E;
38	:	00FFFA04;
39	:	00FFD9C2;
40	:	00FFB4B9;
41	:	00FFB425;
42	:	00FFC8FE;
43	:	00FFD081;
44	:	000001AA;
45	:	00000F58;
46	:	00003624;
47	:	00002163;
48	:	000016AB;
49	:	00FFF770;
50	:	00FFBE97;
51	:	00FFBFB3;
52	:	00FFD568;
53	:	00FFF304;
54	:	0000086E;
55	:	00FFFF9E;
56	:	0000044A;
57	:	00003327;
58	:	000013EE;
59	:	000010E3;
60	:	00FFE7FA;
61	:	00FFE194;
62	:	00FFF04D;
63	:	00FFF5A7;
64	:	00002577;
65	:	00001703;
66	:	00FFFFB6;
67	:	00FFF5AF;
68	:	0000259C;
69	:	000008AE;
70	:	00000494;
71	:	00FFF4CE;
72	:	00FFF8CC;
73	:	00001385;
74	:	0000191D;
75	:	00FFF8F7;
76	:	000002D1;
77	:	00FFFCDB;
78	:	00FFFB55;
79	:	000015BC;
80	:	00FFFF1A;
81	:	0000075F;
82	:	00FFFAC3;
83	:	00FFF87E;
84	:	00001D67;
85	:	00000364;
86	:	00FFEC14;
87	:	00FFFCC7;
88	:	00000159;
89	:	00FFFACB;
90	:	00FFF9CC;
91	:	00000835;
92	:	000005DA;
93	:	00FFED9A;
94	:	00FFEB21;
95	:	00000E31;
96	:	00FFFEEE;
97	:	00FFFB1D;
98	:	00FFF3BE;
99	:	000002B3;
100	:	000003AF;
101	:	00FFFE66;
102	:	00FFFAFB;
103	:	00FFF650;
104	:	00FFE3A6;
105	:	00FFE7B6;
106	:	00FFF0CB;
107	:	00FFE8BA;
108	:	00FFF8B1;
109	:	00FFF8D6;
110	:	000003B2;
111	:	0000002A;
112	:	00FFFA7A;
113	:	00FFFEBC;
114	:	00FFFCD8;
115	:	00FFFBF0;
116	:	00FFFBA3;
117	:	00FFEF19;
118	:	00FFF5B5;
119	:	00FFF718;
120	:	00FFFD31;
121	:	00000478;
122	:	00FFFBDA;
123	:	00FFFA54;
124	:	00FFFCC6;
125	:	00FFFD9C;
126	:	00FFFDC8;
127	:	00000036;
128	:	000000C2;
129	:	0000017A;
130	:	00000A1A;
131	:	000001B2;
132	:	00000249;
133	:	00FFFA82;
134	:	00FFF082;
135	:	00FFEAC7;
136	:	00FFE6BC;
137	:	00FFE4C0;
138	:	00FFE530;
139	:	00FFFC1C;
140	:	00FFFF38;
141	:	00FFFF55;
142	:	00FFF93A;
143	:	000001F5;
144	:	00FFEF7F;
145	:	00FFE6A4;
146	:	00FFE497;
147	:	00FFE337;
148	:	00FFE5B2;
149	:	00FFE7B6;
150	:	00FFFE99;
151	:	00001429;
152	:	00001116;
153	:	00000BA2;
154	:	00FFF3B5;
155	:	00FFEA9C;
156	:	00FFDC15;
157	:	00FFDBED;
158	:	00FFDDC4;
159	:	00FFE8B9;
160	:	00FFED54;
161	:	00001727;
162	:	00002C3E;
163	:	00000EA3;
164	:	00FFFB4D;
165	:	00FFEEBD;
166	:	00FFD7F9;
167	:	00FFD070;
168	:	00FFCA9C;
169	:	00FFD30B;
170	:	00FFDCB5;
171	:	00FFF20B;
172	:	00000494;
173	:	00001044;
174	:	00FFEAB8;
175	:	00FFEF15;
176	:	00FFF02D;
177	:	00FFD355;
178	:	00FFCD1F;
179	:	00FFC88C;
180	:	00FFC515;
181	:	00FFEF71;
182	:	00000D8D;
183	:	00000060;
184	:	000005AC;
185	:	00FFF8F9;
186	:	00FFF4B6;
187	:	00FFFE41;
188	:	00FFE87E;
189	:	00FFC248;
190	:	00FFA61A;
191	:	00FFD87F;
192	:	000000FD;
193	:	00001269;
194	:	0000052C;
195	:	0000033B;
196	:	00000015;
197	:	000000AC;
198	:	00000865;
199	:	00FFFA33;
200	:	00FFD57D;
201	:	00FFCAB6;
202	:	00FFEDC3;
203	:	0000074C;
204	:	00001B31;
205	:	000001C1;
206	:	00FFF052;
207	:	00FFFC12;
208	:	00FFFCC7;
209	:	00FFF35F;
210	:	00FFF44F;
211	:	000000FE;
212	:	00001AFA;
213	:	0000064E;
214	:	000010B7;
215	:	000013E7;
216	:	0000038B;
217	:	00FFF281;
218	:	00FFFE23;
219	:	00FFFD64;
220	:	00FFEF38;
221	:	00FFF12B;
222	:	0000001D;
223	:	00001806;
224	:	00004662;
225	:	00004005;
226	:	00002837;
227	:	000018E1;
228	:	00FFFDDD;
229	:	00000084;
230	:	000005C5;
231	:	00FFE906;
232	:	00FFD72C;
233	:	00FFFCA3;
234	:	00002016;
235	:	00002D42;
236	:	00002825;
237	:	00FFFEA1;
238	:	00FFFFD9;
239	:	00FFF48B;
240	:	00FFEB55;
241	:	00FFF5ED;
242	:	00FFFACA;
243	:	00FFFA84;
244	:	00000661;
245	:	000011E3;
246	:	00001937;
247	:	00002D1C;
248	:	00003070;
249	:	0000254E;
250	:	00002AD4;
251	:	0000223B;
252	:	00001154;
253	:	000001E9;
254	:	000002F8;
255	:	0000096C;
256	:	00000F38;
257	:	00001EAD;
258	:	000025C8;
259	:	00003858;
260	:	00001A22;
261	:	000017BE;
262	:	000014F8;
263	:	00000DA0;
264	:	0000024A;
265	:	00FFFDED;
266	:	00000D8B;
267	:	00001F2B;
268	:	00001BBE;
269	:	00001518;
270	:	00003904;
271	:	0000126E;
272	:	00000036;
273	:	00000486;
274	:	00FFEBF3;
275	:	00FFFC95;
276	:	00000297;
277	:	00000CDA;
278	:	00002AF7;
279	:	00000418;
280	:	0000115B;
281	:	0000285D;
282	:	000007A1;
283	:	000001DD;
284	:	00FFE6E9;
285	:	00FFD190;
286	:	00FFFCD8;
287	:	00FFFA8A;
288	:	00000D73;
289	:	00000575;
290	:	00FFF2F8;
291	:	00FFFA56;
292	:	00001B1C;
293	:	00FFFDEE;
294	:	00FFE8B6;
295	:	00FFCAC4;
296	:	00FFD0E2;
297	:	00FFF96C;
298	:	000000D7;
299	:	000011FE;
300	:	00FFEEF3;
301	:	00FFE6E1;
302	:	00FFF39E;
303	:	00FFF362;
304	:	00FFF434;
305	:	00FFDA7B;
306	:	00FFE1E1;
307	:	00FFF390;
308	:	00FFF824;
309	:	00FFFCB4;
310	:	00000120;
311	:	000001B1;
312	:	00FFED4D;
313	:	00FFF1AF;
314	:	0000023F;
315	:	00FFF959;
316	:	00FFF50C;
317	:	00FFFD73;
318	:	0000081F;
319	:	00FFFC50;
320	:	00FFF82B;
321	:	00FFF733;
322	:	00FFFE19;
323	:	00FFEF65;
324	:	00FFEF4D;
325	:	00FFF5FB;
326	:	0000235D;
327	:	00001F75;
328	:	0000155B;
329	:	00000729;
330	:	00FFFE9E;
331	:	00FFEF1E;
332	:	00FFF243;
333	:	00FFF889;
334	:	0000005E;
335	:	00FFFF90;
336	:	00000B18;
337	:	00000B1E;
338	:	00FFFC08;
339	:	00FFF473;
340	:	00FFF3DF;
341	:	00FFF832;
342	:	00FFF379;
343	:	00FFF9E4;
344	:	000001D4;
345	:	00FFE5DE;
346	:	00FFFED9;
347	:	00FFFAA8;
348	:	000005E4;
349	:	00FFF7A9;
350	:	000008E1;
351	:	00000648;
352	:	00FFFD78;
353	:	00FFF647;
354	:	00FFFBAF;
355	:	00FFEC94;
356	:	00FFE38D;
357	:	00FFE3A1;
358	:	00FFEB27;
359	:	00000BE6;
360	:	000016C3;
361	:	000007E0;
362	:	00FFF800;
363	:	00000211;
364	:	00000221;
365	:	00000234;
366	:	00FFFA0A;
367	:	00FFF818;
368	:	00FFF21A;
369	:	0000016E;
370	:	00FFF3DF;
371	:	00FFFEE9;
372	:	0000031E;
373	:	00000260;
374	:	00FFFF5D;
375	:	0000052C;
376	:	00FFFA51;
377	:	00FFE54C;
378	:	00FFBB91;
379	:	00FFDEDE;
380	:	00FFFC5D;
381	:	00001BFD;
382	:	000020D6;
383	:	00000C80;
384	:	00000908;
385	:	00FFFFE7;
386	:	00FFFA51;
387	:	00FFE32B;
388	:	00FFB3F1;
389	:	00FFBA56;
390	:	00FFD4D9;
391	:	00FFE393;
392	:	00FFEA31;
393	:	000001F9;
394	:	00FFFD45;
395	:	00000DD1;
396	:	00FFFDCF;
397	:	00FFEEF4;
398	:	00FFDCA9;
399	:	00FFCEEA;
400	:	00FFCBD0;
401	:	00FFC96F;
402	:	00FFED5B;
403	:	00001C0A;
404	:	000023F1;
405	:	00FFFA4A;
406	:	00FFFCA3;
407	:	0000000D;
408	:	00FFF50B;
409	:	00FFFAFC;
410	:	00FFF27D;
411	:	00FFE918;
412	:	00FFFC2B;
413	:	000005C9;
414	:	0000304E;
415	:	00003851;
416	:	00000873;
417	:	00FFFE86;
418	:	0000018B;
419	:	00000012;
420	:	000006EB;
421	:	000016C6;
422	:	000006F0;
423	:	00001454;
424	:	00002863;
425	:	00002810;
426	:	00002BEE;
427	:	00001412;
428	:	00FFFC9D;
429	:	00FFFBCF;
430	:	00FFFC8B;
431	:	00000554;
432	:	00001233;
433	:	00000395;
434	:	0000080B;
435	:	00003036;
436	:	00002E2E;
437	:	00001F4E;
438	:	0000082F;
439	:	00FFF7A7;
440	:	00FFF944;
441	:	00FFFE62;
442	:	00000876;
443	:	00FFFBCA;
444	:	00000287;
445	:	00000B97;
446	:	000007AF;
447	:	00FFED21;
448	:	00FFF62A;
449	:	00FFFB67;
450	:	00FFFEEE;
451	:	00FFFDF9;
452	:	00FFF64C;
453	:	00FFEE5B;
454	:	00FFF959;
455	:	00FFFEA3;
456	:	00FFFD51;
457	:	00FFEE73;
458	:	0000009C;
459	:	00FFECAA;
460	:	00FFFFA5;
461	:	00FFFEE7;
462	:	00000065;
463	:	000000B2;
464	:	00FFFEC2;
465	:	00FFF796;
466	:	00FFEDCD;
467	:	00FFF9B3;
468	:	000004CF;
469	:	00FFF6F8;
470	:	00FFFB9B;
471	:	00FFFF7A;
472	:	00FFFFF4;
473	:	00FFFF95;
474	:	00FFFE23;
475	:	00FFFDBF;
476	:	00FFF8B1;
477	:	00FFFD4E;
478	:	00FFF263;
479	:	00FFF803;
480	:	00000330;
481	:	00FFFE45;
482	:	00FFFC19;
483	:	00000140;
484	:	000000C5;
485	:	00FFFD57;
486	:	00000286;
487	:	0000064F;
488	:	0000094F;
489	:	00FFFE1A;
490	:	00FFFEE4;
491	:	00FFFA46;
492	:	00000416;
493	:	00000424;
494	:	00000269;
495	:	00FFFC1C;
496	:	000000D0;
497	:	00FFFFD9;
498	:	000009D2;
499	:	00000903;
500	:	00000E2B;
501	:	00FFF2E0;
502	:	00FFF6B3;
503	:	00FFF45E;
504	:	00000025;
505	:	00FFFED6;
506	:	00000262;
507	:	00FFFBAB;
508	:	00FFFE48;
509	:	00000CA6;
510	:	00000E59;
511	:	00000D92;
512	:	00FFEC70;
513	:	000006A8;
514	:	00FFEF4E;
515	:	00FFF1A3;
516	:	00FFFBC9;
517	:	00FFFCB2;
518	:	00FFFEB9;
519	:	0000064A;
520	:	00001020;
521	:	00000FD7;
522	:	000013E8;
523	:	0000226B;
524	:	00FFFA4F;
525	:	00FFDAC7;
526	:	00FFD5A4;
527	:	00FFED36;
528	:	00000050;
529	:	0000003A;
530	:	00000567;
531	:	00000BA9;
532	:	00001EAF;
533	:	00002A03;
534	:	00001B66;
535	:	00FFEC61;
536	:	00FFD96F;
537	:	00FFDB1C;
538	:	00FFEFB5;
539	:	000000EA;
540	:	00FFFCE2;
541	:	0000059C;
542	:	00001AD1;
543	:	000010E5;
544	:	0000392A;
545	:	00001844;
546	:	00FFFD9E;
547	:	00FFEB07;
548	:	00FFE862;
549	:	00FFF6C3;
550	:	00FFFF31;
551	:	000003E9;
552	:	00000D8F;
553	:	000029D0;
554	:	00001B9D;
555	:	00002434;
556	:	00002E51;
557	:	0000139A;
558	:	00FFF550;
559	:	00FFFA8C;
560	:	000004D1;
561	:	0000023F;
562	:	00FFFF36;
563	:	0000120D;
564	:	00000FE6;
565	:	00FFF4F8;
566	:	00002504;
567	:	00001409;
568	:	00000FE5;
569	:	0000038F;
570	:	00FFF395;
571	:	00FFF5CE;
572	:	0000044F;
573	:	00000139;
574	:	00FFF75F;
575	:	00FFFDE3;
576	:	00001C84;
577	:	00001149;
578	:	00001808;
579	:	00000EF7;
580	:	00FFF29E;
581	:	00FFEE35;
582	:	00FFF9BC;
583	:	00FFFED9;
584	:	00FFFCDA;
585	:	00FFFDE1;
586	:	00FFF90D;
587	:	00FFFC0E;
588	:	00FFFF6F;
589	:	00FFFBDD;
590	:	00FFFE12;
591	:	00FFFD60;
592	:	00000259;
593	:	00FFFD79;
594	:	000002CB;
595	:	00FFFD84;
596	:	000002F1;
597	:	00FFFE2D;
598	:	0000031D;
599	:	00FFFE1E;
600	:	00000363;
601	:	00FFFC7F;
602	:	00FFFB3A;
603	:	000005B8;
604	:	000001B6;
605	:	00000347;
606	:	00FFFEDF;
607	:	00FFFF33;
608	:	00FFED7B;
609	:	00FFD335;
610	:	00FFF009;
611	:	00FFE3DC;
612	:	00FFF3BA;
613	:	00001469;
614	:	00000462;
615	:	000001B1;
616	:	00FFFDEC;
617	:	00FFF833;
618	:	00FFF737;
619	:	00FFE495;
620	:	00FFD22F;
621	:	00FFCE39;
622	:	00FFE5B4;
623	:	00FFF8C3;
624	:	00000980;
625	:	00000589;
626	:	00FFFC5F;
627	:	00FFFDD6;
628	:	00FFFD3C;
629	:	00FFFC2D;
630	:	00FFEAB6;
631	:	00FFD63E;
632	:	00FFCFCF;
633	:	00FFDCDF;
634	:	00FFF14A;
635	:	00FFFA1E;
636	:	00FFF46B;
637	:	00FFF765;
638	:	00FFFA9D;
639	:	000001D0;
640	:	00FFF685;
641	:	00FFF7C4;
642	:	00FFCEB6;
643	:	00FFD2FE;
644	:	00FFEF73;
645	:	00000BFC;
646	:	00000981;
647	:	00001D59;
648	:	00001759;
649	:	00FFFF85;
650	:	00FFFFD2;
651	:	00FFF31F;
652	:	00FFF2CC;
653	:	00FFEC6E;
654	:	00FFF8D9;
655	:	0000043D;
656	:	00002CC6;
657	:	000016FE;
658	:	00001E73;
659	:	000019E1;
660	:	00FFFD93;
661	:	0000025C;
662	:	00000B6F;
663	:	00001805;
664	:	0000156A;
665	:	00000697;
666	:	00001036;
667	:	00002132;
668	:	000020DA;
669	:	000017DA;
670	:	00001142;
671	:	00FFFC2C;
672	:	00FFFC33;
673	:	00001C91;
674	:	00001D4A;
675	:	000002D9;
676	:	0000202D;
677	:	00000E80;
678	:	00002AC1;
679	:	00000EA8;
680	:	00001014;
681	:	00000DB1;
682	:	00FFFD0A;
683	:	00FFEE10;
684	:	000007A6;
685	:	00FFF16F;
686	:	00FFF00A;
687	:	00000D14;
688	:	00000A73;
689	:	0000135A;
690	:	00000965;
691	:	0000044F;
692	:	00FFF6DB;
693	:	00000480;
694	:	00FFF9AF;
695	:	00FFFE91;
696	:	00FFEDF0;
697	:	00FFFCD8;
698	:	00001990;
699	:	000002E2;
700	:	00FFF10A;
701	:	00000057;
702	:	0000002C;
703	:	00FFF67D;
704	:	00FFFE4A;
705	:	00000461;
706	:	00FFFAFE;
707	:	00FFF735;
708	:	00FFFCD7;
709	:	00002162;
710	:	00000482;
711	:	00FFEFCC;
712	:	00FFFA81;
713	:	00FFFEDE;
714	:	00FFFD80;
715	:	00FFFCD1;
716	:	00FFFE9A;
717	:	000000FD;
718	:	0000019E;
719	:	000000FC;
720	:	00FFFFB3;
721	:	00FFFF32;
722	:	000005B5;
723	:	00000392;
724	:	00FFFF8D;
725	:	00FFFD72;
726	:	0000021A;
727	:	00FFFE7C;
728	:	000003C9;
729	:	00000342;
730	:	000004CA;
731	:	0000027F;
732	:	00FFFC85;
733	:	00000155;
734	:	0000019C;
735	:	0000014B;
736	:	00FFFF90;
737	:	00FFFE1D;
738	:	00FFFE36;
739	:	00000842;
740	:	00000527;
741	:	0000176B;
742	:	00001AB0;
743	:	00000404;
744	:	00000276;
745	:	00000A25;
746	:	00000171;
747	:	0000025B;
748	:	00FFFC1A;
749	:	0000006E;
750	:	0000155D;
751	:	00000326;
752	:	00000E08;
753	:	00001A06;
754	:	00000F49;
755	:	00FFF65D;
756	:	00FFF7FF;
757	:	00FFFDFB;
758	:	00FFF970;
759	:	00FFFC80;
760	:	00FFFE2F;
761	:	00000617;
762	:	000005E1;
763	:	00000DBF;
764	:	00001B76;
765	:	00FFF1E0;
766	:	00FFFAC4;
767	:	00FFEA2A;
768	:	00FFF880;
769	:	00FFFD1A;
770	:	00FFFBFE;
771	:	00FFF8E7;
772	:	0000096E;
773	:	00000F37;
774	:	00000798;
775	:	00FFF26A;
776	:	00FFF801;
777	:	00FFFB40;
778	:	00FFE377;
779	:	00FFF413;
780	:	00FFF930;
781	:	00FFFDD1;
782	:	00FFFA2B;
783	:	000019D5;
784	:	0000317E;
785	:	00001D45;
786	:	00FFF45F;
787	:	0000055D;
788	:	00000C4B;
789	:	00FFE885;
790	:	00FFF1A2;
791	:	0000016E;
792	:	0000056C;
793	:	000001C8;
794	:	00001D46;
795	:	00002A4C;
796	:	00003F93;
797	:	00000F7B;
798	:	00002250;
799	:	00001C5F;
800	:	00FFFAD8;
801	:	00FFF993;
802	:	000003FE;
803	:	00FFFD5F;
804	:	00FFFFC5;
805	:	00000C91;
806	:	00002469;
807	:	0000231F;
808	:	00000AB8;
809	:	000026DF;
810	:	00000E7B;
811	:	00FFFBDA;
812	:	00FFFEB8;
813	:	00000530;
814	:	00FFFFEC;
815	:	00FFF966;
816	:	000004B3;
817	:	000017B2;
818	:	00000008;
819	:	00001CEB;
820	:	00000F82;
821	:	00FFE95C;
822	:	00FFED83;
823	:	00FFFEB4;
824	:	00FFFD3A;
825	:	00FFFEA9;
826	:	00000155;
827	:	00FFF8F7;
828	:	00FFF507;
829	:	00000E14;
830	:	00FFF4CE;
831	:	00FFE56A;
832	:	00FFE6AA;
833	:	00FFF9FC;
834	:	000003D8;
835	:	00FFFB66;
836	:	00FFFF69;
837	:	00000083;
838	:	00FFFAD3;
839	:	00FFFBCA;
840	:	00FFFE82;
841	:	00FFF78F;
842	:	00000170;
843	:	00FFFDD2;
844	:	00FFFD84;
845	:	0000037B;
846	:	00000429;
847	:	00FFFDD0;
848	:	0000011D;
849	:	00FFFC46;
850	:	000000E9;
851	:	000001C1;
852	:	00FFFCB9;
853	:	00000050;
854	:	000000EE;
855	:	0000029C;
856	:	00000388;
857	:	00FFFBD8;
858	:	000004C3;
859	:	0000002E;
860	:	00FFFB54;
861	:	00FFFE62;
862	:	0000002D;
863	:	00FFFD3B;
864	:	00FFFD91;
865	:	00000782;
866	:	0000043E;
867	:	0000092B;
868	:	00FFFE34;
869	:	000002C7;
870	:	00FFFE64;
871	:	00FFFAE9;
872	:	00000457;
873	:	00FFF713;
874	:	00FFF937;
875	:	000032CF;
876	:	000026CD;
877	:	00002C48;
878	:	00001AEA;
879	:	0000088C;
880	:	00FFFD84;
881	:	00FFFC46;
882	:	00FFF513;
883	:	00FFEDF5;
884	:	00FFFF61;
885	:	00FFFB0B;
886	:	00FFFF13;
887	:	00FFFA84;
888	:	00001C82;
889	:	00FFF86F;
890	:	000005FA;
891	:	000001C6;
892	:	00FFF854;
893	:	00FFF5A5;
894	:	00FFEAEB;
895	:	00FFFE57;
896	:	00FFEFAD;
897	:	0000027D;
898	:	00001786;
899	:	00000713;
900	:	00FFEFB1;
901	:	00FFFB25;
902	:	00000503;
903	:	00FFFD7B;
904	:	00FFF778;
905	:	00FFF619;
906	:	00000AD1;
907	:	00001B86;
908	:	00001B17;
909	:	00FFF373;
910	:	00FFF3B8;
911	:	00FFF11B;
912	:	00FFF589;
913	:	000004D0;
914	:	00FFFE1A;
915	:	00FFF3C0;
916	:	00FFF6E8;
917	:	00001A7E;
918	:	0000040D;
919	:	00FFF644;
920	:	00FFFF57;
921	:	00FFF9C7;
922	:	00FFFE64;
923	:	00FFFD66;
924	:	00FFFCC2;
925	:	00FFFCDE;
926	:	00FFFBF6;
927	:	00FFE91A;
928	:	0000036D;
929	:	00FFFD70;
930	:	0000050C;
931	:	000010D3;
932	:	00000C72;
933	:	00000996;
934	:	000006F8;
935	:	00FFFF5E;
936	:	00000143;
937	:	00FFFA23;
938	:	00000000;
939	:	00FFF2E0;
940	:	00000E92;
941	:	000022AD;
942	:	00001449;
943	:	00001AA8;
944	:	00001640;
945	:	00000947;
946	:	00FFFC15;
947	:	00FFFFAB;
948	:	00FFFE31;
949	:	00FFF9D1;
950	:	00FFFD09;
951	:	00FFFEE9;
952	:	00FFFD63;
953	:	0000127E;
954	:	000005F4;
955	:	000001D1;
956	:	00FFFE39;
957	:	00FFFB31;
958	:	00FFFE0F;
959	:	00FFFC35;
960	:	00000118;
961	:	000012D0;
962	:	00FFFE20;
963	:	00FFFE0B;
964	:	00FFFFB4;
965	:	00FFFE0A;
966	:	00FFFC89;
967	:	000004A3;
968	:	00000000;
969	:	00000000;
970	:	00000000;
971	:	00000000;
972	:	00000000;
973	:	00000000;
974	:	00000000;
975	:	00000000;
976	:	00000000;
977	:	00000000;
978	:	00000000;
979	:	00000000;
980	:	00000000;
981	:	00000000;
982	:	00000000;
983	:	00000000;
984	:	00000000;
985	:	00000000;
986	:	00000000;
987	:	00000000;
988	:	00000000;
989	:	00000000;
990	:	00000000;
991	:	00000000;
992	:	00000000;
993	:	00000000;
994	:	00000000;
995	:	00000000;
996	:	00000000;
997	:	00000000;
998	:	00000000;
999	:	00000000;
1000	:	00000000;
1001	:	00000000;
1002	:	00000000;
1003	:	00000000;
1004	:	00000000;
1005	:	00000000;
1006	:	00000000;
1007	:	00000000;
1008	:	00000000;
1009	:	00000000;
1010	:	00000000;
1011	:	00000000;
1012	:	00000000;
1013	:	00000000;
1014	:	00000000;
1015	:	00000000;
1016	:	00000000;
1017	:	00000000;
1018	:	00000000;
1019	:	00000000;
1020	:	00000000;
1021	:	00000000;
1022	:	00000000;
1023	:	00000000;
END;