WIDTH = 24;
DEPTH=1024;

ADDRESS_RADIX=UNS;
DATA_RADIX=HEX;

CONTENT BEGIN
0	:	00FFF292;
1	:	00FFFA78;
2	:	00FFF6F7;
3	:	00FFEAC0;
4	:	00FFDF0B;
5	:	00FFE053;
6	:	00FFF0B0;
7	:	00FFFB5A;
8	:	00000257;
9	:	000004F1;
10	:	0000012C;
11	:	00FFF470;
12	:	00FFF437;
13	:	00FFF804;
14	:	00FFE60F;
15	:	0000055C;
16	:	00FFD5B2;
17	:	00FFDA8A;
18	:	00FFE382;
19	:	00FFFF3D;
20	:	000000E8;
21	:	00FFFF92;
22	:	00FFF731;
23	:	00000159;
24	:	00FFFC22;
25	:	00000911;
26	:	000009A4;
27	:	00FFD281;
28	:	00FFEAFC;
29	:	00FFF6E0;
30	:	00000306;
31	:	000005BC;
32	:	000001E1;
33	:	00001BD8;
34	:	000013BD;
35	:	00000A0C;
36	:	000020AF;
37	:	00000B67;
38	:	00FFD889;
39	:	00FFD949;
40	:	0000049C;
41	:	000003F9;
42	:	000004AA;
43	:	000005ED;
44	:	000019AD;
45	:	000026EA;
46	:	00002239;
47	:	00FFF493;
48	:	00FFE36E;
49	:	00FFF13C;
50	:	00FFDF05;
51	:	00FFF08B;
52	:	00FFF382;
53	:	00FFFD7C;
54	:	00FFFE40;
55	:	00FFD5B5;
56	:	00FFEB10;
57	:	00FFD584;
58	:	00FFC9F7;
59	:	00FFE246;
60	:	00FFEA3A;
61	:	00FFCFB3;
62	:	00FFE01C;
63	:	00FFE72D;
64	:	00FFF27B;
65	:	00FFFF39;
66	:	00FFDAB3;
67	:	00FFD82F;
68	:	00FFEE95;
69	:	00FFDCCF;
70	:	00FFD0AA;
71	:	00FFD67C;
72	:	00FFD36A;
73	:	00FFDE14;
74	:	00FFE272;
75	:	00FFF46B;
76	:	00FFF9CB;
77	:	000011ED;
78	:	0000195C;
79	:	00000F05;
80	:	00000C6A;
81	:	00FFDE67;
82	:	00FFF1F3;
83	:	00FFE21C;
84	:	00FFE80F;
85	:	00FFE8AE;
86	:	00FFFCC5;
87	:	00000310;
88	:	00001C3E;
89	:	000011E9;
90	:	00001232;
91	:	00001510;
92	:	00002294;
93	:	00001DCF;
94	:	00FFF534;
95	:	00FFF290;
96	:	00FFF3EC;
97	:	00FFFCE9;
98	:	00000101;
99	:	000000D9;
100	:	000008FA;
101	:	00000C0E;
102	:	00002070;
103	:	0000239E;
104	:	0000021F;
105	:	00FFF4B2;
106	:	00FFF9E3;
107	:	00000472;
108	:	00FFFBE8;
109	:	00FFFE3D;
110	:	00FFFC4B;
111	:	000003C3;
112	:	00FFFEF0;
113	:	000011D7;
114	:	00000E24;
115	:	00FFFB54;
116	:	00FFF0E4;
117	:	00FFFE40;
118	:	0000056F;
119	:	00000162;
120	:	00FFFCCA;
121	:	00FFEE72;
122	:	00FFE489;
123	:	00FFD595;
124	:	00FFD23B;
125	:	00FFE73A;
126	:	00FFEF89;
127	:	000005F0;
128	:	00001D40;
129	:	000022E4;
130	:	00001EA4;
131	:	0000029D;
132	:	00FFF360;
133	:	00FFDF48;
134	:	00FFDBBC;
135	:	00FFDDB7;
136	:	00FFE14A;
137	:	0000020C;
138	:	0000245F;
139	:	000011A3;
140	:	00002F6B;
141	:	00002299;
142	:	00FFFD5A;
143	:	00FFF844;
144	:	00FFD96A;
145	:	00FFDDC6;
146	:	00FFD79E;
147	:	00FFF80D;
148	:	00004128;
149	:	00002876;
150	:	00001E03;
151	:	00FFFC80;
152	:	00FFFA6E;
153	:	000001D2;
154	:	00FFF2BE;
155	:	00FFECD4;
156	:	00FFEF90;
157	:	00FFE78F;
158	:	00001ECF;
159	:	00003D47;
160	:	00003EFB;
161	:	00000807;
162	:	000018BF;
163	:	00FFF33C;
164	:	00FFE017;
165	:	00FFF652;
166	:	00FFE965;
167	:	00FFE7EE;
168	:	0000142D;
169	:	00001F1B;
170	:	0000226E;
171	:	00002E75;
172	:	00001A6C;
173	:	00001E4D;
174	:	00FFF5BD;
175	:	00FFD6A6;
176	:	00FFF281;
177	:	00FFF0FD;
178	:	00FFE81D;
179	:	00FFFF8B;
180	:	00001DF6;
181	:	00002C5E;
182	:	00004640;
183	:	00001AD2;
184	:	00000DF9;
185	:	00FFF2FE;
186	:	00FFFCC8;
187	:	00FFF2ED;
188	:	00FFE481;
189	:	00FFF2D0;
190	:	00FFEA55;
191	:	00FFFC7E;
192	:	00001A2E;
193	:	000031E0;
194	:	00001FDF;
195	:	0000183B;
196	:	000039E9;
197	:	000020A4;
198	:	00FFEFCE;
199	:	00FFDC55;
200	:	00FFD2BD;
201	:	00FFD30A;
202	:	00FFE9D9;
203	:	000021D5;
204	:	000023B2;
205	:	00002DBF;
206	:	00002F27;
207	:	00003E70;
208	:	000014FF;
209	:	00FFF23D;
210	:	00FFE88C;
211	:	00FFE474;
212	:	00FFFA3C;
213	:	00FFEA51;
214	:	00FFF5F9;
215	:	00002E65;
216	:	00003A7D;
217	:	000031A9;
218	:	00002193;
219	:	00001FFA;
220	:	00FFF880;
221	:	00FFF759;
222	:	00FFF72D;
223	:	00FFF430;
224	:	000001C8;
225	:	0000238A;
226	:	00003417;
227	:	00002C53;
228	:	00002033;
229	:	00001C0C;
230	:	000011F0;
231	:	00FFFDDD;
232	:	000001D7;
233	:	000002A8;
234	:	00FFFD3F;
235	:	00FFFCFF;
236	:	000002FE;
237	:	00000317;
238	:	00FFFE72;
239	:	00FFF78E;
240	:	00FFFBDE;
241	:	00FFF98B;
242	:	000001C9;
243	:	000004D9;
244	:	0000340D;
245	:	0000288B;
246	:	00002B4D;
247	:	00002D6C;
248	:	000018AC;
249	:	00FFFFC0;
250	:	00001335;
251	:	00000A9B;
252	:	00000D85;
253	:	00000A25;
254	:	0000040B;
255	:	00000FA8;
256	:	00000D7A;
257	:	0000246D;
258	:	000001FC;
259	:	00FFF8D4;
260	:	00FFEBE1;
261	:	00FFF4E1;
262	:	00FFFE09;
263	:	00000CAC;
264	:	00FFFC16;
265	:	00FFEC2D;
266	:	00001024;
267	:	000031B4;
268	:	00001BB2;
269	:	00FFEDA9;
270	:	00FFD5E6;
271	:	00FFE21B;
272	:	00FFF1C7;
273	:	00FFF75E;
274	:	0000048C;
275	:	00FFFCB9;
276	:	00FFE8FF;
277	:	00FFF300;
278	:	000005FA;
279	:	00FFE558;
280	:	00FFD068;
281	:	00FFD1ED;
282	:	00FFD207;
283	:	00FFCD1F;
284	:	00FFF0BC;
285	:	00FFFED1;
286	:	00FFE2D7;
287	:	00FFCFB5;
288	:	00FFEBC4;
289	:	000018CC;
290	:	000012BA;
291	:	000009F8;
292	:	00FFE962;
293	:	00FFD8D1;
294	:	00FFCA01;
295	:	00FFF172;
296	:	00000039;
297	:	00FFE695;
298	:	00FFFA78;
299	:	0000341B;
300	:	00002C4E;
301	:	00002F62;
302	:	00FFFB68;
303	:	00000431;
304	:	00FFFF0B;
305	:	00FFF2E4;
306	:	00000511;
307	:	00000571;
308	:	00FFF14A;
309	:	000003E3;
310	:	00000177;
311	:	00001E21;
312	:	00001FDE;
313	:	00001258;
314	:	000002DE;
315	:	0000210A;
316	:	00001175;
317	:	00000BA1;
318	:	00000D1F;
319	:	00FFF24A;
320	:	00FFEF4A;
321	:	00FFF781;
322	:	00000AAC;
323	:	00000E2F;
324	:	00FFED58;
325	:	00FFEFF0;
326	:	00000A19;
327	:	00000504;
328	:	000019B3;
329	:	00000BCA;
330	:	00FFE337;
331	:	00FFD3CA;
332	:	00FFE0EF;
333	:	00FFDDC4;
334	:	00FFD79C;
335	:	00FFD86C;
336	:	00FFE537;
337	:	00000284;
338	:	00FFF3F7;
339	:	00001509;
340	:	00000A0D;
341	:	00FFF2CD;
342	:	00FFE877;
343	:	00FFDF48;
344	:	00FFDBF9;
345	:	00FFDC7C;
346	:	00FFD6C8;
347	:	00FFDD34;
348	:	00FFEC93;
349	:	00FFF879;
350	:	00000507;
351	:	00000391;
352	:	000000D9;
353	:	00FFFB57;
354	:	00FFF0A6;
355	:	00FFF86A;
356	:	00FFF91D;
357	:	00000049;
358	:	00FFF5C0;
359	:	00FFFB7E;
360	:	0000008C;
361	:	00000681;
362	:	00000735;
363	:	00000159;
364	:	00FFFC30;
365	:	0000028C;
366	:	00000A01;
367	:	00001535;
368	:	00001519;
369	:	000037F4;
370	:	00002175;
371	:	00001E63;
372	:	00002126;
373	:	00000AFF;
374	:	00FFFD6E;
375	:	00000731;
376	:	00FFFB34;
377	:	0000091A;
378	:	00FFFF9B;
379	:	00001AA7;
380	:	000016E7;
381	:	000008B4;
382	:	00001570;
383	:	00000CD8;
384	:	00000D35;
385	:	00FFFCC2;
386	:	00FFFED5;
387	:	00FFFE6D;
388	:	00FFFC47;
389	:	000004E3;
390	:	00FFFFC4;
391	:	00000DB2;
392	:	000011D9;
393	:	00FFFC02;
394	:	000000D5;
395	:	00FFFE12;
396	:	00FFF946;
397	:	00FFF854;
398	:	00FFF68B;
399	:	00FFF4E8;
400	:	00FFE407;
401	:	00FFE3B2;
402	:	00000C9D;
403	:	00FFF04E;
404	:	00FFFFAD;
405	:	00000DB2;
406	:	00FFFFED;
407	:	00000214;
408	:	00FFF914;
409	:	00FFFB9F;
410	:	000005D2;
411	:	00001F67;
412	:	000021E2;
413	:	00001DC6;
414	:	00FFF2AB;
415	:	00FFF0DE;
416	:	00000490;
417	:	00FFFFCB;
418	:	00FFFA02;
419	:	00000451;
420	:	0000029B;
421	:	00000DCC;
422	:	000044EE;
423	:	00005252;
424	:	00003390;
425	:	00000C7C;
426	:	00001461;
427	:	00FFFFA9;
428	:	00FFF9F6;
429	:	00FFFE8B;
430	:	00FFFAE3;
431	:	00FFF891;
432	:	00000AE0;
433	:	000023BE;
434	:	00003DA7;
435	:	00001C59;
436	:	000024B6;
437	:	00FFF991;
438	:	00FFFF51;
439	:	00FFFAD3;
440	:	00FFF6F7;
441	:	00FFEFA0;
442	:	00FFED5B;
443	:	00FFF9F9;
444	:	00FFF478;
445	:	0000128C;
446	:	0000403A;
447	:	00000FD8;
448	:	0000136F;
449	:	00000CBE;
450	:	00000987;
451	:	0000006D;
452	:	00FFEB6F;
453	:	00FFF6DE;
454	:	000001B5;
455	:	00FFFD0C;
456	:	00001E4C;
457	:	00002E60;
458	:	000032DD;
459	:	00001BF1;
460	:	00001CBC;
461	:	000000F1;
462	:	000000C8;
463	:	00000169;
464	:	000005AC;
465	:	0000051B;
466	:	00001C55;
467	:	00002117;
468	:	000032E9;
469	:	0000272E;
470	:	00000B07;
471	:	00000345;
472	:	00FFFCC2;
473	:	00FFFE5A;
474	:	00FFFE43;
475	:	00000397;
476	:	00000FBE;
477	:	00000750;
478	:	00001699;
479	:	00000C1A;
480	:	00FFFE09;
481	:	00000731;
482	:	00FFFE2F;
483	:	00000368;
484	:	00FFFC4B;
485	:	000004CD;
486	:	00000179;
487	:	00FFFB92;
488	:	00FFFAE1;
489	:	00FFFDFD;
490	:	00FFFA14;
491	:	00000275;
492	:	000001E9;
493	:	000000AA;
494	:	00FFFE86;
495	:	00000036;
496	:	00000AAA;
497	:	00FFEDE2;
498	:	00FFE435;
499	:	00FFEF9F;
500	:	00FFE302;
501	:	00FFDF60;
502	:	00FFFF48;
503	:	0000043E;
504	:	000003A5;
505	:	00FFFD39;
506	:	000005C6;
507	:	00FFF42C;
508	:	00FFE218;
509	:	00FFC966;
510	:	00FFE527;
511	:	00FFDC1F;
512	:	00FFDA76;
513	:	00FFE9F6;
514	:	00FFDA3B;
515	:	000002AB;
516	:	00000132;
517	:	00FFFD89;
518	:	00FFEB6E;
519	:	00FFEA63;
520	:	00FFD341;
521	:	00FFEC2D;
522	:	00FFE5FB;
523	:	00FFF250;
524	:	00FFF014;
525	:	00FFEA71;
526	:	00000019;
527	:	00FFFD52;
528	:	00FFF5CA;
529	:	00FFEABF;
530	:	000005F6;
531	:	000013A5;
532	:	00FFFDB9;
533	:	00FFE298;
534	:	00FFF3D0;
535	:	00FFEA92;
536	:	00FFEA89;
537	:	00000286;
538	:	00FFFE1E;
539	:	00FFF3B5;
540	:	00000285;
541	:	00001B42;
542	:	00002A3F;
543	:	00000910;
544	:	00FFD566;
545	:	00FFF506;
546	:	00FFE725;
547	:	00FFE91D;
548	:	00000214;
549	:	00FFFF98;
550	:	00000391;
551	:	0000189B;
552	:	0000283A;
553	:	00003560;
554	:	00FFFA3F;
555	:	00FFF9CF;
556	:	00FFD523;
557	:	00FFC14F;
558	:	00FFD78E;
559	:	00FFFD33;
560	:	000000D4;
561	:	00000532;
562	:	00001B6F;
563	:	000030B2;
564	:	00002A64;
565	:	000018BE;
566	:	00FFE3E8;
567	:	00FFC481;
568	:	00FFDEFF;
569	:	00FFE75B;
570	:	00FFFD61;
571	:	000003BB;
572	:	00000411;
573	:	00FFFCDF;
574	:	00000121;
575	:	000021CA;
576	:	00FFF5F3;
577	:	00FFDD34;
578	:	00FFE4E4;
579	:	00FFF7E9;
580	:	00FFF844;
581	:	00FFFF5C;
582	:	0000004F;
583	:	0000002F;
584	:	00000138;
585	:	0000009C;
586	:	00000764;
587	:	00FFF608;
588	:	0000063C;
589	:	00FFFBFF;
590	:	000004C1;
591	:	00FFFC49;
592	:	000003AE;
593	:	000000C5;
594	:	00000234;
595	:	00FFFEF8;
596	:	00FFFABA;
597	:	00FFFB7C;
598	:	000000FA;
599	:	00FFF9BD;
600	:	00000168;
601	:	000003B8;
602	:	00000171;
603	:	00FFFD59;
604	:	000004CE;
605	:	000000BC;
606	:	0000013E;
607	:	00FFFE36;
608	:	00FFFB89;
609	:	00FFF140;
610	:	00FFEFD3;
611	:	00000784;
612	:	000000FE;
613	:	000007AD;
614	:	0000020E;
615	:	00FFFCB0;
616	:	00FFF908;
617	:	00FFF4C3;
618	:	00FFF114;
619	:	00FFF719;
620	:	00000017;
621	:	00FFEADA;
622	:	00FFE360;
623	:	00FFFEF0;
624	:	0000206B;
625	:	00001FA1;
626	:	0000096A;
627	:	00FFF9D2;
628	:	000001CA;
629	:	000009A3;
630	:	000002C2;
631	:	000026CC;
632	:	000011B3;
633	:	00FFFDBA;
634	:	000006BE;
635	:	00FFFE81;
636	:	00002909;
637	:	00001386;
638	:	0000011A;
639	:	000014E5;
640	:	00002BDF;
641	:	00001C82;
642	:	0000443B;
643	:	00002C64;
644	:	00000199;
645	:	00FFFDAD;
646	:	000011A4;
647	:	000027CD;
648	:	000015B1;
649	:	00000C7F;
650	:	000002AF;
651	:	00002495;
652	:	00001FC0;
653	:	00003A72;
654	:	00000358;
655	:	00FFED7C;
656	:	000000C7;
657	:	00000326;
658	:	0000002D;
659	:	00000DB6;
660	:	000008D2;
661	:	00001A6D;
662	:	0000132A;
663	:	00001480;
664	:	0000379F;
665	:	00FFFC08;
666	:	00FFE838;
667	:	00FFDAF1;
668	:	00FFF045;
669	:	0000012F;
670	:	00000439;
671	:	00FFF450;
672	:	0000042E;
673	:	0000148E;
674	:	000005B3;
675	:	00001ACD;
676	:	00FFFFC4;
677	:	00FFE494;
678	:	00FFAED2;
679	:	00FFC4CF;
680	:	00FFFA0E;
681	:	00000500;
682	:	00FFFC98;
683	:	00FFCE15;
684	:	00FFF49A;
685	:	00FFFB78;
686	:	000000D2;
687	:	00FFF081;
688	:	00FFC832;
689	:	00FFD192;
690	:	00FFD563;
691	:	00FFF688;
692	:	00FFFD63;
693	:	00FFF553;
694	:	00FFF93A;
695	:	00FFF5D9;
696	:	00FFFBEF;
697	:	00FFF509;
698	:	00000606;
699	:	00FFF4C3;
700	:	00FFEDE6;
701	:	00FFF637;
702	:	00FFF465;
703	:	00FFFFBA;
704	:	0000077B;
705	:	00000DBE;
706	:	0000097A;
707	:	000008F5;
708	:	00FFF629;
709	:	00001C13;
710	:	00002A70;
711	:	00001A34;
712	:	00000F76;
713	:	00FFF5D9;
714	:	00000190;
715	:	0000023D;
716	:	000005E0;
717	:	00000E9C;
718	:	00FFFE73;
719	:	0000134E;
720	:	00001A41;
721	:	000017D4;
722	:	00FFEE3C;
723	:	00FFFA4F;
724	:	00000835;
725	:	000006BB;
726	:	0000030E;
727	:	000004D6;
728	:	0000068A;
729	:	000005FD;
730	:	00FFF07E;
731	:	00FFFE51;
732	:	0000008A;
733	:	00FFF88F;
734	:	00FFFA77;
735	:	00FFFD46;
736	:	00FFFE6D;
737	:	00000145;
738	:	00FFF6B6;
739	:	0000067C;
740	:	00FFEFD2;
741	:	00FFFD9E;
742	:	00FFF7C5;
743	:	00FFC7DD;
744	:	00FFE338;
745	:	00FFE536;
746	:	00FFF3CA;
747	:	00FFFCCC;
748	:	0000006E;
749	:	0000041E;
750	:	00000E63;
751	:	00FFF4EB;
752	:	00FFFD8D;
753	:	00FFDB52;
754	:	00FFB2A9;
755	:	00FFC2E0;
756	:	00FFD53D;
757	:	00FFED95;
758	:	00FFFC63;
759	:	000004A3;
760	:	000002D2;
761	:	00FFF44F;
762	:	00FFE6D6;
763	:	00FFE42A;
764	:	00FFE50B;
765	:	00FFD384;
766	:	00FFC824;
767	:	00FFD3F0;
768	:	00FFD5B6;
769	:	00000098;
770	:	0000025B;
771	:	00FFF479;
772	:	00FFF461;
773	:	00FFE589;
774	:	00001180;
775	:	000000E2;
776	:	00FFE1FD;
777	:	00FFDB5B;
778	:	00FFD50E;
779	:	00FFDF83;
780	:	00000164;
781	:	000003A9;
782	:	00FFFCC4;
783	:	00000307;
784	:	00FFFABC;
785	:	00002B51;
786	:	00001493;
787	:	00FFF7C2;
788	:	00000736;
789	:	00FFE243;
790	:	00FFF296;
791	:	0000027E;
792	:	00FFFCC8;
793	:	00000109;
794	:	00000D02;
795	:	00000D2E;
796	:	000024C3;
797	:	000008A3;
798	:	00FFE7D6;
799	:	00FFF3CD;
800	:	00FFD1CC;
801	:	00FFEBC4;
802	:	00FFFC29;
803	:	00FFFC17;
804	:	000002BE;
805	:	000007FD;
806	:	0000092B;
807	:	00000865;
808	:	00FFF06E;
809	:	00FFD74D;
810	:	00FFE939;
811	:	00FFF25F;
812	:	000006AA;
813	:	000000C8;
814	:	00FFFD7D;
815	:	00FFFF9F;
816	:	00000806;
817	:	00000054;
818	:	00FFF102;
819	:	00FFF474;
820	:	00FFC339;
821	:	00FFF366;
822	:	00FFF3CC;
823	:	00000669;
824	:	00FFFD74;
825	:	00FFFC08;
826	:	00000239;
827	:	00000637;
828	:	00000218;
829	:	000001E2;
830	:	00FFF409;
831	:	00FFF8CA;
832	:	00FFF718;
833	:	00FFF3B3;
834	:	00FFFBCE;
835	:	00000442;
836	:	00FFFD69;
837	:	00000079;
838	:	00000142;
839	:	00FFFD00;
840	:	00FFFB28;
841	:	000003C2;
842	:	00FFFD05;
843	:	00FFFE8F;
844	:	00FFFE1B;
845	:	00000161;
846	:	00FFFEB7;
847	:	00FFFDB5;
848	:	00000061;
849	:	00FFF3CB;
850	:	00000E47;
851	:	00002969;
852	:	00004040;
853	:	00003DA9;
854	:	00003701;
855	:	0000122D;
856	:	00000AEA;
857	:	000007F8;
858	:	00000302;
859	:	00FFFED5;
860	:	000008E3;
861	:	00000599;
862	:	00001F99;
863	:	0000231F;
864	:	000018BB;
865	:	00000941;
866	:	0000046C;
867	:	000000A4;
868	:	00000436;
869	:	00FFFD9F;
870	:	00FFFD49;
871	:	00FFFC00;
872	:	00FFEBBB;
873	:	0000008E;
874	:	00000BCF;
875	:	00000131;
876	:	00FFFD92;
877	:	00FFEF75;
878	:	00FFFC9A;
879	:	000005CD;
880	:	00FFFF3B;
881	:	00FFFE72;
882	:	00FFE09B;
883	:	00FFF106;
884	:	0000205D;
885	:	000020BA;
886	:	00000049;
887	:	00FFED14;
888	:	00FFEF0A;
889	:	00FFFEAD;
890	:	00FFFD70;
891	:	00FFF9A5;
892	:	00FFF5C0;
893	:	00FFD55C;
894	:	00FFF70B;
895	:	00002718;
896	:	0000285F;
897	:	00000C04;
898	:	00FFD70E;
899	:	00FFEA00;
900	:	00FFF69C;
901	:	00FFFDBE;
902	:	00FFFD2A;
903	:	00FFFE87;
904	:	00FFE466;
905	:	00001F28;
906	:	000030DD;
907	:	00002605;
908	:	00FFFED0;
909	:	00FFDF95;
910	:	00FFF19A;
911	:	00FFFD9A;
912	:	000002E8;
913	:	00FFFB94;
914	:	00FFFD99;
915	:	00FFF742;
916	:	00000D1C;
917	:	000026DA;
918	:	00001396;
919	:	00FFEBD0;
920	:	00FFF7AA;
921	:	00001248;
922	:	00000B92;
923	:	00000241;
924	:	00FFFCD4;
925	:	00FFF94A;
926	:	00FFEAFE;
927	:	000005AF;
928	:	0000056E;
929	:	00001657;
930	:	00001823;
931	:	0000374D;
932	:	000006AE;
933	:	0000099F;
934	:	000002E1;
935	:	00FFFC36;
936	:	00000175;
937	:	00FFEE7C;
938	:	00FFF26F;
939	:	00001AD7;
940	:	0000190D;
941	:	000002FB;
942	:	00001913;
943	:	00000C00;
944	:	000008ED;
945	:	00FFFFCF;
946	:	000003D9;
947	:	00FFFA56;
948	:	000002A6;
949	:	00FFFA8B;
950	:	00FFF768;
951	:	00FFF7E3;
952	:	00FFFADA;
953	:	00000689;
954	:	00000459;
955	:	0000000F;
956	:	00FFFF22;
957	:	00FFFE70;
958	:	000001DC;
959	:	0000005D;
960	:	000004DF;
961	:	000000D8;
962	:	00FFFD24;
963	:	00FFFAD6;
964	:	00000246;
965	:	00FFFCDF;
966	:	000000F4;
967	:	00000252;
968	:	00000000;
969	:	00000000;
970	:	00000000;
971	:	00000000;
972	:	00000000;
973	:	00000000;
974	:	00000000;
975	:	00000000;
976	:	00000000;
977	:	00000000;
978	:	00000000;
979	:	00000000;
980	:	00000000;
981	:	00000000;
982	:	00000000;
983	:	00000000;
984	:	00000000;
985	:	00000000;
986	:	00000000;
987	:	00000000;
988	:	00000000;
989	:	00000000;
990	:	00000000;
991	:	00000000;
992	:	00000000;
993	:	00000000;
994	:	00000000;
995	:	00000000;
996	:	00000000;
997	:	00000000;
998	:	00000000;
999	:	00000000;
1000	:	00000000;
1001	:	00000000;
1002	:	00000000;
1003	:	00000000;
1004	:	00000000;
1005	:	00000000;
1006	:	00000000;
1007	:	00000000;
1008	:	00000000;
1009	:	00000000;
1010	:	00000000;
1011	:	00000000;
1012	:	00000000;
1013	:	00000000;
1014	:	00000000;
1015	:	00000000;
1016	:	00000000;
1017	:	00000000;
1018	:	00000000;
1019	:	00000000;
1020	:	00000000;
1021	:	00000000;
1022	:	00000000;
1023	:	00000000;
END;