WIDTH = 24;
DEPTH=1024;

ADDRESS_RADIX=UNS;
DATA_RADIX=HEX;

CONTENT BEGIN
0	:	00FFFB61;
1	:	00FFE9E2;
2	:	00FFEBF9;
3	:	00FFEAC9;
4	:	00FFFB95;
5	:	00FFFDC2;
6	:	00FFFB9C;
7	:	00FFFA24;
8	:	00FFFD0B;
9	:	00000472;
10	:	00000067;
11	:	00FFFB36;
12	:	00FFEE59;
13	:	00FFEDBE;
14	:	00FFF6A2;
15	:	00FFF69D;
16	:	000011A0;
17	:	00FFEEA8;
18	:	00FFF7D2;
19	:	00FFFCCE;
20	:	00FFFF37;
21	:	00000199;
22	:	00001961;
23	:	0000178A;
24	:	000004B8;
25	:	00000A27;
26	:	000012DF;
27	:	0000188E;
28	:	00FFEF5A;
29	:	00FFE8A4;
30	:	00000276;
31	:	00FFFA3D;
32	:	000001FF;
33	:	00000E95;
34	:	00000D4B;
35	:	00002EAC;
36	:	000015F4;
37	:	000011CA;
38	:	000019CE;
39	:	00FFE4BB;
40	:	00FFE539;
41	:	00FFF785;
42	:	00FFFF56;
43	:	00000254;
44	:	000008E7;
45	:	00FFF96A;
46	:	000006D0;
47	:	0000316E;
48	:	000019E3;
49	:	00001A16;
50	:	00FFEF2D;
51	:	00FFE90C;
52	:	00FFFAA9;
53	:	00FFF8F9;
54	:	00000128;
55	:	00FFEBEC;
56	:	0000030F;
57	:	0000363E;
58	:	00FFFF7B;
59	:	000016AD;
60	:	000013E3;
61	:	00000CD8;
62	:	00FFEC83;
63	:	00FFF08B;
64	:	00FFF136;
65	:	00FFFAB3;
66	:	00FFD52C;
67	:	00FFD739;
68	:	00FFF1DB;
69	:	00FFD050;
70	:	00FFFF0D;
71	:	00001303;
72	:	00002AE4;
73	:	00000965;
74	:	00FFF4D4;
75	:	00FFF87C;
76	:	00FFFD29;
77	:	00FFBDBE;
78	:	00FFAD3D;
79	:	00FFC180;
80	:	00FFADA4;
81	:	00FFC0C7;
82	:	00000D0D;
83	:	00002FA9;
84	:	000011A3;
85	:	00000400;
86	:	00FFF95F;
87	:	0000045F;
88	:	00FFBFF5;
89	:	00FFB097;
90	:	00FFB1B3;
91	:	00FFA05A;
92	:	00FF98DA;
93	:	00FFE4E5;
94	:	00FFFA7F;
95	:	00FFFC4C;
96	:	00FFFB83;
97	:	00FFFBD4;
98	:	00FFFF39;
99	:	00FFE410;
100	:	00FFD866;
101	:	00FFEB18;
102	:	00FFB7A9;
103	:	00FFD4A7;
104	:	00FFD85A;
105	:	00FFFD57;
106	:	00FFF509;
107	:	00FFF81B;
108	:	00FFFF37;
109	:	0000018B;
110	:	00FFF4E0;
111	:	00FFF4F9;
112	:	00000C61;
113	:	00FFEFC0;
114	:	00FFEF2D;
115	:	00FFE5D7;
116	:	000003FC;
117	:	00FFFCD0;
118	:	00FFFCD5;
119	:	0000016F;
120	:	00FFFBF2;
121	:	0000079F;
122	:	00FFFB1D;
123	:	00FFEFD4;
124	:	00FFF480;
125	:	00FFD560;
126	:	00000532;
127	:	00000D2D;
128	:	0000209F;
129	:	00002404;
130	:	000007C5;
131	:	00000666;
132	:	00FFFA97;
133	:	00FFF07D;
134	:	00FFE442;
135	:	00FFDA31;
136	:	00FFE7B9;
137	:	00FFF8DC;
138	:	000008FB;
139	:	000027E4;
140	:	00003807;
141	:	00002D9C;
142	:	00001A13;
143	:	00FFF58D;
144	:	00FFEECB;
145	:	00FFE5DE;
146	:	00FFDEA2;
147	:	00FFF78D;
148	:	00FFF5E2;
149	:	00000E71;
150	:	0000349A;
151	:	000037B8;
152	:	00002635;
153	:	00002BD7;
154	:	00FFF9D0;
155	:	00FFEE89;
156	:	00FFF0CB;
157	:	00FFFBB6;
158	:	00FFF84F;
159	:	00FFEF5E;
160	:	0000166C;
161	:	00002E17;
162	:	0000228F;
163	:	00000CFA;
164	:	00001AA4;
165	:	00FFF7AD;
166	:	00FFF594;
167	:	00FFFE40;
168	:	00FFFA71;
169	:	00001239;
170	:	00002494;
171	:	000027BD;
172	:	0000343A;
173	:	00001B7C;
174	:	00001925;
175	:	000006A1;
176	:	000004BF;
177	:	00000FF9;
178	:	00002E99;
179	:	00002304;
180	:	000010F3;
181	:	000018C7;
182	:	0000404D;
183	:	00001EB1;
184	:	000018B0;
185	:	000019E5;
186	:	00FFF7C4;
187	:	0000385E;
188	:	00005D0E;
189	:	00004502;
190	:	00004468;
191	:	000019D1;
192	:	0000251B;
193	:	000030BB;
194	:	00002973;
195	:	000012A9;
196	:	00FFE692;
197	:	00FFD86A;
198	:	000022FA;
199	:	00004DBE;
200	:	0000482C;
201	:	00004CF5;
202	:	00003001;
203	:	00000AED;
204	:	00000125;
205	:	00000625;
206	:	00FFEDB7;
207	:	00FFD577;
208	:	00FFE26C;
209	:	0000162E;
210	:	00003480;
211	:	00002A82;
212	:	000037D2;
213	:	00003C93;
214	:	00001B20;
215	:	00FFE506;
216	:	00FFE358;
217	:	00FFD38D;
218	:	00FFC427;
219	:	00FFCC9E;
220	:	000007F3;
221	:	000012F3;
222	:	000014F2;
223	:	00000E94;
224	:	00002832;
225	:	000001AF;
226	:	00FFE7E8;
227	:	00FFD391;
228	:	00FFD558;
229	:	00FFDD0D;
230	:	00FFE959;
231	:	00FFFA71;
232	:	00FFFE8C;
233	:	0000033A;
234	:	00FFFFCA;
235	:	00FFFC1E;
236	:	00FFF296;
237	:	00FFF94B;
238	:	00FFF8C9;
239	:	00FFFA74;
240	:	00FFFDA0;
241	:	00FFFE83;
242	:	000018A6;
243	:	00000A5D;
244	:	00001554;
245	:	000030D6;
246	:	00001A5B;
247	:	00001D00;
248	:	00002F98;
249	:	000016CE;
250	:	00FFF31F;
251	:	0000041B;
252	:	000001BE;
253	:	00000A61;
254	:	00001AD0;
255	:	0000170E;
256	:	00001A56;
257	:	000009C4;
258	:	000012D6;
259	:	00001143;
260	:	000008D0;
261	:	000008B2;
262	:	00000465;
263	:	00FFFC01;
264	:	00FFF7A9;
265	:	00FFD692;
266	:	00FFECE7;
267	:	00FFF199;
268	:	00000F7E;
269	:	00000550;
270	:	0000076D;
271	:	000014BD;
272	:	000012E2;
273	:	00000FEF;
274	:	00FFFB7D;
275	:	00FFEF66;
276	:	00FFE376;
277	:	00FFD77F;
278	:	00000C4A;
279	:	00001502;
280	:	00FFF75B;
281	:	00FFF86E;
282	:	00FFFEAA;
283	:	000006D2;
284	:	00000493;
285	:	00FFFCC5;
286	:	00FFE513;
287	:	00FFDAAC;
288	:	00FFE13C;
289	:	00FFCED4;
290	:	00FFD807;
291	:	00FFEA7B;
292	:	000000FC;
293	:	00FFDEA9;
294	:	00FFF3E5;
295	:	00FFF7A7;
296	:	00FFFCA7;
297	:	00FFDB3B;
298	:	00FFC41C;
299	:	00FFAF47;
300	:	00FFB99E;
301	:	00FFFCAD;
302	:	00001C27;
303	:	00000067;
304	:	00FFEC48;
305	:	00FFE42A;
306	:	00FFF8BD;
307	:	00FFF93B;
308	:	00FFFFDC;
309	:	00FFE29C;
310	:	00FFC992;
311	:	00FFC702;
312	:	00FFE4FA;
313	:	00000E0E;
314	:	00FFF49D;
315	:	00FFF7A4;
316	:	00FFE07D;
317	:	00FFF77A;
318	:	00FFF887;
319	:	000033F8;
320	:	000015FD;
321	:	00FFFA5E;
322	:	00FFE9A7;
323	:	00FFF616;
324	:	00FFE528;
325	:	00FFF5E9;
326	:	00FFCFD5;
327	:	00FFDFFD;
328	:	00FFF1BF;
329	:	00FFFAD0;
330	:	000038A8;
331	:	00003513;
332	:	00004210;
333	:	00001374;
334	:	00001B16;
335	:	00FFF5B1;
336	:	00FFEC01;
337	:	00FFE4AA;
338	:	00FFF654;
339	:	00FFF6B9;
340	:	00FFFB32;
341	:	00002690;
342	:	00001E29;
343	:	000043BF;
344	:	000036CE;
345	:	00002F69;
346	:	0000089B;
347	:	000015B4;
348	:	000006D9;
349	:	00000359;
350	:	00FFFA73;
351	:	00FFFF37;
352	:	0000047E;
353	:	0000130E;
354	:	00001E9A;
355	:	00000AB8;
356	:	000002D3;
357	:	00000075;
358	:	00000215;
359	:	00000002;
360	:	0000007D;
361	:	0000041A;
362	:	00000204;
363	:	00FFFDC9;
364	:	000004D9;
365	:	0000011B;
366	:	000007D8;
367	:	000015CB;
368	:	00000D08;
369	:	00000FCB;
370	:	0000190C;
371	:	00000E49;
372	:	00000166;
373	:	00FFFF12;
374	:	000000A1;
375	:	00FFFF2A;
376	:	00000C7C;
377	:	00FFFF45;
378	:	00FFEF5B;
379	:	00FFF4B0;
380	:	00001580;
381	:	00001127;
382	:	000001C0;
383	:	00FFFCB2;
384	:	00FFF9CB;
385	:	00FFFDA1;
386	:	00FFF729;
387	:	00FFEFC1;
388	:	00FFE69F;
389	:	00FFE9E8;
390	:	00FFE537;
391	:	00FFF5DA;
392	:	0000003E;
393	:	00000F8B;
394	:	000020F9;
395	:	000005AE;
396	:	00FFFD2A;
397	:	00FFF7C9;
398	:	000002AE;
399	:	00FFF4BB;
400	:	00FFEF0B;
401	:	00FFEBA8;
402	:	00FFCDAB;
403	:	00FFE101;
404	:	00FFF647;
405	:	000010E9;
406	:	00000A2A;
407	:	0000027E;
408	:	00FFFB74;
409	:	00FFF682;
410	:	00000033;
411	:	00FFFDC0;
412	:	000007E7;
413	:	00FFE474;
414	:	00FFEE63;
415	:	00000853;
416	:	0000012B;
417	:	00000224;
418	:	00FFF995;
419	:	00FFFF36;
420	:	00FFF619;
421	:	0000061B;
422	:	000009EE;
423	:	00FFFE9A;
424	:	00FFF301;
425	:	00FFF410;
426	:	00FFED2C;
427	:	00FFEABA;
428	:	00FFFAFC;
429	:	00000136;
430	:	00000A83;
431	:	000006DA;
432	:	0000046F;
433	:	0000075E;
434	:	000004C3;
435	:	00FFFCF1;
436	:	00FFFA8F;
437	:	00FFE9E5;
438	:	00FFEB2A;
439	:	0000008F;
440	:	00000FD4;
441	:	00002EFD;
442	:	00001A31;
443	:	00000E77;
444	:	000018EF;
445	:	00FFF6A6;
446	:	00FFF192;
447	:	000006B8;
448	:	000009A4;
449	:	00FFFC75;
450	:	00FFF64D;
451	:	00000E68;
452	:	0000200E;
453	:	000015E1;
454	:	00001392;
455	:	00001D98;
456	:	000006F9;
457	:	00FFF731;
458	:	00002387;
459	:	00001922;
460	:	00FFF49F;
461	:	000002CF;
462	:	0000081B;
463	:	00001AA0;
464	:	00FFE5BE;
465	:	00FFEF2F;
466	:	00FFFBEB;
467	:	00FFE87A;
468	:	00FFF099;
469	:	00FFF561;
470	:	00FFE98C;
471	:	00FFF92B;
472	:	000002EF;
473	:	00FFFEF1;
474	:	00FFFBDC;
475	:	00000640;
476	:	0000054A;
477	:	00FFF83D;
478	:	00FFF54C;
479	:	00FFFC63;
480	:	00FFF8D5;
481	:	00000060;
482	:	000003AD;
483	:	00000147;
484	:	00FFFDD2;
485	:	00FFFDCE;
486	:	000004A5;
487	:	00FFFC70;
488	:	00000080;
489	:	00FFFAE5;
490	:	00FFFC3C;
491	:	00FFFD66;
492	:	00000166;
493	:	00FFFCB5;
494	:	00000425;
495	:	00000306;
496	:	00FFF32B;
497	:	00FFF87F;
498	:	00FFF257;
499	:	00FFF700;
500	:	00FFF27E;
501	:	00FFF769;
502	:	00FFF53A;
503	:	00FFFB70;
504	:	000002CC;
505	:	00FFFFF1;
506	:	0000030A;
507	:	00FFF76D;
508	:	00FFF1E4;
509	:	00FFEDBF;
510	:	00FFD873;
511	:	00FFE163;
512	:	00FFD4F6;
513	:	00FFE748;
514	:	000003DE;
515	:	00FFFA05;
516	:	00FFFE87;
517	:	00FFFDFD;
518	:	00FFFA16;
519	:	00FFFD2A;
520	:	00FFE3FA;
521	:	00FFEFCF;
522	:	00FFF589;
523	:	00FFE694;
524	:	00FFE441;
525	:	00FFEB82;
526	:	00FFFE00;
527	:	00FFFCC2;
528	:	00FFF64E;
529	:	00001170;
530	:	00000141;
531	:	00FFF378;
532	:	00FFFBB6;
533	:	00FFFCD4;
534	:	00FFE9A6;
535	:	00FFE217;
536	:	00FFE533;
537	:	00FFFC9D;
538	:	00FFFC8F;
539	:	00FFED21;
540	:	00FFEB63;
541	:	00FFE22F;
542	:	00FFD9E2;
543	:	00FFF135;
544	:	00FFF8F6;
545	:	000015E4;
546	:	00000191;
547	:	00FFECD6;
548	:	000001A2;
549	:	00FFFC84;
550	:	00FFF193;
551	:	00FFD22C;
552	:	00FFD29B;
553	:	00FFC400;
554	:	00FFFB99;
555	:	000006F8;
556	:	00000EA3;
557	:	00000B9E;
558	:	00FFF834;
559	:	00000080;
560	:	00000192;
561	:	00FFF885;
562	:	00FFEEE5;
563	:	00FFF2CD;
564	:	00FFCE35;
565	:	00001A82;
566	:	000008B8;
567	:	00001C60;
568	:	0000110C;
569	:	0000058E;
570	:	0000030E;
571	:	0000062D;
572	:	00FFF9EE;
573	:	00FFFE05;
574	:	0000164F;
575	:	00FFF642;
576	:	00002E7A;
577	:	00000DFA;
578	:	00001407;
579	:	00000B1A;
580	:	0000028A;
581	:	00FFFF6B;
582	:	00FFFD1A;
583	:	00FFF8A5;
584	:	00FFFD7F;
585	:	00000875;
586	:	00FFFE18;
587	:	00000F15;
588	:	0000099D;
589	:	0000075D;
590	:	00FFFEC2;
591	:	000007D1;
592	:	000000F2;
593	:	00000361;
594	:	00FFFC9C;
595	:	000000BB;
596	:	00FFFFAC;
597	:	00000527;
598	:	000000DC;
599	:	00FFFF17;
600	:	00000026;
601	:	00FFFC28;
602	:	00000308;
603	:	00000535;
604	:	000003EA;
605	:	00000387;
606	:	00000264;
607	:	000000AE;
608	:	00FFF393;
609	:	00FFF9F9;
610	:	00000820;
611	:	00000D99;
612	:	00000423;
613	:	00FFFA92;
614	:	000003E7;
615	:	0000035D;
616	:	00FFFE36;
617	:	00FFF8E1;
618	:	00FFF04A;
619	:	00FFFA9C;
620	:	00FFF75A;
621	:	00FFE684;
622	:	00001F33;
623	:	00000477;
624	:	00FFF374;
625	:	00FFFF68;
626	:	0000042A;
627	:	00FFFF67;
628	:	00FFF33C;
629	:	00FFF067;
630	:	00FFF538;
631	:	0000079E;
632	:	00000432;
633	:	00000368;
634	:	00001324;
635	:	0000056B;
636	:	00000DAB;
637	:	00FFF8E1;
638	:	00001A54;
639	:	00000DC4;
640	:	000008B0;
641	:	0000121F;
642	:	00001CBF;
643	:	0000085A;
644	:	00000CFB;
645	:	000006EA;
646	:	0000115E;
647	:	000022C1;
648	:	000006EE;
649	:	000015A1;
650	:	000017EE;
651	:	0000258D;
652	:	00002BDE;
653	:	00004B74;
654	:	00003161;
655	:	0000168A;
656	:	0000176F;
657	:	0000159A;
658	:	00001EBE;
659	:	00000487;
660	:	0000155C;
661	:	000013F5;
662	:	00001680;
663	:	00005A8C;
664	:	00002F16;
665	:	0000239F;
666	:	00000A22;
667	:	00FFFEC6;
668	:	00FFF89F;
669	:	000008CC;
670	:	0000079F;
671	:	00000D4D;
672	:	000014A6;
673	:	000029A0;
674	:	00002DEB;
675	:	00FFF79C;
676	:	00001D02;
677	:	0000294D;
678	:	0000057C;
679	:	00FFFB99;
680	:	0000003C;
681	:	0000010E;
682	:	00FFF44F;
683	:	00FFEFA0;
684	:	00000AAC;
685	:	00000861;
686	:	00FFFF52;
687	:	00FFF624;
688	:	00FFF34A;
689	:	0000068C;
690	:	000000D5;
691	:	00FFFC3B;
692	:	00FFFE1B;
693	:	00FFF3BB;
694	:	00FFE2BC;
695	:	00FFE7CF;
696	:	00FFDEBA;
697	:	00FFE0F2;
698	:	00FFF4B9;
699	:	00FFFA21;
700	:	00FFFB12;
701	:	00FFF126;
702	:	00FFF685;
703	:	00FFF3E9;
704	:	00FFD9EA;
705	:	00FFCB7D;
706	:	00FFE49D;
707	:	00000383;
708	:	00FFF0E5;
709	:	00FFE71E;
710	:	00FFE9DA;
711	:	00001140;
712	:	00000F63;
713	:	000002A0;
714	:	00FFFD76;
715	:	00FFF638;
716	:	00FFE57A;
717	:	00FFD7F9;
718	:	00FFECE0;
719	:	00FFEEEF;
720	:	00FFE9D5;
721	:	00001057;
722	:	00000EF4;
723	:	00FFFFA6;
724	:	00FFFCE6;
725	:	000002E2;
726	:	0000011E;
727	:	000001F7;
728	:	000000E6;
729	:	000002D3;
730	:	00FFFD33;
731	:	00000135;
732	:	0000010B;
733	:	00FFFB2B;
734	:	00FFF38C;
735	:	00FFFE01;
736	:	00000090;
737	:	00FFFC02;
738	:	000000FD;
739	:	00000BFE;
740	:	000013A6;
741	:	00FFF621;
742	:	00FFF608;
743	:	00FFEACE;
744	:	00FFE525;
745	:	00FFE76D;
746	:	000004DB;
747	:	0000029F;
748	:	000002A0;
749	:	0000040E;
750	:	0000106D;
751	:	00000994;
752	:	00FFF75C;
753	:	00FFFA38;
754	:	00FFE8E8;
755	:	00FFD81A;
756	:	00FFF34D;
757	:	0000040C;
758	:	00FFFAC4;
759	:	0000053F;
760	:	00FFFFC1;
761	:	00FFFC3E;
762	:	00FFFF6E;
763	:	0000002A;
764	:	00FFE8FA;
765	:	00FFD0A0;
766	:	00FFD45E;
767	:	00FFE62D;
768	:	00FFED3C;
769	:	00FFFF53;
770	:	00FFFDCB;
771	:	00FFF978;
772	:	00FFF9E9;
773	:	00FFE872;
774	:	00FFD738;
775	:	00FFC830;
776	:	00FFD9D2;
777	:	00FFD99C;
778	:	00FFCEBE;
779	:	00FFED21;
780	:	00FFFFEF;
781	:	00000249;
782	:	00FFF74B;
783	:	00FFE478;
784	:	00FFDFD8;
785	:	00FFDE08;
786	:	00FFFA5E;
787	:	000008C5;
788	:	00FFDAF5;
789	:	00FFE129;
790	:	00FFEAB4;
791	:	00000306;
792	:	000002CF;
793	:	00FFFA61;
794	:	00FFEB59;
795	:	00FFE36E;
796	:	00000941;
797	:	00002605;
798	:	000010A7;
799	:	00FFF614;
800	:	00FFFD43;
801	:	00FFF4B4;
802	:	00FFFFF0;
803	:	00000331;
804	:	00FFFA39;
805	:	00FFE3B8;
806	:	00FFF3E7;
807	:	00000E94;
808	:	000020C6;
809	:	00000F1C;
810	:	00000F10;
811	:	00000F37;
812	:	000004F2;
813	:	00FFFB3F;
814	:	000001C8;
815	:	00000077;
816	:	00FFEC85;
817	:	00001A9D;
818	:	00002CCD;
819	:	0000385C;
820	:	00001D7B;
821	:	0000260B;
822	:	0000257C;
823	:	00000450;
824	:	00FFFD8E;
825	:	0000000B;
826	:	00FFF9B8;
827	:	0000002C;
828	:	00002A21;
829	:	000021FB;
830	:	00000479;
831	:	00FFFF33;
832	:	000001C1;
833	:	00000705;
834	:	000000D7;
835	:	00000513;
836	:	0000000B;
837	:	000003F1;
838	:	00FFFAF6;
839	:	00FFFD0A;
840	:	00FFFD95;
841	:	00000033;
842	:	00000124;
843	:	00FFFD4C;
844	:	000004D0;
845	:	00FFFFE5;
846	:	000002F0;
847	:	000004F3;
848	:	00FFFFBD;
849	:	00000B61;
850	:	000011C3;
851	:	0000153D;
852	:	00002362;
853	:	00001ED8;
854	:	0000149F;
855	:	00000EFE;
856	:	0000003C;
857	:	00FFFF3B;
858	:	00FFFBC2;
859	:	00FFFFB8;
860	:	00FFF9E1;
861	:	00FFF540;
862	:	000009B4;
863	:	00002538;
864	:	000012BE;
865	:	00000B3A;
866	:	00001BA1;
867	:	000002D5;
868	:	00FFFDA9;
869	:	00FFFDD0;
870	:	00FFF39B;
871	:	00FFED4F;
872	:	00FFF3E2;
873	:	00FFFD2B;
874	:	00FFFD52;
875	:	000007F7;
876	:	00FFFAAF;
877	:	00FFFCF5;
878	:	000005B4;
879	:	000000BD;
880	:	00FFFE28;
881	:	00FFF7E6;
882	:	00FFFC81;
883	:	00000022;
884	:	00000419;
885	:	00FFFE93;
886	:	00FFF805;
887	:	000005A2;
888	:	00000136;
889	:	00000204;
890	:	00FFFE95;
891	:	00FFF9A9;
892	:	00FFF65D;
893	:	00FFEA83;
894	:	00FFEDB2;
895	:	00001157;
896	:	00001AA9;
897	:	00FFE2B8;
898	:	00000962;
899	:	0000130D;
900	:	00000181;
901	:	00000079;
902	:	000002F2;
903	:	000001C7;
904	:	00FFFDF6;
905	:	00FFF959;
906	:	000007E6;
907	:	0000178F;
908	:	0000018B;
909	:	000010FC;
910	:	00001746;
911	:	00000752;
912	:	00FFFEA0;
913	:	00001119;
914	:	00003533;
915	:	000023F9;
916	:	00002008;
917	:	00001FC6;
918	:	00000EA2;
919	:	000002C9;
920	:	00FFF15B;
921	:	00FFFB8B;
922	:	00FFFC91;
923	:	000002D6;
924	:	000016A9;
925	:	000033BE;
926	:	00002BF4;
927	:	0000356E;
928	:	00002B31;
929	:	00001C37;
930	:	0000143B;
931	:	00FFFADC;
932	:	00FFF0FC;
933	:	00FFF7E3;
934	:	00FFF8D4;
935	:	00000ACE;
936	:	0000099C;
937	:	00000C1B;
938	:	00003018;
939	:	00003126;
940	:	0000441E;
941	:	000019FA;
942	:	00000CBB;
943	:	00FFFDAD;
944	:	00FFFB84;
945	:	00FFFFBD;
946	:	00000025;
947	:	00FFF978;
948	:	000016B1;
949	:	0000105A;
950	:	000012AF;
951	:	00000E80;
952	:	0000049E;
953	:	00FFFDDD;
954	:	00FFF91A;
955	:	00FFFDAD;
956	:	00FFFB88;
957	:	000003E9;
958	:	00000187;
959	:	000004DB;
960	:	000003C3;
961	:	00000289;
962	:	0000044C;
963	:	00000352;
964	:	00FFFCA2;
965	:	000000E3;
966	:	00FFFE9D;
967	:	00FFFFA1;
968	:	00000000;
969	:	00000000;
970	:	00000000;
971	:	00000000;
972	:	00000000;
973	:	00000000;
974	:	00000000;
975	:	00000000;
976	:	00000000;
977	:	00000000;
978	:	00000000;
979	:	00000000;
980	:	00000000;
981	:	00000000;
982	:	00000000;
983	:	00000000;
984	:	00000000;
985	:	00000000;
986	:	00000000;
987	:	00000000;
988	:	00000000;
989	:	00000000;
990	:	00000000;
991	:	00000000;
992	:	00000000;
993	:	00000000;
994	:	00000000;
995	:	00000000;
996	:	00000000;
997	:	00000000;
998	:	00000000;
999	:	00000000;
1000	:	00000000;
1001	:	00000000;
1002	:	00000000;
1003	:	00000000;
1004	:	00000000;
1005	:	00000000;
1006	:	00000000;
1007	:	00000000;
1008	:	00000000;
1009	:	00000000;
1010	:	00000000;
1011	:	00000000;
1012	:	00000000;
1013	:	00000000;
1014	:	00000000;
1015	:	00000000;
1016	:	00000000;
1017	:	00000000;
1018	:	00000000;
1019	:	00000000;
1020	:	00000000;
1021	:	00000000;
1022	:	00000000;
1023	:	00000000;
END;