WIDTH = 24;
DEPTH=1024;

ADDRESS_RADIX=UNS;
DATA_RADIX=HEX;

CONTENT BEGIN
0	:	000001FF;
1	:	000004CF;
2	:	00FFFF82;
3	:	00FFF538;
4	:	00FFE6EE;
5	:	00FFED39;
6	:	00FFE427;
7	:	00FFD5B6;
8	:	00FFDB98;
9	:	00FFEF3C;
10	:	00FFF5CA;
11	:	000004AF;
12	:	00FFFE6B;
13	:	00FFE74B;
14	:	00FFDB60;
15	:	00FFCDF2;
16	:	00FFCA45;
17	:	00FFC0EA;
18	:	00FFDB60;
19	:	00FFD4D6;
20	:	00FFF2B6;
21	:	00FFE2AE;
22	:	00FFFD50;
23	:	00FFF521;
24	:	00FFD552;
25	:	00FFBEB9;
26	:	00FFB72C;
27	:	00FFAC03;
28	:	00000504;
29	:	00000804;
30	:	00FFF049;
31	:	00FFEB65;
32	:	00FFED7A;
33	:	000000F0;
34	:	00FFF89A;
35	:	00FFDE2B;
36	:	00FFC3D4;
37	:	00FFE017;
38	:	00FFD19D;
39	:	00001A05;
40	:	00000F66;
41	:	00001C33;
42	:	00001A83;
43	:	00001AA9;
44	:	00000198;
45	:	00000262;
46	:	00FFF2F1;
47	:	00FFEDE1;
48	:	00FFE848;
49	:	00FFED9A;
50	:	0000040D;
51	:	00001F89;
52	:	00001D58;
53	:	00001819;
54	:	0000262F;
55	:	000002AA;
56	:	000011EF;
57	:	00FFF979;
58	:	00FFF892;
59	:	00FFEFAB;
60	:	00FFF1F7;
61	:	00001B31;
62	:	00001C12;
63	:	0000301A;
64	:	00001FF8;
65	:	00000BB7;
66	:	00FFFFA3;
67	:	00000DB2;
68	:	00FFFEC6;
69	:	00FFF671;
70	:	00FFD74B;
71	:	00FFE818;
72	:	0000242D;
73	:	00000972;
74	:	00001E6A;
75	:	00001A92;
76	:	000002B7;
77	:	0000001C;
78	:	00FFFB52;
79	:	0000055D;
80	:	00FFEA81;
81	:	00FFDD2D;
82	:	00FFE1B5;
83	:	000007F6;
84	:	00000FD7;
85	:	00000EC0;
86	:	00000D06;
87	:	00FFF777;
88	:	0000018F;
89	:	00FFFC4C;
90	:	00FFFB4A;
91	:	00FFE8BC;
92	:	00FFEF6F;
93	:	000007FF;
94	:	00001928;
95	:	000001BE;
96	:	00002A77;
97	:	00FFF822;
98	:	00000960;
99	:	00FFFF25;
100	:	000001A6;
101	:	00FFF206;
102	:	00FFE7A7;
103	:	00000FAC;
104	:	000038D7;
105	:	00001962;
106	:	00FFFAE8;
107	:	00FFF38B;
108	:	00002867;
109	:	00000F5D;
110	:	00FFFC31;
111	:	00FFFCF4;
112	:	00FFFB91;
113	:	00FFFA69;
114	:	00002777;
115	:	00003AB0;
116	:	00003A31;
117	:	000025B5;
118	:	00001B2E;
119	:	0000422D;
120	:	000012F0;
121	:	000006AF;
122	:	000007F6;
123	:	000005CA;
124	:	00000B2B;
125	:	00000BDA;
126	:	0000082D;
127	:	0000080C;
128	:	000009DC;
129	:	00000D0A;
130	:	000008F7;
131	:	0000094A;
132	:	00000BE9;
133	:	000003BF;
134	:	0000048E;
135	:	00FFFBBF;
136	:	00FFF89B;
137	:	00FFFBC4;
138	:	00FFF732;
139	:	00FFFDFE;
140	:	0000005D;
141	:	000001D2;
142	:	0000088C;
143	:	0000017F;
144	:	00FFFD58;
145	:	00FFF73B;
146	:	00FFDD29;
147	:	00FFF7D6;
148	:	0000108B;
149	:	00002864;
150	:	00000EBE;
151	:	00000587;
152	:	00FFFC06;
153	:	00FFFEE9;
154	:	000004F0;
155	:	00FFE8EA;
156	:	00FFC84F;
157	:	00FFCD2C;
158	:	00FFFE32;
159	:	00FFF41F;
160	:	00000FA9;
161	:	00002181;
162	:	00FFFCB2;
163	:	00FFF89A;
164	:	000000B5;
165	:	00FFEC61;
166	:	00FFE4CB;
167	:	00FFDDF6;
168	:	0000030A;
169	:	0000355E;
170	:	00000589;
171	:	000017DB;
172	:	00FFFDC8;
173	:	00FFE907;
174	:	00FFE973;
175	:	00FFFB6D;
176	:	00FFF1DB;
177	:	00FFF9F5;
178	:	00FFF7D0;
179	:	000025A1;
180	:	00007038;
181	:	00000F8A;
182	:	00FFE8AA;
183	:	00FFE765;
184	:	00FFE53B;
185	:	00FFF496;
186	:	00FFFABE;
187	:	00FFECBF;
188	:	00FFFE5A;
189	:	00000ECA;
190	:	00004AEE;
191	:	000051AF;
192	:	00001970;
193	:	00FFE650;
194	:	00FFCFCA;
195	:	00FFDF69;
196	:	00FFEF2B;
197	:	00FFFCD8;
198	:	00000129;
199	:	00FFF9D6;
200	:	00000873;
201	:	0000560B;
202	:	00002BA2;
203	:	00FFED3F;
204	:	00FFE2EC;
205	:	00FFDB3B;
206	:	00FFDF7C;
207	:	00FFE9E4;
208	:	00FFFD8C;
209	:	00FFFBA6;
210	:	000019CC;
211	:	00001FC1;
212	:	00002658;
213	:	000000F5;
214	:	00FFEEDE;
215	:	00FFE59D;
216	:	00FFE6FA;
217	:	00FFE76B;
218	:	00FFFE38;
219	:	0000024F;
220	:	00FFF21E;
221	:	0000032B;
222	:	00001701;
223	:	00FFFDB7;
224	:	00FFDB7C;
225	:	00FFD003;
226	:	00FFCECD;
227	:	00FFD41F;
228	:	00FFF4D7;
229	:	00001127;
230	:	00000DA8;
231	:	00FFF765;
232	:	000009C9;
233	:	00FFEDAA;
234	:	00FFF2D3;
235	:	00FFE435;
236	:	00FFE280;
237	:	00FFE82A;
238	:	00FFD036;
239	:	00FFED2E;
240	:	0000189F;
241	:	00001C35;
242	:	00000869;
243	:	00000929;
244	:	000003CF;
245	:	00FFFF22;
246	:	00FFFC5C;
247	:	00FFFFCA;
248	:	00FFF939;
249	:	000003DC;
250	:	000004FB;
251	:	0000026C;
252	:	00000598;
253	:	0000081B;
254	:	00FFFFF1;
255	:	000002E5;
256	:	00FFFA80;
257	:	00FFF85B;
258	:	00FFF3F1;
259	:	00FFF241;
260	:	00FFEB2E;
261	:	00FFDA1A;
262	:	00FFD978;
263	:	00FFEAF4;
264	:	0000035A;
265	:	00FFFD74;
266	:	000002F3;
267	:	00002386;
268	:	000012C0;
269	:	000013BC;
270	:	00000AC3;
271	:	00FFFEB2;
272	:	00FFF060;
273	:	00FFEE9E;
274	:	00FFDBF7;
275	:	00000674;
276	:	000009E0;
277	:	00000CAE;
278	:	00FFF0C0;
279	:	00000B56;
280	:	00001169;
281	:	0000005D;
282	:	00FFF690;
283	:	00FFFD63;
284	:	00FFFCF1;
285	:	00FFBF88;
286	:	00000254;
287	:	00000182;
288	:	00001666;
289	:	00FFF987;
290	:	00FFE935;
291	:	00FFE9CE;
292	:	0000021A;
293	:	00001C42;
294	:	000013D4;
295	:	00FFEFCF;
296	:	00FFE4AC;
297	:	00FFFC59;
298	:	00FFFA10;
299	:	00FFE988;
300	:	00FFF01B;
301	:	00FFD992;
302	:	00002A00;
303	:	0000087C;
304	:	000017D0;
305	:	00FFFF6D;
306	:	00FFFD3E;
307	:	00FFEA42;
308	:	000000BB;
309	:	00FFF977;
310	:	00FFD7EF;
311	:	00FFB174;
312	:	00FFE926;
313	:	000018B4;
314	:	00FFF537;
315	:	00FFE635;
316	:	00000C0A;
317	:	00FFEAB1;
318	:	00FFE773;
319	:	000006BE;
320	:	00FFEBD8;
321	:	00FFDF95;
322	:	00FFDF48;
323	:	00FFF602;
324	:	000001A6;
325	:	00FFE990;
326	:	00FFE45E;
327	:	0000029B;
328	:	00FFF5F0;
329	:	00FFE37F;
330	:	000003E2;
331	:	00FFFB77;
332	:	00FFF277;
333	:	00FFEFAC;
334	:	00001B8A;
335	:	00002A04;
336	:	00FFF5A8;
337	:	00FFE17D;
338	:	00000405;
339	:	00FFF9CD;
340	:	00FFF5D7;
341	:	00FFFD7F;
342	:	00FFFD77;
343	:	00FFF525;
344	:	00001BEC;
345	:	0000178E;
346	:	00000DC8;
347	:	000003FF;
348	:	00FFE802;
349	:	00FFF62C;
350	:	00FFEFD7;
351	:	00FFFEA0;
352	:	00000344;
353	:	00FFF9BA;
354	:	000021C4;
355	:	00002EA4;
356	:	0000261E;
357	:	000031A1;
358	:	00FFE16B;
359	:	00FFDD19;
360	:	00FFDBFD;
361	:	00FFF513;
362	:	00FFFB18;
363	:	00000231;
364	:	00FFFA70;
365	:	00FFFC45;
366	:	00FFFEEC;
367	:	000002D9;
368	:	00000237;
369	:	00FFFE99;
370	:	00FFF914;
371	:	00FFFAD1;
372	:	00FFFF97;
373	:	00000390;
374	:	00FFFA50;
375	:	00000024;
376	:	00FFF2FA;
377	:	0000013E;
378	:	00002EB8;
379	:	0000188C;
380	:	00FFF891;
381	:	0000086F;
382	:	00FFF199;
383	:	00FFF18E;
384	:	00000000;
385	:	00FFF664;
386	:	00FFFA49;
387	:	00001284;
388	:	00002D70;
389	:	00004F76;
390	:	00003F6D;
391	:	00003127;
392	:	00000F85;
393	:	00000865;
394	:	000002C3;
395	:	00FFF880;
396	:	00FFF9B1;
397	:	00000A3C;
398	:	00001969;
399	:	00001C75;
400	:	00004C6F;
401	:	00003DB2;
402	:	00001CB8;
403	:	00001FF9;
404	:	00FFEBAB;
405	:	00FFE6D3;
406	:	00FFFA12;
407	:	00FFF486;
408	:	00FFFD4E;
409	:	00001F55;
410	:	00001ECA;
411	:	000027D5;
412	:	00FFFDAE;
413	:	00000425;
414	:	00000694;
415	:	00FFF468;
416	:	00FFF48C;
417	:	00FFFDF6;
418	:	00FFFDB4;
419	:	00FFF1B0;
420	:	00FFF286;
421	:	00FFE3CF;
422	:	00FFEBE2;
423	:	00001886;
424	:	00001302;
425	:	00001149;
426	:	000001C8;
427	:	00FFF723;
428	:	00FFFED2;
429	:	00FFFBE8;
430	:	00FFE9D7;
431	:	00FFEED9;
432	:	00FFE106;
433	:	00FFED06;
434	:	000038A5;
435	:	00002A29;
436	:	00000F1C;
437	:	00000FCE;
438	:	0000045E;
439	:	00FFFBEA;
440	:	00FFFCDF;
441	:	00FFF864;
442	:	00FFE300;
443	:	00FFE989;
444	:	00FFEAE9;
445	:	00000994;
446	:	00001CF5;
447	:	000016D5;
448	:	00FFFAD7;
449	:	00FFFAB4;
450	:	00FFFD1C;
451	:	00FFF7BF;
452	:	00FFEFAD;
453	:	00FFEE93;
454	:	00FFF066;
455	:	00FFD799;
456	:	0000036A;
457	:	00001BF4;
458	:	0000085B;
459	:	00FFF3CF;
460	:	00FFFC38;
461	:	00FFFB82;
462	:	00FFFC3F;
463	:	00FFFB74;
464	:	00FFFCC1;
465	:	00FFF74D;
466	:	00FFE4AC;
467	:	000005BB;
468	:	00001EEE;
469	:	00FFF7DD;
470	:	00FFF442;
471	:	00000108;
472	:	000000F2;
473	:	000000B3;
474	:	00FFF9D9;
475	:	00000846;
476	:	00FFF37C;
477	:	00000538;
478	:	00001232;
479	:	00000363;
480	:	00FFF348;
481	:	00FFFB98;
482	:	00FFFE80;
483	:	00FFFDB3;
484	:	00FFFD78;
485	:	000001DF;
486	:	00000156;
487	:	000001BE;
488	:	00FFFC13;
489	:	00FFFD5A;
490	:	00FFF95A;
491	:	00FFFCD3;
492	:	000002A2;
493	:	00FFFFB8;
494	:	000000AF;
495	:	00000038;
496	:	00FFFA0D;
497	:	000000C9;
498	:	00FFFE93;
499	:	00FFF77C;
500	:	00FFF24D;
501	:	00FFF1F0;
502	:	00FFF6EB;
503	:	00FFF4E3;
504	:	00FFF5B1;
505	:	00FFFDEF;
506	:	00FFFBC0;
507	:	00FFFF0D;
508	:	00FFFC42;
509	:	00FFF669;
510	:	000000BE;
511	:	00000BC1;
512	:	00FFE54A;
513	:	00FFF3E5;
514	:	00FFF32C;
515	:	000008A9;
516	:	00FFFDFC;
517	:	00FFFB26;
518	:	00FFFB9D;
519	:	00FFF9E8;
520	:	00001B04;
521	:	00002A03;
522	:	000023C7;
523	:	00001AE3;
524	:	000019B4;
525	:	00FFF62A;
526	:	00001664;
527	:	000001F4;
528	:	00000025;
529	:	00FFFF35;
530	:	00001953;
531	:	000031A2;
532	:	00002DEE;
533	:	0000462B;
534	:	00001B0B;
535	:	00FFEEEC;
536	:	00FFEDB1;
537	:	00FFF8BA;
538	:	00000A5B;
539	:	00FFFFF0;
540	:	000008E8;
541	:	00001D39;
542	:	000024BA;
543	:	00003143;
544	:	00001CE8;
545	:	00FFD4A4;
546	:	00FFCC6C;
547	:	00FFD801;
548	:	00FFEC47;
549	:	00000128;
550	:	000000DB;
551	:	00000CBE;
552	:	00002847;
553	:	00001F31;
554	:	00001E35;
555	:	00FFFBA8;
556	:	00FFC215;
557	:	00FFBDD7;
558	:	00FFED00;
559	:	00000884;
560	:	0000079B;
561	:	00FFFD3C;
562	:	000005A9;
563	:	0000141A;
564	:	0000199C;
565	:	00000F63;
566	:	00FFDC2A;
567	:	00FFD7E5;
568	:	00FFDE2D;
569	:	0000074D;
570	:	0000168B;
571	:	0000032C;
572	:	00FFFA6E;
573	:	00FFFFCB;
574	:	00000A22;
575	:	00000243;
576	:	00FFE908;
577	:	00FFE37D;
578	:	00FFE1D2;
579	:	00FFE319;
580	:	00FFF853;
581	:	00000BC6;
582	:	00000184;
583	:	00FFFA03;
584	:	00FFFAB0;
585	:	000000AC;
586	:	00FFE7C9;
587	:	00FFDF30;
588	:	00FFF1A6;
589	:	00000DE6;
590	:	0000182F;
591	:	0000063F;
592	:	000006CC;
593	:	0000064F;
594	:	00FFFB59;
595	:	00FFFCD8;
596	:	0000019A;
597	:	00FFFB2D;
598	:	0000074A;
599	:	0000147E;
600	:	0000250C;
601	:	000018AA;
602	:	000006E0;
603	:	00FFF93A;
604	:	0000010B;
605	:	0000033D;
606	:	00FFFD91;
607	:	00FFF952;
608	:	00FFEDC3;
609	:	00FFEDF5;
610	:	00FFE183;
611	:	00FFF9B5;
612	:	00000A8E;
613	:	00000A27;
614	:	00FFFA9E;
615	:	00000366;
616	:	00FFFE73;
617	:	00FFFD53;
618	:	00FFEC22;
619	:	00FFD31B;
620	:	00FFE0FE;
621	:	00000EE8;
622	:	000024BC;
623	:	00000E99;
624	:	000012AE;
625	:	00001A7D;
626	:	000004AC;
627	:	00FFF953;
628	:	00FFEA95;
629	:	00FFDAF3;
630	:	00FFD8C8;
631	:	00FFFA81;
632	:	0000293D;
633	:	00002B5D;
634	:	000004B1;
635	:	00000C00;
636	:	000007B0;
637	:	0000014C;
638	:	00FFEFDC;
639	:	00FFE605;
640	:	00FFFA8B;
641	:	000014DA;
642	:	00002355;
643	:	00001A12;
644	:	00FFFA42;
645	:	00000873;
646	:	000004A3;
647	:	00000666;
648	:	00FFEF63;
649	:	00FFF9A9;
650	:	00000883;
651	:	000037AD;
652	:	000035B5;
653	:	00FFE7AB;
654	:	00FFEDC9;
655	:	00001439;
656	:	00FFEF60;
657	:	00FFE779;
658	:	00FFEB8E;
659	:	00FFF0A9;
660	:	0000052F;
661	:	00001CF2;
662	:	0000302C;
663	:	00001FDB;
664	:	00FFE927;
665	:	00FFE2E1;
666	:	00FFD7CF;
667	:	00000031;
668	:	00FFD953;
669	:	00FFE18E;
670	:	00FFF86C;
671	:	00FFF46D;
672	:	000011EB;
673	:	00FFFFFB;
674	:	00001561;
675	:	00000934;
676	:	00FFD51A;
677	:	00FFC1C9;
678	:	00FFC085;
679	:	00FFE3ED;
680	:	00FFF292;
681	:	00FFF531;
682	:	00FFF73B;
683	:	00FFF44C;
684	:	000005D3;
685	:	00000959;
686	:	00FFF8C0;
687	:	00FFDA96;
688	:	00FFCD35;
689	:	00FFAD5C;
690	:	00FFEA64;
691	:	00000717;
692	:	0000039D;
693	:	00FFFF2F;
694	:	00000118;
695	:	000015F6;
696	:	00000623;
697	:	000029A2;
698	:	000014A6;
699	:	00FFE1A1;
700	:	00FFE549;
701	:	00FFED99;
702	:	00000CC5;
703	:	00000ABE;
704	:	00FFFAE1;
705	:	00FFF607;
706	:	00FFEE22;
707	:	00FFFAD7;
708	:	00000F65;
709	:	00000915;
710	:	00001226;
711	:	000003B1;
712	:	00002528;
713	:	00001085;
714	:	0000062B;
715	:	00000394;
716	:	000000F0;
717	:	00000042;
718	:	00FFFC63;
719	:	00000161;
720	:	00FFFFEA;
721	:	000015CA;
722	:	00000C23;
723	:	0000197C;
724	:	00000D14;
725	:	0000014D;
726	:	000000B1;
727	:	000003B5;
728	:	00FFFBD0;
729	:	00000162;
730	:	0000017E;
731	:	00FFFB6E;
732	:	00FFFB44;
733	:	0000037F;
734	:	00FFFCAF;
735	:	00FFFB84;
736	:	00FFFFAB;
737	:	00FFFE7B;
738	:	00FFFD6F;
739	:	0000006F;
740	:	00FFFCCC;
741	:	0000034F;
742	:	00FFFD3A;
743	:	00FFFF4A;
744	:	00FFFBC3;
745	:	00FFFFA7;
746	:	00FFFA1E;
747	:	00FFFA88;
748	:	00000336;
749	:	00FFFE86;
750	:	0000070C;
751	:	00000B49;
752	:	00002D68;
753	:	00FFF310;
754	:	00FFF133;
755	:	00FFEE76;
756	:	00FFE3B3;
757	:	00FFF7F5;
758	:	0000034C;
759	:	00FFFF33;
760	:	00000FA0;
761	:	00003156;
762	:	00001E28;
763	:	000016B0;
764	:	00000B85;
765	:	00000319;
766	:	00FFDCE6;
767	:	00FFE282;
768	:	00FFF96F;
769	:	0000000A;
770	:	0000030E;
771	:	00002EE8;
772	:	00001B69;
773	:	00FFF2A1;
774	:	0000093C;
775	:	00000E49;
776	:	00001631;
777	:	00FFEE2F;
778	:	00FFF218;
779	:	00000CE0;
780	:	00FFFB49;
781	:	00000678;
782	:	00002761;
783	:	00001021;
784	:	000027FD;
785	:	00FFF507;
786	:	00FFFD7F;
787	:	0000101F;
788	:	0000195B;
789	:	00FFF6FC;
790	:	00FFF108;
791	:	00FFFBE0;
792	:	00FFFF3D;
793	:	00FFFD85;
794	:	00FFEBEC;
795	:	00FFEC13;
796	:	00FFE1D8;
797	:	00FFDAFB;
798	:	00000D4A;
799	:	00FFFD80;
800	:	000009E6;
801	:	00FFFF95;
802	:	00FFFE8B;
803	:	000002A2;
804	:	00000090;
805	:	00FFF502;
806	:	00FFF14B;
807	:	00FFDA3A;
808	:	00FFFFBE;
809	:	00FFE84D;
810	:	00FFFA90;
811	:	000011E4;
812	:	00FFFF58;
813	:	00FFF897;
814	:	00000070;
815	:	0000038B;
816	:	00FFFA11;
817	:	00FFD9BE;
818	:	00FFE390;
819	:	00FFF395;
820	:	00FFEFF5;
821	:	00000EFD;
822	:	00FFF691;
823	:	000004B5;
824	:	00FFFBF9;
825	:	00000011;
826	:	00FFFFE0;
827	:	00FFEA37;
828	:	00000434;
829	:	0000070B;
830	:	00FFF836;
831	:	00FFF2C3;
832	:	0000028D;
833	:	00FFF89E;
834	:	00FFFFBE;
835	:	00FFFF09;
836	:	00FFFBA9;
837	:	00000178;
838	:	0000000E;
839	:	00001E1B;
840	:	000021EA;
841	:	000020CB;
842	:	00001362;
843	:	00000863;
844	:	00FFFFDA;
845	:	00FFFFD6;
846	:	00FFFDBF;
847	:	00000522;
848	:	00FFFF14;
849	:	00FFFC65;
850	:	00000156;
851	:	00FFFED3;
852	:	00FFFCE0;
853	:	00FFFF1A;
854	:	00FFFCA5;
855	:	0000040F;
856	:	00FFFD86;
857	:	00FFFD5E;
858	:	000001E1;
859	:	00FFFE92;
860	:	00FFFF00;
861	:	00000089;
862	:	00000108;
863	:	000004D4;
864	:	00FFFF59;
865	:	00000278;
866	:	00000383;
867	:	00FFFC9D;
868	:	0000014C;
869	:	00FFFFB6;
870	:	00FFFAC1;
871	:	00000299;
872	:	000013A7;
873	:	0000300A;
874	:	00000B03;
875	:	00001008;
876	:	00000879;
877	:	0000004B;
878	:	00FFFEB5;
879	:	00FFF992;
880	:	0000011F;
881	:	00FFF7F0;
882	:	00FFFC99;
883	:	0000065D;
884	:	00000ADB;
885	:	00FFDF0C;
886	:	00FFDDE0;
887	:	00FFF46F;
888	:	00FFF3C5;
889	:	00FFF909;
890	:	00FFF62F;
891	:	00FFFD21;
892	:	00FFF28C;
893	:	00FFF199;
894	:	00FFF7C9;
895	:	00FFF881;
896	:	00FFD371;
897	:	00FFEBAF;
898	:	00FFEFBD;
899	:	00FFE8DE;
900	:	00FFF2EB;
901	:	00FFF92B;
902	:	00FFFD30;
903	:	00FFEDB0;
904	:	00FFF6F0;
905	:	000005BF;
906	:	00FFFCC4;
907	:	00FFF75C;
908	:	00000BED;
909	:	00FFEE61;
910	:	00000F27;
911	:	00000BF1;
912	:	000001D0;
913	:	000005A7;
914	:	00FFF867;
915	:	00FFF190;
916	:	00001149;
917	:	000004FF;
918	:	00000288;
919	:	00001DA3;
920	:	00000173;
921	:	00FFF4A9;
922	:	000003AB;
923	:	00000691;
924	:	00000055;
925	:	00FFFD11;
926	:	00000014;
927	:	000019FF;
928	:	00FFE1E6;
929	:	00FFE3FE;
930	:	00001303;
931	:	00FFDAF3;
932	:	00FFC359;
933	:	00FFF0EB;
934	:	00FFFA95;
935	:	0000015D;
936	:	00FFFC4A;
937	:	00000214;
938	:	00FFFC01;
939	:	00FFEB00;
940	:	00FFE6D7;
941	:	00FFDE58;
942	:	00FFE6FE;
943	:	00FFEA5D;
944	:	00FFF129;
945	:	00FFFAA9;
946	:	000000B7;
947	:	00000073;
948	:	0000011B;
949	:	00FFFE9D;
950	:	00FFF7C1;
951	:	00FFDD66;
952	:	00FFE52B;
953	:	00FFE378;
954	:	00FFE6D6;
955	:	00FFFBBE;
956	:	00000154;
957	:	00FFF84A;
958	:	00FFFA2A;
959	:	00FFF434;
960	:	0000052C;
961	:	00FFFBC8;
962	:	00000534;
963	:	00FFF960;
964	:	00FFF3BC;
965	:	00FFEF8A;
966	:	00FFFF49;
967	:	00FFFAFF;
968	:	00000000;
969	:	00000000;
970	:	00000000;
971	:	00000000;
972	:	00000000;
973	:	00000000;
974	:	00000000;
975	:	00000000;
976	:	00000000;
977	:	00000000;
978	:	00000000;
979	:	00000000;
980	:	00000000;
981	:	00000000;
982	:	00000000;
983	:	00000000;
984	:	00000000;
985	:	00000000;
986	:	00000000;
987	:	00000000;
988	:	00000000;
989	:	00000000;
990	:	00000000;
991	:	00000000;
992	:	00000000;
993	:	00000000;
994	:	00000000;
995	:	00000000;
996	:	00000000;
997	:	00000000;
998	:	00000000;
999	:	00000000;
1000	:	00000000;
1001	:	00000000;
1002	:	00000000;
1003	:	00000000;
1004	:	00000000;
1005	:	00000000;
1006	:	00000000;
1007	:	00000000;
1008	:	00000000;
1009	:	00000000;
1010	:	00000000;
1011	:	00000000;
1012	:	00000000;
1013	:	00000000;
1014	:	00000000;
1015	:	00000000;
1016	:	00000000;
1017	:	00000000;
1018	:	00000000;
1019	:	00000000;
1020	:	00000000;
1021	:	00000000;
1022	:	00000000;
1023	:	00000000;
END;