WIDTH = 24;
DEPTH=1024;

ADDRESS_RADIX=UNS;
DATA_RADIX=HEX;

CONTENT BEGIN
0	:	00FFFCE0;
1	:	00FFEB71;
2	:	000009D4;
3	:	00FFF359;
4	:	00FFDD30;
5	:	00FFCC96;
6	:	00FFD2D0;
7	:	00FFE501;
8	:	000000C0;
9	:	00FFFB57;
10	:	00FFFD91;
11	:	000001D9;
12	:	00FFE97C;
13	:	0000036C;
14	:	000006D8;
15	:	00FFC327;
16	:	00FFC03A;
17	:	00FFD78F;
18	:	000000C5;
19	:	00000791;
20	:	00FFFF87;
21	:	0000010B;
22	:	00FFE555;
23	:	00FFE908;
24	:	00FFF55C;
25	:	000002B7;
26	:	00FFCEFE;
27	:	00FFC75F;
28	:	00FFF439;
29	:	000007FD;
30	:	00000435;
31	:	00000579;
32	:	00FFFF2E;
33	:	00FFCDE7;
34	:	00FFE87F;
35	:	00FFDB65;
36	:	00FFDE10;
37	:	00FFC097;
38	:	00FFFCF1;
39	:	0000132F;
40	:	00FFFBE3;
41	:	00FFF16E;
42	:	00000016;
43	:	00FFFCF8;
44	:	00FFD98B;
45	:	00FFC921;
46	:	00FFCD2E;
47	:	00FFD869;
48	:	00FFEEDB;
49	:	00000BB2;
50	:	0000030A;
51	:	00FFD652;
52	:	00FFDDBE;
53	:	00FFEB3D;
54	:	00FFFFC6;
55	:	00FFF781;
56	:	00000537;
57	:	00FFF1B6;
58	:	00001514;
59	:	00FFE1BB;
60	:	00000A73;
61	:	00FFE422;
62	:	00FFD14D;
63	:	00FFCC35;
64	:	00FFE9FF;
65	:	000000F0;
66	:	00FFFC37;
67	:	00001D49;
68	:	000009E4;
69	:	000027ED;
70	:	00000C82;
71	:	00000D75;
72	:	00FFD442;
73	:	00FFC7F9;
74	:	00FFD3B3;
75	:	00FFF121;
76	:	00000195;
77	:	00FFFD4D;
78	:	0000201F;
79	:	00001DC2;
80	:	00002721;
81	:	00002D00;
82	:	00001946;
83	:	00FFEBF2;
84	:	00FFE05F;
85	:	00FFDD38;
86	:	00FFFC5D;
87	:	00FFFF70;
88	:	0000042B;
89	:	000024FC;
90	:	00001692;
91	:	00001C23;
92	:	00002B2D;
93	:	00001558;
94	:	000004FA;
95	:	00FFEC38;
96	:	00FFEEB6;
97	:	00FFFB0C;
98	:	00FFFC0A;
99	:	000011C9;
100	:	00001A75;
101	:	000032DF;
102	:	00001134;
103	:	00000017;
104	:	0000091E;
105	:	00FFF48B;
106	:	00FFF3F3;
107	:	00FFFA50;
108	:	00FFFE7A;
109	:	00FFFBA8;
110	:	0000020C;
111	:	00FFEF35;
112	:	000012B7;
113	:	000014BC;
114	:	00FFDB4B;
115	:	0000004C;
116	:	0000011E;
117	:	00000077;
118	:	00FFFF5A;
119	:	00000257;
120	:	00FFFC9E;
121	:	00000DBA;
122	:	00001C00;
123	:	000036C1;
124	:	00003847;
125	:	00001C2E;
126	:	00FFE93F;
127	:	00FFFC74;
128	:	00FFEF53;
129	:	00FFFF0B;
130	:	00FFF8BC;
131	:	00FFFE4F;
132	:	00000DDD;
133	:	00002486;
134	:	000036FC;
135	:	00004811;
136	:	00001C0E;
137	:	00FFFF57;
138	:	00FFFB1B;
139	:	0000177A;
140	:	00FFFDE3;
141	:	00FFFD02;
142	:	00000136;
143	:	00001C16;
144	:	00003D13;
145	:	00003A83;
146	:	00003CE7;
147	:	0000133C;
148	:	00000AE4;
149	:	000006CF;
150	:	00FFEF4B;
151	:	00FFEF40;
152	:	00FFE1C9;
153	:	00FFF5E8;
154	:	00002DC0;
155	:	000049F5;
156	:	00005105;
157	:	000037FE;
158	:	00001D6C;
159	:	00001750;
160	:	00FFF7E3;
161	:	00FFE16C;
162	:	00FFDF14;
163	:	00FFE1C2;
164	:	00FFE72B;
165	:	00001604;
166	:	000039B8;
167	:	00002477;
168	:	000009CA;
169	:	00FFF089;
170	:	00FFE9B8;
171	:	00FFF130;
172	:	00FFC52D;
173	:	00FFCE58;
174	:	00000280;
175	:	00FFECC6;
176	:	00000105;
177	:	00FFFFDD;
178	:	00FFF58B;
179	:	00FFE327;
180	:	00FFDA5A;
181	:	00FFEAAC;
182	:	00FFF08A;
183	:	000001F9;
184	:	00001912;
185	:	00003127;
186	:	00000CEF;
187	:	00FFF89B;
188	:	00FFF874;
189	:	00FFE50F;
190	:	000006C1;
191	:	00000204;
192	:	000019CC;
193	:	00002185;
194	:	0000318C;
195	:	0000187A;
196	:	00001130;
197	:	00001CE4;
198	:	00FFF8A0;
199	:	00FFF635;
200	:	00FFE556;
201	:	00FFFF3C;
202	:	0000113B;
203	:	00002647;
204	:	00002A0D;
205	:	00005432;
206	:	000028FC;
207	:	00000DB9;
208	:	000002FE;
209	:	00FFFA38;
210	:	00FFF49F;
211	:	00FFE490;
212	:	00FFFEC1;
213	:	00001EC7;
214	:	00003F7B;
215	:	000024C7;
216	:	00004044;
217	:	000026F4;
218	:	0000278B;
219	:	000019BE;
220	:	00FFFF2C;
221	:	00FFF76E;
222	:	00FFFD37;
223	:	00000FD7;
224	:	00002CAC;
225	:	00002563;
226	:	0000280D;
227	:	00004302;
228	:	00003034;
229	:	00001513;
230	:	00000271;
231	:	0000014B;
232	:	00FFFD91;
233	:	00FFF78D;
234	:	00FFFC09;
235	:	00000946;
236	:	000012BB;
237	:	00001515;
238	:	000002D3;
239	:	00FFFEA0;
240	:	00FFF9A4;
241	:	00FFFEB2;
242	:	00FFFE44;
243	:	00FFF2DF;
244	:	00FFEBD8;
245	:	00FFDC33;
246	:	00FFE136;
247	:	00FFCD4C;
248	:	00FFB0F8;
249	:	00FFCBE2;
250	:	00FFE6AA;
251	:	00FFF22C;
252	:	000002C8;
253	:	00FFFDA6;
254	:	0000003A;
255	:	00FFFECD;
256	:	00000F4D;
257	:	00001712;
258	:	00FFF2AB;
259	:	00FFEE02;
260	:	00FFEED7;
261	:	00FFFC5F;
262	:	0000134E;
263	:	00001412;
264	:	00FFFF84;
265	:	00000161;
266	:	00FFEC01;
267	:	00FFF2A9;
268	:	00000B29;
269	:	00FFED19;
270	:	00FFEC21;
271	:	000010FA;
272	:	000008BC;
273	:	00000F8D;
274	:	00000B9D;
275	:	00001D1E;
276	:	00001263;
277	:	00000BA5;
278	:	000002A7;
279	:	00002AAB;
280	:	00001960;
281	:	000037C0;
282	:	00000C0D;
283	:	00000D61;
284	:	0000078D;
285	:	0000000D;
286	:	000046C9;
287	:	000012B0;
288	:	00FFFB76;
289	:	00002196;
290	:	00004424;
291	:	00002BF8;
292	:	000025E3;
293	:	000010C1;
294	:	000019BC;
295	:	0000016D;
296	:	00FFF735;
297	:	00003B21;
298	:	000000F6;
299	:	00002B33;
300	:	00002997;
301	:	000000E5;
302	:	00000018;
303	:	00FFF8E8;
304	:	00FFDED8;
305	:	00FFEC32;
306	:	00FFFD1E;
307	:	00000095;
308	:	0000080D;
309	:	00001FD8;
310	:	000026D8;
311	:	00000F68;
312	:	00FFF33F;
313	:	00FFFC38;
314	:	00FFFB20;
315	:	0000106C;
316	:	0000061C;
317	:	00000EA9;
318	:	00FFFF0D;
319	:	00FFF757;
320	:	00FFFDDB;
321	:	000001FD;
322	:	00FFF1B4;
323	:	00000120;
324	:	0000148C;
325	:	00001CC7;
326	:	000009BD;
327	:	0000048B;
328	:	00000F4A;
329	:	000007F8;
330	:	00FFD5A3;
331	:	00FFC617;
332	:	00FFAE4E;
333	:	00FFF169;
334	:	00FFFA98;
335	:	00002E03;
336	:	0000158B;
337	:	00000C82;
338	:	000022A9;
339	:	00000D10;
340	:	000000AD;
341	:	00FFF210;
342	:	00FFDC91;
343	:	00FFDBDA;
344	:	00FFD6B9;
345	:	00FFE898;
346	:	00000518;
347	:	00FFFBB2;
348	:	00001343;
349	:	0000137B;
350	:	00000882;
351	:	00FFFD93;
352	:	00FFFE9D;
353	:	00FFF4D2;
354	:	00FFF563;
355	:	00FFE022;
356	:	00FFE3C1;
357	:	00FFF4FE;
358	:	00FFFAEF;
359	:	0000052F;
360	:	0000061D;
361	:	00000699;
362	:	00FFFE41;
363	:	000000A4;
364	:	00FFFC37;
365	:	00FFFE12;
366	:	00FFFEDF;
367	:	000004E5;
368	:	0000108B;
369	:	00FFFF6B;
370	:	00000BF1;
371	:	00FFF9EE;
372	:	00FFE9E8;
373	:	00FFF8A9;
374	:	000003EB;
375	:	00000BEA;
376	:	00001C3C;
377	:	0000171D;
378	:	00001B9C;
379	:	00000031;
380	:	00FFEF4C;
381	:	00FFE85D;
382	:	00FFE3B9;
383	:	00FFF903;
384	:	00000209;
385	:	00000678;
386	:	000004DF;
387	:	00001AA2;
388	:	000025D9;
389	:	00000E02;
390	:	00002AAB;
391	:	00001E9A;
392	:	000000B3;
393	:	00FFFFE2;
394	:	0000098F;
395	:	00000FE6;
396	:	00001719;
397	:	00001BB8;
398	:	00001B84;
399	:	00000DA8;
400	:	00FFFCAE;
401	:	00001CE6;
402	:	000027DE;
403	:	00004590;
404	:	000023C6;
405	:	000007B4;
406	:	00FFFD64;
407	:	000017EF;
408	:	000012F8;
409	:	0000111B;
410	:	00FFFAB7;
411	:	00FFFDFD;
412	:	00FFFFBD;
413	:	0000446F;
414	:	00003C6C;
415	:	00003EA6;
416	:	00002A4C;
417	:	00FFFFBF;
418	:	00000814;
419	:	00000256;
420	:	00FFF2EC;
421	:	00FFDB3F;
422	:	00FFD798;
423	:	00001297;
424	:	000022CA;
425	:	00003661;
426	:	000029E5;
427	:	0000007B;
428	:	00FFF74E;
429	:	000005D4;
430	:	00FFFB6B;
431	:	00FFE6D7;
432	:	00FFE3B0;
433	:	00FFCD55;
434	:	00FFD84F;
435	:	00FFE767;
436	:	00FFF204;
437	:	00000067;
438	:	000004DF;
439	:	00FFFC8D;
440	:	00FFF884;
441	:	00FFF564;
442	:	00FFF601;
443	:	00FFFAB1;
444	:	00FFE142;
445	:	00FFF18A;
446	:	00FFE2B0;
447	:	00000EF9;
448	:	0000048C;
449	:	00FFEA57;
450	:	00FFFA55;
451	:	00FFF83F;
452	:	00FFF0F3;
453	:	000004BB;
454	:	00001649;
455	:	00001F76;
456	:	00FFEEE5;
457	:	00FFFFC5;
458	:	00FFF37A;
459	:	00FFFBF6;
460	:	0000026E;
461	:	0000011B;
462	:	00FFFAA7;
463	:	00FFFC9A;
464	:	00001760;
465	:	00003758;
466	:	00004446;
467	:	00001272;
468	:	00001918;
469	:	00000954;
470	:	00000756;
471	:	00FFF6E3;
472	:	00FFFC60;
473	:	00FFFDAE;
474	:	00000169;
475	:	00FFFF68;
476	:	00000976;
477	:	00001C75;
478	:	00001E47;
479	:	00001552;
480	:	00001470;
481	:	00000A79;
482	:	00000006;
483	:	00FFFD91;
484	:	00FFFCCF;
485	:	00FFFD09;
486	:	00FFFE20;
487	:	00FFF621;
488	:	00FFF897;
489	:	00FFF624;
490	:	00FFFCBD;
491	:	00FFFC92;
492	:	00FFFC77;
493	:	00FFFA14;
494	:	00000251;
495	:	00FFFDDA;
496	:	00FFFC3F;
497	:	00FFFAAB;
498	:	00000E2B;
499	:	0000117C;
500	:	00001423;
501	:	0000040A;
502	:	00FFF6C4;
503	:	00FFFE53;
504	:	00FFFF3D;
505	:	00FFFB19;
506	:	00000050;
507	:	00000637;
508	:	0000171F;
509	:	00003B8B;
510	:	00004324;
511	:	00002A41;
512	:	00001CBB;
513	:	00FFF2A8;
514	:	00000890;
515	:	00000301;
516	:	0000027A;
517	:	00000467;
518	:	00001C7B;
519	:	00003363;
520	:	00003D6E;
521	:	000059FF;
522	:	000027CA;
523	:	00000FA7;
524	:	00FFF02B;
525	:	00FFF002;
526	:	00000304;
527	:	000001AA;
528	:	00000619;
529	:	00001E7A;
530	:	000012F5;
531	:	0000095A;
532	:	00001F13;
533	:	00FFFA96;
534	:	00FFEA89;
535	:	00FFD9BE;
536	:	00FFEC2B;
537	:	00FFFE21;
538	:	000001A7;
539	:	00FFF243;
540	:	00000D06;
541	:	000001C6;
542	:	00FFE9BA;
543	:	00FFF564;
544	:	00FFF06D;
545	:	00FFE5D0;
546	:	00FFC588;
547	:	00FFE7B2;
548	:	00FFFE76;
549	:	00FFFDFB;
550	:	00FFF534;
551	:	00000762;
552	:	00FFF16B;
553	:	00FFF39A;
554	:	00FFE332;
555	:	00FFD68D;
556	:	00FFD063;
557	:	00FFC383;
558	:	00FFEB9E;
559	:	00FFFF98;
560	:	000003E0;
561	:	00FFFC82;
562	:	00000171;
563	:	00FFEFA9;
564	:	00FFE524;
565	:	00FFC720;
566	:	00FFE76E;
567	:	00FFF19E;
568	:	00FFE132;
569	:	00FFF57C;
570	:	00FFFC8A;
571	:	00000301;
572	:	000009B1;
573	:	00FFF4F7;
574	:	00FFE632;
575	:	00FFDF9C;
576	:	00FFE1E7;
577	:	00FFF7C2;
578	:	00FFF741;
579	:	00FFE099;
580	:	00FFFA38;
581	:	0000046D;
582	:	000000BF;
583	:	0000019C;
584	:	0000045D;
585	:	000007AC;
586	:	00FFF535;
587	:	00FFF3C0;
588	:	00FFF399;
589	:	00000015;
590	:	00FFF39A;
591	:	00FFFD3D;
592	:	00FFFF49;
593	:	000001F6;
594	:	00FFFFC1;
595	:	00FFFBB6;
596	:	00000D72;
597	:	00FFFE0C;
598	:	000001A0;
599	:	00000290;
600	:	00FFFAA2;
601	:	000002DD;
602	:	0000029F;
603	:	00FFFF23;
604	:	00FFFF9F;
605	:	00FFFF4F;
606	:	00FFFC1E;
607	:	00000499;
608	:	00000DC5;
609	:	00001386;
610	:	00000ACC;
611	:	00FFFF6E;
612	:	00FFFEAB;
613	:	000002CF;
614	:	000002ED;
615	:	00FFFCAF;
616	:	0000023F;
617	:	00000D6E;
618	:	00000F02;
619	:	00003316;
620	:	00002620;
621	:	00001A1D;
622	:	000002AF;
623	:	00FFFBF7;
624	:	00FFF3E0;
625	:	00FFFB1C;
626	:	00000020;
627	:	000001BF;
628	:	00000602;
629	:	000021DE;
630	:	00003C61;
631	:	000026FD;
632	:	00FFFA42;
633	:	00FFF9EE;
634	:	00FFFF83;
635	:	00FFF98F;
636	:	00FFE7FF;
637	:	00FFF938;
638	:	000004F2;
639	:	00FFFF34;
640	:	00FFF994;
641	:	00003C2D;
642	:	00003289;
643	:	00FFFE47;
644	:	00000E47;
645	:	00FFE3FC;
646	:	00FFDC2E;
647	:	00FFEBC9;
648	:	00FFF6BA;
649	:	0000008E;
650	:	00000DBB;
651	:	00FFEB72;
652	:	00FFF6F0;
653	:	00FFF9AC;
654	:	00001168;
655	:	00000DD5;
656	:	00FFDDC8;
657	:	00FFD032;
658	:	00FFE1D8;
659	:	00FFFEE2;
660	:	00FFDF1B;
661	:	00FFED32;
662	:	00FFEEB0;
663	:	00FFC4D8;
664	:	00001368;
665	:	000033F4;
666	:	0000045A;
667	:	00FFD701;
668	:	00FFD3C8;
669	:	00FFF79F;
670	:	00FFFBBA;
671	:	00FFEE2E;
672	:	00FFDB75;
673	:	00FFD393;
674	:	00FFD9BE;
675	:	00FFE63D;
676	:	00FFF060;
677	:	00FFFEF8;
678	:	00FFF290;
679	:	00FFF517;
680	:	00FFFDAD;
681	:	00FFFF39;
682	:	00FFF46D;
683	:	00000A65;
684	:	00FFEEEF;
685	:	00FFFFFA;
686	:	00000D3E;
687	:	00FFFF19;
688	:	00FFF4C1;
689	:	00FFE970;
690	:	00FFE729;
691	:	000001DE;
692	:	00FFF9EA;
693	:	00FFE810;
694	:	00FFFE90;
695	:	00000CD9;
696	:	0000285D;
697	:	00002875;
698	:	00000B43;
699	:	000009A7;
700	:	0000031B;
701	:	00FFE22F;
702	:	00FFF72A;
703	:	00FFF931;
704	:	00FFFC7F;
705	:	00FFF81A;
706	:	000000EC;
707	:	00001053;
708	:	000038B9;
709	:	00003696;
710	:	00000772;
711	:	00FFFB19;
712	:	00FFDF62;
713	:	00FFF2A3;
714	:	00000164;
715	:	00000548;
716	:	000014E8;
717	:	000025F8;
718	:	0000236B;
719	:	00003757;
720	:	00002AE8;
721	:	00001A07;
722	:	000004C2;
723	:	00FFF62F;
724	:	00FFF2C7;
725	:	00FFFE0C;
726	:	00FFFDBB;
727	:	00FFFB2C;
728	:	0000013E;
729	:	00FFFF3F;
730	:	00FFFC03;
731	:	00FFFDF5;
732	:	00FFFEA8;
733	:	00FFF561;
734	:	00FFFCDC;
735	:	00FFFF38;
736	:	0000021E;
737	:	00FFFF05;
738	:	00000223;
739	:	00FFF121;
740	:	00FFE563;
741	:	00FFF717;
742	:	00FFFDA4;
743	:	00001806;
744	:	00000DA1;
745	:	0000176D;
746	:	00001152;
747	:	00FFFE73;
748	:	00FFFCFB;
749	:	00FFF850;
750	:	00FFF9E4;
751	:	00FFF7BB;
752	:	00FFF656;
753	:	0000028D;
754	:	000027A2;
755	:	00001BFB;
756	:	000019DE;
757	:	00001FCB;
758	:	000004F0;
759	:	00FFFAD1;
760	:	00FFFCA5;
761	:	00000122;
762	:	00FFF35D;
763	:	0000119E;
764	:	00000878;
765	:	00001CD1;
766	:	00002BA2;
767	:	00002013;
768	:	00002323;
769	:	00FFFD58;
770	:	00FFFB35;
771	:	00FFFF7E;
772	:	00FFFF85;
773	:	000000B1;
774	:	00FFF89A;
775	:	00FFF9CA;
776	:	00000CAC;
777	:	00000699;
778	:	00000E2F;
779	:	0000086B;
780	:	00000057;
781	:	000000B4;
782	:	00FFF51D;
783	:	000003C0;
784	:	00FFF7D6;
785	:	00FFF68D;
786	:	00FFDB10;
787	:	00FFDE23;
788	:	00FFDB8B;
789	:	00FFE38A;
790	:	00FFF2F1;
791	:	00FFFEE5;
792	:	00FFF987;
793	:	00FFFAE9;
794	:	00FFF42C;
795	:	00FFE076;
796	:	00FFD681;
797	:	00FFD74E;
798	:	00FFE698;
799	:	00FFEB80;
800	:	00FFDD0B;
801	:	00FFF624;
802	:	00FFFE5A;
803	:	000002D3;
804	:	00000289;
805	:	00FFF3EC;
806	:	00FFDDDB;
807	:	00FFDEB7;
808	:	00FFE0DC;
809	:	00FFEF2C;
810	:	00FFFE91;
811	:	00FFE5AE;
812	:	00FFE7D1;
813	:	0000041C;
814	:	000001B7;
815	:	00000066;
816	:	00FFF955;
817	:	00FFF6C5;
818	:	00FFEF5B;
819	:	00FFDD27;
820	:	0000060E;
821	:	0000033A;
822	:	00FFE5EA;
823	:	00FFF9F5;
824	:	000002D7;
825	:	00FFFB80;
826	:	00FFFC2B;
827	:	00FFF9AE;
828	:	00FFF3BE;
829	:	00FFF9D7;
830	:	00FFFE2B;
831	:	0000093B;
832	:	00FFFD12;
833	:	00FFF9AA;
834	:	00FFFBB8;
835	:	00FFFEFF;
836	:	00FFFACE;
837	:	000001B2;
838	:	0000012F;
839	:	00000171;
840	:	00FFF7C7;
841	:	00FFFC43;
842	:	00000493;
843	:	00000234;
844	:	00FFFF3F;
845	:	0000013D;
846	:	00FFFC62;
847	:	00FFFFE0;
848	:	000003E4;
849	:	000005DE;
850	:	0000018D;
851	:	00001109;
852	:	00FFFAAA;
853	:	00000382;
854	:	00FFF5D8;
855	:	00FFF9CA;
856	:	000005C0;
857	:	00FFFEDD;
858	:	00000B87;
859	:	00FFFBCF;
860	:	000003F5;
861	:	00000621;
862	:	00000750;
863	:	000009B6;
864	:	000011C6;
865	:	000014FC;
866	:	0000009C;
867	:	00001331;
868	:	000007BC;
869	:	00000704;
870	:	00000824;
871	:	0000198D;
872	:	00002034;
873	:	000022E5;
874	:	00002ABC;
875	:	00002001;
876	:	00002AEE;
877	:	00001CA3;
878	:	00001010;
879	:	00000144;
880	:	00000B8B;
881	:	00001018;
882	:	00002B65;
883	:	00001154;
884	:	00FFFA49;
885	:	00FFFFA3;
886	:	00002F95;
887	:	00002B3A;
888	:	00001C3C;
889	:	00FFF624;
890	:	0000026D;
891	:	000001C3;
892	:	0000134E;
893	:	00001CB5;
894	:	00000736;
895	:	00FFE9A4;
896	:	00FFDA6C;
897	:	0000171F;
898	:	000021CE;
899	:	00000456;
900	:	00FFF792;
901	:	00FFFC14;
902	:	00FFFF07;
903	:	00000D07;
904	:	0000099C;
905	:	00FFEC33;
906	:	00FFC763;
907	:	00FFDD89;
908	:	00FFFF03;
909	:	00000D6E;
910	:	00000743;
911	:	000003BD;
912	:	0000001A;
913	:	00FFFB6C;
914	:	00FFF272;
915	:	00FFEFDC;
916	:	00FFF5DD;
917	:	00FFD71D;
918	:	00FFFDAE;
919	:	000009A7;
920	:	00000F24;
921	:	00001AF1;
922	:	0000047B;
923	:	00000001;
924	:	00FFFE8C;
925	:	00FFF2D8;
926	:	00FFF54A;
927	:	00000CB2;
928	:	000002A9;
929	:	0000080F;
930	:	00000381;
931	:	00FFF16F;
932	:	00001E91;
933	:	00000647;
934	:	00000127;
935	:	000001AF;
936	:	00FFF824;
937	:	00FFF815;
938	:	0000031E;
939	:	00FFF626;
940	:	000008B2;
941	:	000026AD;
942	:	000005F0;
943	:	000000DB;
944	:	00000548;
945	:	000000F2;
946	:	00FFFCE1;
947	:	00FFFD51;
948	:	00FFFED4;
949	:	00FFFC75;
950	:	000008A2;
951	:	00000AFB;
952	:	000012D3;
953	:	000005B3;
954	:	00000499;
955	:	00FFFDCC;
956	:	00000242;
957	:	00FFFDEC;
958	:	0000004D;
959	:	00FFFE61;
960	:	00FFFF3E;
961	:	000002CE;
962	:	00FFFECC;
963	:	00000471;
964	:	00FFFCBE;
965	:	00FFFB44;
966	:	00FFFFBA;
967	:	00FFFC01;
968	:	00000000;
969	:	00000000;
970	:	00000000;
971	:	00000000;
972	:	00000000;
973	:	00000000;
974	:	00000000;
975	:	00000000;
976	:	00000000;
977	:	00000000;
978	:	00000000;
979	:	00000000;
980	:	00000000;
981	:	00000000;
982	:	00000000;
983	:	00000000;
984	:	00000000;
985	:	00000000;
986	:	00000000;
987	:	00000000;
988	:	00000000;
989	:	00000000;
990	:	00000000;
991	:	00000000;
992	:	00000000;
993	:	00000000;
994	:	00000000;
995	:	00000000;
996	:	00000000;
997	:	00000000;
998	:	00000000;
999	:	00000000;
1000	:	00000000;
1001	:	00000000;
1002	:	00000000;
1003	:	00000000;
1004	:	00000000;
1005	:	00000000;
1006	:	00000000;
1007	:	00000000;
1008	:	00000000;
1009	:	00000000;
1010	:	00000000;
1011	:	00000000;
1012	:	00000000;
1013	:	00000000;
1014	:	00000000;
1015	:	00000000;
1016	:	00000000;
1017	:	00000000;
1018	:	00000000;
1019	:	00000000;
1020	:	00000000;
1021	:	00000000;
1022	:	00000000;
1023	:	00000000;
END;