WIDTH = 24;
DEPTH=1024;

ADDRESS_RADIX=UNS;
DATA_RADIX=HEX;

CONTENT BEGIN
0	:	00FFFE21;
1	:	00000138;
2	:	0000052E;
3	:	000008C7;
4	:	000011A5;
5	:	000024AE;
6	:	000030D9;
7	:	00002DA7;
8	:	0000203C;
9	:	000022D2;
10	:	00000DAD;
11	:	00FFFB55;
12	:	00FFFFF0;
13	:	000007DF;
14	:	00000659;
15	:	00002264;
16	:	0000314B;
17	:	0000498B;
18	:	00002DC4;
19	:	000010FE;
20	:	00002EDA;
21	:	000015B2;
22	:	00FFFE3D;
23	:	00000FF4;
24	:	0000030A;
25	:	00FFF72F;
26	:	0000033A;
27	:	00002D63;
28	:	00004A24;
29	:	00000537;
30	:	00FFF589;
31	:	00000362;
32	:	0000025E;
33	:	00000041;
34	:	00000D15;
35	:	00FFF99F;
36	:	00FFEE68;
37	:	00FFEF61;
38	:	00002D38;
39	:	0000506E;
40	:	000009F6;
41	:	00FFFE48;
42	:	00FFF3EF;
43	:	00FFF59A;
44	:	000001B5;
45	:	000005B4;
46	:	00FFFB49;
47	:	00FFF6F9;
48	:	00FFE00F;
49	:	00002CBF;
50	:	00004FF6;
51	:	00001E11;
52	:	00FFFE35;
53	:	00000138;
54	:	00FFFBC7;
55	:	00FFFB12;
56	:	0000000D;
57	:	00FFFBC9;
58	:	00FFF6A1;
59	:	00FFE823;
60	:	00001FAB;
61	:	00004DC5;
62	:	0000104D;
63	:	00FFEE4B;
64	:	00FFF488;
65	:	00FFF8B0;
66	:	000002D7;
67	:	00000225;
68	:	00FFF4DB;
69	:	00FFFC08;
70	:	00FFF41E;
71	:	00001A81;
72	:	000023FE;
73	:	00000411;
74	:	00FFFA70;
75	:	00FFE587;
76	:	00FFEAD0;
77	:	00000261;
78	:	00FFFBE9;
79	:	00FFF6EA;
80	:	00FFEDB1;
81	:	00000C0F;
82	:	0000227E;
83	:	0000201E;
84	:	00FFE4C4;
85	:	00FFF29F;
86	:	00FFE3D6;
87	:	00FFF80F;
88	:	00000076;
89	:	000002A7;
90	:	00FFF929;
91	:	00FFFA47;
92	:	0000111F;
93	:	0000286F;
94	:	00000197;
95	:	00FFED34;
96	:	00000097;
97	:	00FFF1E3;
98	:	000000F0;
99	:	00FFFC32;
100	:	00FFFFCA;
101	:	00FFFE57;
102	:	00001092;
103	:	00002BFA;
104	:	00002191;
105	:	00002049;
106	:	000009C1;
107	:	000013B4;
108	:	00001786;
109	:	00FFFAE5;
110	:	00000354;
111	:	000004E0;
112	:	00000378;
113	:	00001224;
114	:	000013A1;
115	:	000002CB;
116	:	00FFFF41;
117	:	000005E6;
118	:	00000A50;
119	:	0000074A;
120	:	00FFFAC8;
121	:	000006BE;
122	:	00FFFD47;
123	:	00FFFC10;
124	:	00FFFEEB;
125	:	00FFF9F9;
126	:	00FFF74D;
127	:	00FFFC92;
128	:	00000377;
129	:	00FFFFB5;
130	:	00FFFC27;
131	:	00FFFFE4;
132	:	000002C8;
133	:	00000483;
134	:	00FFFD34;
135	:	00FFF177;
136	:	00FFFCAD;
137	:	00FFF9AA;
138	:	00FFED1B;
139	:	00FFF92C;
140	:	00FFFAB8;
141	:	000000BC;
142	:	000001FD;
143	:	00000684;
144	:	00FFF9A2;
145	:	00FFF710;
146	:	00FFF88A;
147	:	00FFF945;
148	:	00FFDFB4;
149	:	00FFEA7B;
150	:	00FFF03E;
151	:	00FFF02B;
152	:	00FFF297;
153	:	00FFFB12;
154	:	00FFF583;
155	:	00000485;
156	:	00FFF71F;
157	:	00FFDA97;
158	:	00FFE9D2;
159	:	00FFF69B;
160	:	00FFEF99;
161	:	00FFF121;
162	:	00FFEF8D;
163	:	00FFEDF4;
164	:	00FFFB89;
165	:	00FFFA87;
166	:	0000144B;
167	:	00001208;
168	:	00000513;
169	:	00FFF02A;
170	:	00FFF58B;
171	:	00FFF8F2;
172	:	00FFF3E8;
173	:	00FFF80D;
174	:	00FFFA40;
175	:	00FFF949;
176	:	000005B2;
177	:	00FFF7C8;
178	:	00FFFB8C;
179	:	00FFE5ED;
180	:	00FFD9E0;
181	:	00FFF84C;
182	:	00FFFB36;
183	:	00000192;
184	:	00FFFD77;
185	:	00FFFDC7;
186	:	00FFF8C3;
187	:	000000DF;
188	:	00000B16;
189	:	0000092B;
190	:	00FFE29E;
191	:	00FFD78A;
192	:	00FFF65F;
193	:	00FFF073;
194	:	00FFF282;
195	:	00FFEF39;
196	:	00FFFBC7;
197	:	00FFFAED;
198	:	000003ED;
199	:	00001578;
200	:	000016D5;
201	:	00FFDE9A;
202	:	00FFDE47;
203	:	00FFFA56;
204	:	00FFF4C3;
205	:	00FFF01D;
206	:	00FFF291;
207	:	00FFF937;
208	:	00FFFD9C;
209	:	00FFF7FC;
210	:	000006A9;
211	:	00FFF417;
212	:	00FFC595;
213	:	00FFCE4A;
214	:	00000793;
215	:	00001DFA;
216	:	0000202E;
217	:	00002106;
218	:	00FFFDFC;
219	:	000004BA;
220	:	0000147E;
221	:	00000912;
222	:	00001205;
223	:	0000019A;
224	:	00FFF1C2;
225	:	000025D0;
226	:	000039ED;
227	:	0000286E;
228	:	000017AF;
229	:	00001A23;
230	:	000009EF;
231	:	000031CB;
232	:	000011EC;
233	:	0000060B;
234	:	0000049F;
235	:	00000C6B;
236	:	00002ACB;
237	:	0000279F;
238	:	00002188;
239	:	00002090;
240	:	00000782;
241	:	000007C3;
242	:	00FFFF32;
243	:	00FFFEE1;
244	:	00FFFB2B;
245	:	00000170;
246	:	00FFFE3F;
247	:	00FFFCC6;
248	:	00000933;
249	:	000004F2;
250	:	000006C9;
251	:	00001073;
252	:	000005DC;
253	:	00000507;
254	:	00FFFF0E;
255	:	00FFFDDC;
256	:	00FFF7DF;
257	:	00000490;
258	:	000018EF;
259	:	00FFFFA4;
260	:	0000231E;
261	:	00002323;
262	:	00002A64;
263	:	00000558;
264	:	00000081;
265	:	000007C0;
266	:	00FFF37B;
267	:	00FFF29C;
268	:	00FFFE70;
269	:	00FFF015;
270	:	00FFFE2D;
271	:	00FFF964;
272	:	000023C5;
273	:	00001676;
274	:	00FFF4BA;
275	:	00000692;
276	:	0000051E;
277	:	00FFF4A8;
278	:	00FFFC6D;
279	:	00FFFC61;
280	:	00000287;
281	:	00FFF64C;
282	:	00FFF3C7;
283	:	00FFEE3A;
284	:	00FFF97A;
285	:	00FFE631;
286	:	0000038E;
287	:	00FFFE01;
288	:	00FFFDC9;
289	:	00FFEEE0;
290	:	00FFF6F0;
291	:	00000277;
292	:	000018B0;
293	:	00FFE95E;
294	:	00FFE51D;
295	:	00FFF256;
296	:	00FFFE05;
297	:	0000029F;
298	:	000007DC;
299	:	00000544;
300	:	00001E60;
301	:	00002616;
302	:	00001123;
303	:	000018BA;
304	:	00FFFC6D;
305	:	00FFE33F;
306	:	00FFF2D7;
307	:	00FFF897;
308	:	00000419;
309	:	00FFFEA8;
310	:	0000060F;
311	:	0000273A;
312	:	00001B7E;
313	:	000038A4;
314	:	00002D24;
315	:	00FFF11D;
316	:	00FFE903;
317	:	00FFF5E1;
318	:	00FFFB6E;
319	:	000004EB;
320	:	0000057E;
321	:	00000896;
322	:	00001040;
323	:	000035F9;
324	:	000032E4;
325	:	00FFE937;
326	:	00FFD3A0;
327	:	00FFE919;
328	:	00FFF442;
329	:	00FFF7AC;
330	:	000004DA;
331	:	00FFFEE1;
332	:	0000080D;
333	:	00001C01;
334	:	000026D2;
335	:	00FFF1FA;
336	:	00FFB81F;
337	:	00FFE5CF;
338	:	00000428;
339	:	000004B5;
340	:	0000175B;
341	:	0000011B;
342	:	00000DBD;
343	:	00002034;
344	:	00FFFAD0;
345	:	000002D0;
346	:	00FFE3D1;
347	:	00FFD373;
348	:	00FFBF4B;
349	:	00FFECFC;
350	:	00FFED30;
351	:	00FFFAAE;
352	:	0000040D;
353	:	0000126F;
354	:	00FFFCD2;
355	:	00000B21;
356	:	000011B8;
357	:	00000173;
358	:	00FFE5BB;
359	:	00FFCF38;
360	:	00FFF18B;
361	:	00FFF672;
362	:	00FFFD25;
363	:	00000381;
364	:	00FFFC50;
365	:	00FFFEB4;
366	:	00FFF9B8;
367	:	00FFFBEF;
368	:	00FFFA53;
369	:	00FFFA1F;
370	:	00FFF8E7;
371	:	00FFFB40;
372	:	0000025A;
373	:	000002FA;
374	:	000000BF;
375	:	00000987;
376	:	00FFF7B4;
377	:	00FFDC6F;
378	:	00FFDFA1;
379	:	00FFF235;
380	:	00FFE29A;
381	:	00FFD187;
382	:	00FFEF5E;
383	:	00FFF51F;
384	:	00FFF9BC;
385	:	000003CD;
386	:	0000006D;
387	:	00FFF150;
388	:	00FFF5BB;
389	:	00FFEC2F;
390	:	00FFE1A0;
391	:	00FFDBA3;
392	:	00FFEA32;
393	:	00FFF218;
394	:	00FFF635;
395	:	00FFFE89;
396	:	00FFFFFC;
397	:	00FFFE3B;
398	:	00FFF963;
399	:	00FFF8BA;
400	:	00FFE6E9;
401	:	00FFFD96;
402	:	00FFFAE7;
403	:	00FFEF29;
404	:	00FFF3A1;
405	:	00FFF34C;
406	:	00FFFC0A;
407	:	00FFFFF6;
408	:	00FFFA41;
409	:	00FFFC17;
410	:	00FFFD2D;
411	:	00FFF855;
412	:	00FFFF46;
413	:	00FFFEB9;
414	:	000001D3;
415	:	00FFFBA1;
416	:	00FFFA67;
417	:	000001E7;
418	:	0000019B;
419	:	00FFF97F;
420	:	00FFF9B9;
421	:	00FFF155;
422	:	000014CD;
423	:	00000D53;
424	:	00FFFFBD;
425	:	00FFFEB1;
426	:	00FFF60B;
427	:	00FFFA55;
428	:	00FFFF87;
429	:	00FFFF9A;
430	:	00FFFB14;
431	:	00FFFD0C;
432	:	00FFF133;
433	:	00FFFF24;
434	:	00FFE2B2;
435	:	0000000B;
436	:	00FFF4B9;
437	:	00FFF75F;
438	:	00FFFC55;
439	:	00FFFA3E;
440	:	00FFF8BF;
441	:	00FFFD44;
442	:	00FFF45C;
443	:	00FFE46B;
444	:	00FFC2A9;
445	:	00FFE203;
446	:	00FFFBCA;
447	:	00FFFC2A;
448	:	00FFFAFC;
449	:	00FFFD7D;
450	:	000004DA;
451	:	00FFFACF;
452	:	000000D0;
453	:	0000127E;
454	:	00FFFC00;
455	:	00FFE234;
456	:	00000A5A;
457	:	0000072F;
458	:	00FFF7B3;
459	:	00000D76;
460	:	00000A8B;
461	:	0000045A;
462	:	00FFFDE1;
463	:	00000F6F;
464	:	00002F5F;
465	:	0000198F;
466	:	00002AB5;
467	:	00001C3C;
468	:	00FFFE9E;
469	:	00FFF2D3;
470	:	00FFF537;
471	:	00FFFCD2;
472	:	00FFFED5;
473	:	00FFFD9B;
474	:	000000AB;
475	:	00FFFC74;
476	:	000002BD;
477	:	00000B15;
478	:	00000121;
479	:	00FFFE7E;
480	:	0000002A;
481	:	00000100;
482	:	00FFFB97;
483	:	00FFFFC8;
484	:	00FFFD8D;
485	:	00000307;
486	:	00FFFDB0;
487	:	00000417;
488	:	00000205;
489	:	00000156;
490	:	000000B3;
491	:	00000266;
492	:	00FFFC02;
493	:	00FFFB1A;
494	:	00FFFC55;
495	:	00FFFCA6;
496	:	00FFFFDF;
497	:	00FFFA6F;
498	:	00000836;
499	:	00000E48;
500	:	00000962;
501	:	0000116B;
502	:	00000E8A;
503	:	000005FC;
504	:	0000050C;
505	:	00000455;
506	:	000003A0;
507	:	00000214;
508	:	00FFFBAC;
509	:	000007EC;
510	:	00000161;
511	:	00000F92;
512	:	00000223;
513	:	00001E78;
514	:	00001922;
515	:	00001418;
516	:	00000E7F;
517	:	00FFFFF3;
518	:	00FFFDD7;
519	:	00000230;
520	:	00FFF6FA;
521	:	00FFE746;
522	:	00FFDE5F;
523	:	00FFDE16;
524	:	00FFE9B9;
525	:	00001784;
526	:	00000CF8;
527	:	00000366;
528	:	00000134;
529	:	0000000D;
530	:	00FFFD7C;
531	:	00FFF8E3;
532	:	00FFE649;
533	:	00FFCC5D;
534	:	00FFE206;
535	:	00FFF329;
536	:	00000D0D;
537	:	00FFFEC6;
538	:	00FFF8C1;
539	:	00FFFC07;
540	:	0000035F;
541	:	00FFFD43;
542	:	00FFF8F7;
543	:	00FFDF8D;
544	:	00FFCE65;
545	:	00FFDBAF;
546	:	00FFF6A4;
547	:	0000046B;
548	:	00FFF9C8;
549	:	00FFF85A;
550	:	000000D2;
551	:	00FFFF66;
552	:	00FFFD8C;
553	:	00FFF9CB;
554	:	00FFE8B8;
555	:	00FFCA80;
556	:	00FFEC1D;
557	:	00001CFE;
558	:	00FFFF7B;
559	:	00FFFCB0;
560	:	00FFFA37;
561	:	000002E0;
562	:	000001AB;
563	:	00FFFBC0;
564	:	00FFE173;
565	:	00FFD770;
566	:	00FFC2C6;
567	:	00000395;
568	:	00004171;
569	:	0000209D;
570	:	00000031;
571	:	00FFFCEC;
572	:	00000040;
573	:	0000004D;
574	:	00FFF71E;
575	:	00FFE469;
576	:	00FFE11E;
577	:	00FFE3F8;
578	:	0000259E;
579	:	00000E7A;
580	:	00000A68;
581	:	00FFFA43;
582	:	00FFF7AA;
583	:	00000096;
584	:	000003C5;
585	:	00FFFA5A;
586	:	00FFF361;
587	:	000011FA;
588	:	00000F16;
589	:	00FFFF1D;
590	:	00000230;
591	:	0000072E;
592	:	0000056D;
593	:	00000171;
594	:	00FFFC3D;
595	:	00000131;
596	:	0000043F;
597	:	00000821;
598	:	00000D44;
599	:	00000215;
600	:	00000097;
601	:	000005C0;
602	:	000005B6;
603	:	00FFFD75;
604	:	00FFFCC4;
605	:	00000330;
606	:	00000E15;
607	:	000011BE;
608	:	0000124A;
609	:	00001212;
610	:	00000BFD;
611	:	00FFF636;
612	:	00FFEF80;
613	:	00FFEDB2;
614	:	00000069;
615	:	000001CD;
616	:	00FFFC7B;
617	:	0000032A;
618	:	0000156B;
619	:	00000ACC;
620	:	00000CF8;
621	:	00FFDDF4;
622	:	00FFBB97;
623	:	00FFD3B4;
624	:	00FFD2F3;
625	:	00FFE943;
626	:	00FFFC5C;
627	:	00000231;
628	:	0000021A;
629	:	0000151D;
630	:	0000093D;
631	:	00001BBC;
632	:	00000AF6;
633	:	00FFE085;
634	:	00FFDE23;
635	:	00FFF481;
636	:	00FFFB3C;
637	:	00FFFE54;
638	:	00000122;
639	:	00FFFF38;
640	:	00FFF84A;
641	:	00FFEEB8;
642	:	00FFFAE3;
643	:	000003F0;
644	:	00FFF1D5;
645	:	00FFFAA6;
646	:	0000009C;
647	:	00FFFFBA;
648	:	00FFF89D;
649	:	00FFFF72;
650	:	00000038;
651	:	00FFF807;
652	:	00FFE9FF;
653	:	00FFE144;
654	:	00001308;
655	:	00FFFF2F;
656	:	00FFF069;
657	:	00FFF09C;
658	:	00FFF8EF;
659	:	00FFFA5A;
660	:	000001FE;
661	:	00FFFF90;
662	:	00FFF3B7;
663	:	00FFED49;
664	:	00FFE314;
665	:	00FFF778;
666	:	00FFEEE2;
667	:	00FFF1BB;
668	:	00FFE6FB;
669	:	00FFF4C9;
670	:	00FFF963;
671	:	00FFFE79;
672	:	00FFF8CB;
673	:	00FFEE58;
674	:	00FFF134;
675	:	00FFF2DA;
676	:	00FFE810;
677	:	00FFECD8;
678	:	00FFFD5E;
679	:	00FFF390;
680	:	0000006E;
681	:	00FFFB94;
682	:	00FFFC00;
683	:	00FFEA7C;
684	:	00FFF014;
685	:	00FFF93E;
686	:	00FFE8D1;
687	:	00FFE61C;
688	:	00FFD4C8;
689	:	00FFFC4D;
690	:	00FFFC57;
691	:	000005C9;
692	:	00000823;
693	:	0000035D;
694	:	00FFF405;
695	:	00FFF575;
696	:	00FFEC5B;
697	:	00FFD9A2;
698	:	00FFE45B;
699	:	00FFE9AB;
700	:	0000155D;
701	:	00000B1B;
702	:	00FFF74B;
703	:	00000208;
704	:	00FFFB8E;
705	:	000002AE;
706	:	00FFFF60;
707	:	00FFFA6E;
708	:	00FFF8AE;
709	:	00FFF8B1;
710	:	0000093A;
711	:	00FFF399;
712	:	000001C1;
713	:	00FFFC51;
714	:	00FFFD65;
715	:	00000077;
716	:	00FFFE28;
717	:	000001DB;
718	:	0000067D;
719	:	000000CE;
720	:	00FFFA16;
721	:	00FFF605;
722	:	00FFF675;
723	:	00FFFED5;
724	:	00000226;
725	:	00000493;
726	:	00FFFB17;
727	:	000000D1;
728	:	000003BB;
729	:	00FFFFA7;
730	:	00FFFDD3;
731	:	000002B7;
732	:	0000030B;
733	:	00000360;
734	:	000004DA;
735	:	00FFFED8;
736	:	00FFFAE3;
737	:	0000030D;
738	:	000002F2;
739	:	00FFFB7C;
740	:	00000369;
741	:	00FFFF1B;
742	:	00000113;
743	:	00FFFEAC;
744	:	00FFFFB5;
745	:	00000780;
746	:	00FFFE80;
747	:	00FFFC37;
748	:	00FFFDB4;
749	:	0000019A;
750	:	00FFF54E;
751	:	00FFDEAA;
752	:	00FFEE5E;
753	:	0000071D;
754	:	00000FF0;
755	:	00001FAE;
756	:	00002755;
757	:	00000BD8;
758	:	00FFFD57;
759	:	00000037;
760	:	00000145;
761	:	00FFF27B;
762	:	00FFE5ED;
763	:	00FFF56E;
764	:	00000A99;
765	:	00002891;
766	:	00003B83;
767	:	00002E4A;
768	:	0000011D;
769	:	00FFFDCC;
770	:	00FFFB1C;
771	:	00FFF94B;
772	:	00FFF54A;
773	:	00FFE937;
774	:	00FFFCDA;
775	:	00002332;
776	:	00002956;
777	:	00002872;
778	:	00000D8D;
779	:	00FFFD90;
780	:	00FFFCEE;
781	:	00FFFB9E;
782	:	00FFFAF1;
783	:	00FFF73B;
784	:	00FFFC1B;
785	:	00FFE851;
786	:	00004BE9;
787	:	00002CDF;
788	:	00001EDC;
789	:	00000002;
790	:	00FFFE68;
791	:	0000013C;
792	:	0000037C;
793	:	00FFFD3C;
794	:	00FFFBAA;
795	:	00FFF0BF;
796	:	00000E92;
797	:	0000459E;
798	:	00001810;
799	:	00FFFBA5;
800	:	00000008;
801	:	00FFFB76;
802	:	00FFFCF4;
803	:	00000013;
804	:	00FFFB64;
805	:	00FFF16A;
806	:	000009E9;
807	:	00001761;
808	:	00001A6E;
809	:	0000020D;
810	:	00FFFB1C;
811	:	00FFFBA3;
812	:	00FFF9E2;
813	:	00FFFE84;
814	:	0000027F;
815	:	00FFFB6F;
816	:	0000064E;
817	:	000020BC;
818	:	00000E76;
819	:	00000896;
820	:	00FFFBE7;
821	:	00FFFB18;
822	:	00FFFF1E;
823	:	000000AC;
824	:	00FFFB72;
825	:	00FFFD47;
826	:	000000FB;
827	:	0000234D;
828	:	00003103;
829	:	00001AF6;
830	:	00000FE2;
831	:	00FFFED0;
832	:	0000000B;
833	:	00FFFE1D;
834	:	00FFFB34;
835	:	00FFFECB;
836	:	000000FF;
837	:	00000231;
838	:	00000A0D;
839	:	00FFFF7E;
840	:	00FFF838;
841	:	0000055E;
842	:	00000276;
843	:	00FFFFEE;
844	:	00FFFA73;
845	:	00FFFD3B;
846	:	00FFFE0D;
847	:	0000020C;
848	:	00000125;
849	:	00FFFBBB;
850	:	00FFFCEB;
851	:	000004D3;
852	:	00FFFEFB;
853	:	00000333;
854	:	0000042C;
855	:	00FFFB64;
856	:	000001C5;
857	:	00FFFD18;
858	:	00FFFCD9;
859	:	00FFFBF0;
860	:	00FFFCBE;
861	:	00FFFF02;
862	:	000001FE;
863	:	0000061F;
864	:	000001F2;
865	:	00FFF7D9;
866	:	00FFFEA7;
867	:	0000023A;
868	:	00FFFF7C;
869	:	00FFFB8F;
870	:	00000441;
871	:	00FFFF77;
872	:	00FFE925;
873	:	00FFD0BE;
874	:	00FFE669;
875	:	00FFDFCF;
876	:	00FFDFCC;
877	:	00FFDC79;
878	:	00FFEBBA;
879	:	00FFFBE7;
880	:	00FFFEE1;
881	:	00FFFA14;
882	:	00FFF7AD;
883	:	00FFE77E;
884	:	00FFE4F6;
885	:	00FFE13E;
886	:	00FFE1CC;
887	:	00FFCDED;
888	:	00FFEAE5;
889	:	00FFFF94;
890	:	000003B9;
891	:	00FFFFF7;
892	:	0000016F;
893	:	0000001A;
894	:	00000E58;
895	:	000013AD;
896	:	00FFFCB1;
897	:	00FFE6B2;
898	:	00FFF15C;
899	:	00FFF9B8;
900	:	00FFF976;
901	:	00FFF800;
902	:	0000026D;
903	:	00000165;
904	:	00FFFE2A;
905	:	00FFFA7B;
906	:	000011C5;
907	:	00FFFB2B;
908	:	00FFF90A;
909	:	000005AD;
910	:	00FFF510;
911	:	00FFFEDE;
912	:	00FFFB1F;
913	:	0000021B;
914	:	00FFFBF8;
915	:	00FFF610;
916	:	00FFFE1B;
917	:	000002F6;
918	:	00FFFD4E;
919	:	00FFE882;
920	:	00FFEE2A;
921	:	00FFF525;
922	:	00FFFA39;
923	:	0000017D;
924	:	00FFFEC5;
925	:	00000198;
926	:	00FFFC1F;
927	:	00FFFC0A;
928	:	00001161;
929	:	000004CC;
930	:	00FFE6CC;
931	:	00FFEC3D;
932	:	00FFF77E;
933	:	00FFFD95;
934	:	00FFFF68;
935	:	00FFFA38;
936	:	00FFFCDB;
937	:	00FFF9B2;
938	:	00FFFB2D;
939	:	00000D56;
940	:	00FFF4C2;
941	:	0000003B;
942	:	000008E7;
943	:	000001F6;
944	:	0000042B;
945	:	00FFFE42;
946	:	00FFFDE1;
947	:	00FFFCA4;
948	:	00FFF610;
949	:	00FFF3CA;
950	:	0000040F;
951	:	00FFF25A;
952	:	00001FB0;
953	:	00001DFF;
954	:	00000353;
955	:	00000496;
956	:	000002B8;
957	:	00000511;
958	:	00000466;
959	:	0000062A;
960	:	00FFEB4F;
961	:	00FFF7A3;
962	:	00FFFAA7;
963	:	00FFFA33;
964	:	00FFF54C;
965	:	00FFF3B8;
966	:	00FFFE9F;
967	:	000003DA;
968	:	00000000;
969	:	00000000;
970	:	00000000;
971	:	00000000;
972	:	00000000;
973	:	00000000;
974	:	00000000;
975	:	00000000;
976	:	00000000;
977	:	00000000;
978	:	00000000;
979	:	00000000;
980	:	00000000;
981	:	00000000;
982	:	00000000;
983	:	00000000;
984	:	00000000;
985	:	00000000;
986	:	00000000;
987	:	00000000;
988	:	00000000;
989	:	00000000;
990	:	00000000;
991	:	00000000;
992	:	00000000;
993	:	00000000;
994	:	00000000;
995	:	00000000;
996	:	00000000;
997	:	00000000;
998	:	00000000;
999	:	00000000;
1000	:	00000000;
1001	:	00000000;
1002	:	00000000;
1003	:	00000000;
1004	:	00000000;
1005	:	00000000;
1006	:	00000000;
1007	:	00000000;
1008	:	00000000;
1009	:	00000000;
1010	:	00000000;
1011	:	00000000;
1012	:	00000000;
1013	:	00000000;
1014	:	00000000;
1015	:	00000000;
1016	:	00000000;
1017	:	00000000;
1018	:	00000000;
1019	:	00000000;
1020	:	00000000;
1021	:	00000000;
1022	:	00000000;
1023	:	00000000;
END;