WIDTH = 24;
DEPTH=1024;

ADDRESS_RADIX=UNS;
DATA_RADIX=HEX;

CONTENT BEGIN
0	:	00000F20;
1	:	00000156;
2	:	00001D72;
3	:	00000B59;
4	:	000001A9;
5	:	00FFFEF1;
6	:	00001251;
7	:	00FFFD7A;
8	:	00FFFAA4;
9	:	00000035;
10	:	000000D2;
11	:	00001624;
12	:	0000099D;
13	:	00000F7D;
14	:	000036E0;
15	:	000024E2;
16	:	000019F6;
17	:	00000CBA;
18	:	00FFFF1A;
19	:	0000020A;
20	:	0000012D;
21	:	00FFFF96;
22	:	00FFFD0B;
23	:	00FFFDF2;
24	:	00FFFB28;
25	:	00000F77;
26	:	00000212;
27	:	000010A4;
28	:	00000885;
29	:	00FFF884;
30	:	00FFFCA7;
31	:	00FFFD2F;
32	:	00000179;
33	:	00FFFBEA;
34	:	00000041;
35	:	00FFFE0B;
36	:	00FFC323;
37	:	00FFE49A;
38	:	00FFF288;
39	:	00FFF104;
40	:	0000030A;
41	:	00FFFAF8;
42	:	000004B2;
43	:	00FFFDB0;
44	:	00000163;
45	:	000008D0;
46	:	00FFEB4F;
47	:	00FFDF6A;
48	:	00FFE1D0;
49	:	00FFE9A6;
50	:	00FFFEEB;
51	:	00000F1A;
52	:	00FFFF09;
53	:	00000E6E;
54	:	00FFFCB7;
55	:	00FFF8AE;
56	:	000004FF;
57	:	00FFFAB5;
58	:	00001EEE;
59	:	00FFDF16;
60	:	00FFF3B7;
61	:	00FFEB3C;
62	:	00000262;
63	:	000007B4;
64	:	0000116A;
65	:	00000428;
66	:	00000092;
67	:	00000871;
68	:	00FFFA62;
69	:	000026A6;
70	:	00FFF1B2;
71	:	00FFF90F;
72	:	00FFFB6E;
73	:	00000D9D;
74	:	00001751;
75	:	00000799;
76	:	00FFFF71;
77	:	00FFF702;
78	:	00FFFAF4;
79	:	00001D3A;
80	:	00003061;
81	:	00000B31;
82	:	000028A6;
83	:	000027ED;
84	:	00005379;
85	:	000021F2;
86	:	0000044E;
87	:	00000331;
88	:	0000011F;
89	:	00001815;
90	:	0000271A;
91	:	00003322;
92	:	00002197;
93	:	000048DD;
94	:	00004394;
95	:	0000525E;
96	:	000024CD;
97	:	0000088C;
98	:	00000415;
99	:	00001F48;
100	:	00000AEE;
101	:	00001C20;
102	:	0000382B;
103	:	000040F8;
104	:	00003F51;
105	:	00002F91;
106	:	00001ED2;
107	:	00000D11;
108	:	00FFFD34;
109	:	0000004F;
110	:	00000B72;
111	:	000015C4;
112	:	000002B8;
113	:	00FFFE38;
114	:	0000113D;
115	:	00FFF6E3;
116	:	00FFF0D5;
117	:	00FFEE89;
118	:	00FFF20B;
119	:	00000048;
120	:	00FFFF3B;
121	:	000000D0;
122	:	000011A4;
123	:	00003109;
124	:	00002A63;
125	:	000018A3;
126	:	00FFE9F9;
127	:	00FFD076;
128	:	00FFCFF9;
129	:	00FFD75B;
130	:	00FFE6F1;
131	:	00FFF5B8;
132	:	00FFF829;
133	:	00000534;
134	:	00002743;
135	:	00000339;
136	:	00FFDEC6;
137	:	00FFD055;
138	:	00FFD636;
139	:	00FFE82A;
140	:	00FFE997;
141	:	00FFFBE5;
142	:	00000A23;
143	:	00FFFC73;
144	:	000011D4;
145	:	00000881;
146	:	00FFE726;
147	:	00FFDF34;
148	:	00FFEE88;
149	:	00000D0F;
150	:	000003C4;
151	:	00000F89;
152	:	000014D9;
153	:	000012F1;
154	:	00FFF7EC;
155	:	00001059;
156	:	00001541;
157	:	000005B5;
158	:	00FFED77;
159	:	0000117A;
160	:	0000355E;
161	:	000030C9;
162	:	00001F5D;
163	:	0000254C;
164	:	00002552;
165	:	00FFFEC1;
166	:	00000555;
167	:	00000815;
168	:	00FFFA1F;
169	:	00000547;
170	:	000019B2;
171	:	00004E03;
172	:	00004F62;
173	:	00004922;
174	:	000044C4;
175	:	0000217B;
176	:	000002F5;
177	:	00000A41;
178	:	000005BB;
179	:	00FFF22C;
180	:	00FFE1C9;
181	:	00FFED13;
182	:	00001CB1;
183	:	000014AA;
184	:	00001EB1;
185	:	000024EF;
186	:	00FFF940;
187	:	00FFFD5E;
188	:	00FFF77D;
189	:	00FFEB12;
190	:	00FFE3A0;
191	:	00FFE573;
192	:	00FFDD38;
193	:	00FFDDF0;
194	:	00FFE93E;
195	:	00FFEC27;
196	:	00FFE438;
197	:	00FFEDD1;
198	:	00000008;
199	:	00FFF255;
200	:	00FFEC9E;
201	:	00FFDB12;
202	:	00FFD402;
203	:	00FFDEF8;
204	:	00FFCF6C;
205	:	00FFE509;
206	:	00FFE528;
207	:	00FFEEED;
208	:	00FFF6E3;
209	:	00FFF9E1;
210	:	00FFF52C;
211	:	00FFF5A1;
212	:	00FFDE9B;
213	:	00FFC056;
214	:	00FFB499;
215	:	00FFC826;
216	:	00FFE008;
217	:	00FFE06C;
218	:	00FFF051;
219	:	00FFF013;
220	:	00000095;
221	:	00FFFE53;
222	:	00FFFEB2;
223	:	00FFF3ED;
224	:	00FFF2AD;
225	:	00FFF455;
226	:	00FFFB98;
227	:	00000014;
228	:	00FFF35B;
229	:	00FFFB69;
230	:	00FFFCA3;
231	:	00FFFB5E;
232	:	00FFF47B;
233	:	00FFF85D;
234	:	00FFF872;
235	:	00FFFB68;
236	:	00FFF692;
237	:	00FFF715;
238	:	00FFF88A;
239	:	00FFF84E;
240	:	00000219;
241	:	00FFF8A2;
242	:	00FFFD1E;
243	:	00FFF681;
244	:	00FFF2F2;
245	:	00FFF98F;
246	:	00000B97;
247	:	000001E8;
248	:	00001F46;
249	:	00000B4C;
250	:	000000E4;
251	:	00FFF22E;
252	:	000000F7;
253	:	00FFF9D5;
254	:	00FFEF49;
255	:	00FFE07B;
256	:	00FFEEB9;
257	:	00FFF445;
258	:	00000B4C;
259	:	00002166;
260	:	00001687;
261	:	00FFFFC3;
262	:	0000039B;
263	:	00FFFA9E;
264	:	00FFF7D1;
265	:	000009D7;
266	:	00FFE5A3;
267	:	00FFF1BF;
268	:	00FFE953;
269	:	00FFFA83;
270	:	00000E42;
271	:	00000147;
272	:	00001687;
273	:	00001677;
274	:	000004E6;
275	:	00000C75;
276	:	000017F1;
277	:	00FFF13A;
278	:	00FFE538;
279	:	00FFE294;
280	:	0000032D;
281	:	00FFF535;
282	:	00000515;
283	:	00001CD9;
284	:	00001920;
285	:	000003B3;
286	:	00FFF367;
287	:	0000227A;
288	:	00000D1C;
289	:	00FFE791;
290	:	00FFDCC2;
291	:	00FFD9C3;
292	:	00FFF0F6;
293	:	000010B1;
294	:	00000BED;
295	:	0000077D;
296	:	00FFFEF5;
297	:	0000063B;
298	:	00002F5F;
299	:	00001112;
300	:	00FFD61D;
301	:	00FFE494;
302	:	00FFE3F1;
303	:	00FFFBD1;
304	:	000005B5;
305	:	0000061F;
306	:	00FFEF4B;
307	:	00FFF2FB;
308	:	00001146;
309	:	00002408;
310	:	00000C62;
311	:	00FFFC84;
312	:	00FFEB90;
313	:	00000BFA;
314	:	00003199;
315	:	00000587;
316	:	00FFF5AF;
317	:	00FFF4E1;
318	:	00FFFF7D;
319	:	00003080;
320	:	00002AB6;
321	:	000021A1;
322	:	00000969;
323	:	00FFEBB0;
324	:	00001648;
325	:	00FFFC6C;
326	:	00FFE8AA;
327	:	00FFF610;
328	:	00FFF271;
329	:	000001B3;
330	:	00003921;
331	:	00002D2F;
332	:	00002809;
333	:	00000A76;
334	:	0000009B;
335	:	00001386;
336	:	000006C1;
337	:	00FFF373;
338	:	000001D8;
339	:	00FFFE5F;
340	:	00FFF9DB;
341	:	000028D0;
342	:	00001AD9;
343	:	0000088A;
344	:	00FFFFE7;
345	:	0000059A;
346	:	00FFFFD2;
347	:	00FFFFE8;
348	:	00FFFA2E;
349	:	00FFFE2E;
350	:	00FFFEFB;
351	:	0000040E;
352	:	0000069E;
353	:	00FFF6E2;
354	:	00FFF7AF;
355	:	00FFFD8A;
356	:	00FFF792;
357	:	00FFF55E;
358	:	00FFF608;
359	:	00FFF497;
360	:	00FFFA84;
361	:	000001A3;
362	:	00FFFDBC;
363	:	00FFFC02;
364	:	00FFFBFD;
365	:	00FFFD76;
366	:	00FFFFC5;
367	:	00FFFFAC;
368	:	00FFFB6A;
369	:	00FFF8B3;
370	:	00FFFA7F;
371	:	0000008A;
372	:	000001BF;
373	:	00FFFF00;
374	:	00000136;
375	:	00FFFF11;
376	:	00FFFA21;
377	:	00FFFB83;
378	:	00FFF50C;
379	:	00FFFE7A;
380	:	00FFF87D;
381	:	00FFF9E4;
382	:	00FFF7C1;
383	:	00FFF700;
384	:	00000145;
385	:	00FFFB72;
386	:	00FFFD6E;
387	:	00000555;
388	:	00000681;
389	:	00001662;
390	:	00000824;
391	:	00FFF0E9;
392	:	00FFECC8;
393	:	00FFF99C;
394	:	00000431;
395	:	00FFFE13;
396	:	00FFFB04;
397	:	00FFFF72;
398	:	000005FE;
399	:	000025C9;
400	:	00002E0C;
401	:	0000198D;
402	:	00000A93;
403	:	00FFEE4D;
404	:	000000AE;
405	:	000007E2;
406	:	000009D3;
407	:	00000237;
408	:	00FFFD71;
409	:	00FFF6FF;
410	:	00000852;
411	:	00000A9C;
412	:	00FFEE9A;
413	:	00FFCDC3;
414	:	00FFEE6B;
415	:	00FFDF09;
416	:	00FFF737;
417	:	000004E1;
418	:	000002A8;
419	:	00000047;
420	:	00FFFE50;
421	:	00FFD9A6;
422	:	00FFDB4E;
423	:	00FFF9B6;
424	:	00FFF6A4;
425	:	00000B80;
426	:	00000B80;
427	:	00001C03;
428	:	00000389;
429	:	00FFFF0E;
430	:	00000486;
431	:	00FFE5F2;
432	:	00FFC2A0;
433	:	00FFE8D9;
434	:	00000D4F;
435	:	00FFF442;
436	:	000002FF;
437	:	00FFFDEA;
438	:	0000040A;
439	:	000006AC;
440	:	00000DD4;
441	:	00000804;
442	:	00FFF0AC;
443	:	00FFC69E;
444	:	00FFC797;
445	:	00FFF525;
446	:	00FFEDAD;
447	:	00FFE389;
448	:	00FFCC85;
449	:	00FFE780;
450	:	00000C2C;
451	:	00000C0B;
452	:	000003CB;
453	:	00FFD8DA;
454	:	00FFD224;
455	:	00FFD012;
456	:	00FFACBE;
457	:	00FFB30B;
458	:	00FFC3A6;
459	:	00FFCFD0;
460	:	00000278;
461	:	0000087C;
462	:	000006A9;
463	:	00000344;
464	:	00FFFEB4;
465	:	00FFEA58;
466	:	00FFCCE8;
467	:	00FFD80A;
468	:	00FFD2C6;
469	:	00FFE0B0;
470	:	00FFFB2B;
471	:	00FFFDBB;
472	:	00FFFD3E;
473	:	0000019E;
474	:	00FFFB82;
475	:	00FFFC32;
476	:	00FFFD74;
477	:	00FFFDC9;
478	:	00FFF62E;
479	:	00FFFEA7;
480	:	00000150;
481	:	00FFFC32;
482	:	00FFFF55;
483	:	00FFFA43;
484	:	00FFFF85;
485	:	0000014E;
486	:	00FFF62A;
487	:	00FFF5B0;
488	:	00FFF7B1;
489	:	000007B5;
490	:	00FFFBAB;
491	:	00FFFD0A;
492	:	00FFFE12;
493	:	00000271;
494	:	00FFFEEA;
495	:	0000038D;
496	:	00FFFEF9;
497	:	00FFFF88;
498	:	000014FC;
499	:	00FFF2C7;
500	:	00000657;
501	:	00FFFE4E;
502	:	00000008;
503	:	00000064;
504	:	000002DB;
505	:	0000004D;
506	:	000010A7;
507	:	00000D1C;
508	:	00000EEE;
509	:	00FFE865;
510	:	00FFEF3A;
511	:	000000D5;
512	:	00FFF10A;
513	:	00FFF5E3;
514	:	00FFFC3C;
515	:	00FFFED9;
516	:	00FFFF93;
517	:	0000177B;
518	:	00000E3E;
519	:	00FFFFFB;
520	:	0000034E;
521	:	00FFEB12;
522	:	00FFFA33;
523	:	00000493;
524	:	000009DE;
525	:	00FFF88C;
526	:	00FFFD86;
527	:	00FFFC1D;
528	:	00000608;
529	:	00000EA6;
530	:	00000DCD;
531	:	00FFF100;
532	:	00FFEB44;
533	:	000032A7;
534	:	00003380;
535	:	00002496;
536	:	000001BB;
537	:	00FFFB43;
538	:	00000047;
539	:	00000A49;
540	:	00000B5F;
541	:	0000232D;
542	:	0000116B;
543	:	000018B7;
544	:	0000300E;
545	:	00002D76;
546	:	0000351A;
547	:	000024EC;
548	:	00FFFDA0;
549	:	00000178;
550	:	000013B1;
551	:	000024E0;
552	:	00003FB8;
553	:	00001E9A;
554	:	00001CF4;
555	:	00004B20;
556	:	000015FF;
557	:	00001B9C;
558	:	00000EBC;
559	:	000004DC;
560	:	00FFFCFA;
561	:	0000240E;
562	:	00001790;
563	:	000020CC;
564	:	000010BD;
565	:	00001A8B;
566	:	00001FE9;
567	:	00003F29;
568	:	00000FF7;
569	:	0000132C;
570	:	0000023B;
571	:	0000030F;
572	:	000016F1;
573	:	00001697;
574	:	00000CC2;
575	:	000016D2;
576	:	000020A6;
577	:	00FFFDA7;
578	:	000004AA;
579	:	00FFF4AE;
580	:	000000F8;
581	:	000006E0;
582	:	00FFFDDA;
583	:	000003AB;
584	:	00000027;
585	:	0000034F;
586	:	00000BAA;
587	:	0000129C;
588	:	00FFF293;
589	:	00FFFBB8;
590	:	00FFFA67;
591	:	00FFFC34;
592	:	00FFFC23;
593	:	00FFFF1A;
594	:	00FFFFE1;
595	:	00000242;
596	:	000003A6;
597	:	00000130;
598	:	0000004C;
599	:	00FFFA22;
600	:	00FFFBBF;
601	:	00000146;
602	:	000001B0;
603	:	00000293;
604	:	00000259;
605	:	00FFFD95;
606	:	00FFFA3C;
607	:	00FFF120;
608	:	00FFFADC;
609	:	00FFFB1F;
610	:	000008CF;
611	:	00FFFFD9;
612	:	00FFFE39;
613	:	00FFFFDE;
614	:	0000047A;
615	:	00FFFEED;
616	:	00FFFE82;
617	:	0000077F;
618	:	00000D3E;
619	:	0000139F;
620	:	0000019B;
621	:	00FFF355;
622	:	00FFF870;
623	:	00FFF988;
624	:	00FFFB33;
625	:	00FFFB91;
626	:	00000293;
627	:	00FFFEA7;
628	:	00001A9D;
629	:	00000C8C;
630	:	00FFF69A;
631	:	00FFF379;
632	:	00FFEAFB;
633	:	00FFF0A1;
634	:	00FFF574;
635	:	00FFF7E6;
636	:	00FFF755;
637	:	000001FC;
638	:	00FFF1FD;
639	:	00FFEA9A;
640	:	00FFEE03;
641	:	00FFF641;
642	:	00FFE536;
643	:	00FFF13A;
644	:	00000EEF;
645	:	00000B6A;
646	:	00000269;
647	:	000009E5;
648	:	000001A0;
649	:	00000072;
650	:	00FFECF1;
651	:	00FFE0AD;
652	:	00FFEF2A;
653	:	00FFD7D6;
654	:	00000354;
655	:	0000054B;
656	:	0000102D;
657	:	00000E0F;
658	:	000000B2;
659	:	0000036D;
660	:	00FFF4A6;
661	:	00FFF99C;
662	:	00FFEEC9;
663	:	00FFEBB8;
664	:	00FFE9CA;
665	:	000001D5;
666	:	00003A34;
667	:	0000281A;
668	:	00000576;
669	:	00FFFDF5;
670	:	0000003A;
671	:	00FFEA05;
672	:	00FFF00A;
673	:	00FFF32F;
674	:	00FFF33E;
675	:	00FFFAD5;
676	:	00FFFC1E;
677	:	00001675;
678	:	00002817;
679	:	00001274;
680	:	00FFF506;
681	:	00FFFFF5;
682	:	00FFF47F;
683	:	00FFF451;
684	:	00FFE26D;
685	:	00FFE96C;
686	:	00FFE360;
687	:	00FFE193;
688	:	00000D30;
689	:	0000150E;
690	:	0000217C;
691	:	00001E67;
692	:	00FFFBF2;
693	:	00FFFAF7;
694	:	00FFF578;
695	:	00FFEE3A;
696	:	00FFF769;
697	:	00FFCC3C;
698	:	00FFCEA2;
699	:	00FFDB8F;
700	:	00000091;
701	:	000011DB;
702	:	00000932;
703	:	0000031B;
704	:	00FFFB2C;
705	:	00FFE460;
706	:	00FFEB2E;
707	:	00FFD2F1;
708	:	00FFDE7C;
709	:	00FFDF4E;
710	:	00FFEA51;
711	:	00FFF5A8;
712	:	00FFF9F3;
713	:	00000DD9;
714	:	00FFFF48;
715	:	00FFFB86;
716	:	00FFFE27;
717	:	00FFFA74;
718	:	00FFF923;
719	:	00FFF293;
720	:	00FFF982;
721	:	00000039;
722	:	0000021A;
723	:	00FFF386;
724	:	00FFFD06;
725	:	00000040;
726	:	000002C7;
727	:	00000264;
728	:	00FFFC55;
729	:	00FFEFED;
730	:	00FFEF1A;
731	:	00FFF12B;
732	:	00FFF98B;
733	:	00FFF8DF;
734	:	00FFFD41;
735	:	00FFFC76;
736	:	00000280;
737	:	00FFFF5E;
738	:	00FFFC57;
739	:	00000588;
740	:	000009E1;
741	:	0000268C;
742	:	00001232;
743	:	00000310;
744	:	00001166;
745	:	00FFF827;
746	:	0000022A;
747	:	00FFFB72;
748	:	00000489;
749	:	00FFFFC6;
750	:	00000057;
751	:	00001F84;
752	:	000018C4;
753	:	00001DC3;
754	:	00000D68;
755	:	00FFF5BA;
756	:	00FFFB5D;
757	:	000004AE;
758	:	0000051C;
759	:	00FFFD0F;
760	:	000006A5;
761	:	0000079A;
762	:	000024B5;
763	:	0000130A;
764	:	00FFFDEE;
765	:	00FFF32A;
766	:	00FFFF9C;
767	:	00FFFDB2;
768	:	00FFFCB0;
769	:	00000470;
770	:	00FFFE66;
771	:	000010FA;
772	:	000012AC;
773	:	0000082A;
774	:	00FFF41E;
775	:	00FFF8F3;
776	:	00000357;
777	:	000014B3;
778	:	0000133F;
779	:	00000C0A;
780	:	00000014;
781	:	00FFFF4C;
782	:	00000518;
783	:	0000237D;
784	:	0000064E;
785	:	00FFED97;
786	:	00FFFB57;
787	:	00000BBE;
788	:	00FFFDEB;
789	:	00001589;
790	:	000014E0;
791	:	0000009C;
792	:	000005EF;
793	:	000002FB;
794	:	00001B45;
795	:	00001AFB;
796	:	00FFEED3;
797	:	00FFF009;
798	:	00FFDEBF;
799	:	00FFEC2A;
800	:	00FFF243;
801	:	00FFF9B3;
802	:	00000287;
803	:	0000092D;
804	:	00001701;
805	:	000022C8;
806	:	0000109F;
807	:	00FFF306;
808	:	00FFEF73;
809	:	00FFF5ED;
810	:	00FFF7AB;
811	:	00FFD6CE;
812	:	00FFF7A8;
813	:	0000052E;
814	:	00000177;
815	:	000007D3;
816	:	00002AB5;
817	:	000007FC;
818	:	00000217;
819	:	00FFF2B0;
820	:	00FFE94E;
821	:	00FFEDB9;
822	:	00FFF5AC;
823	:	0000030D;
824	:	00000240;
825	:	00FFFE98;
826	:	000001AE;
827	:	00FFFB59;
828	:	00FFF912;
829	:	00000386;
830	:	00FFFA1B;
831	:	00FFF811;
832	:	00FFF920;
833	:	00FFFB98;
834	:	00FFFF78;
835	:	00FFFB13;
836	:	00FFFC92;
837	:	00FFFFC8;
838	:	00FFFCC7;
839	:	00FFFB9B;
840	:	00FFFD6E;
841	:	00FFFD16;
842	:	00FFFB6E;
843	:	00FFFAD6;
844	:	00FFFC1B;
845	:	0000005B;
846	:	0000049E;
847	:	000000A4;
848	:	00FFFE3A;
849	:	00FFFBD4;
850	:	00FFE6E4;
851	:	00FFEBA5;
852	:	00FFF178;
853	:	00FFF0A4;
854	:	00FFF065;
855	:	00FFFA7B;
856	:	00FFFA42;
857	:	00FFFFF7;
858	:	00FFFD74;
859	:	00FFF806;
860	:	00FFFFB3;
861	:	00000401;
862	:	00FFFBEF;
863	:	00FFF6C5;
864	:	00FFFC2A;
865	:	000000FC;
866	:	0000047B;
867	:	0000031B;
868	:	000001C5;
869	:	00FFF47D;
870	:	00FFF33D;
871	:	0000105C;
872	:	000015E1;
873	:	00FFF523;
874	:	00FFF649;
875	:	000004A3;
876	:	00000192;
877	:	00FFFF9D;
878	:	0000025D;
879	:	000002F4;
880	:	00000213;
881	:	00FFF725;
882	:	000014F5;
883	:	00002A74;
884	:	0000088C;
885	:	00001198;
886	:	00001706;
887	:	00000EF1;
888	:	00000E37;
889	:	00001427;
890	:	00000806;
891	:	00FFFA1A;
892	:	00FFFE16;
893	:	00002193;
894	:	00002B6E;
895	:	000002DF;
896	:	00001AF1;
897	:	00001D79;
898	:	00000F28;
899	:	00001620;
900	:	0000051A;
901	:	000000AE;
902	:	00FFFEF5;
903	:	000003C7;
904	:	00000932;
905	:	0000103F;
906	:	00FFDE8F;
907	:	00FFE1D4;
908	:	00000250;
909	:	0000092B;
910	:	00FFECFD;
911	:	00FFFA09;
912	:	00FFFBF9;
913	:	00FFFB35;
914	:	000000F0;
915	:	00FFEC6A;
916	:	00FFF26D;
917	:	00FFE6FC;
918	:	00FFD1A6;
919	:	00FFC999;
920	:	00FFEAB1;
921	:	00FFEE7B;
922	:	00FFFBC6;
923	:	00FFF9BA;
924	:	0000000B;
925	:	00FFF691;
926	:	00FFEFB0;
927	:	00FFF905;
928	:	00FFDC61;
929	:	00FFC01C;
930	:	00FFB4F9;
931	:	00FFD93F;
932	:	000000C9;
933	:	00FFFBE6;
934	:	00FFFCC9;
935	:	0000026A;
936	:	00FFF9E0;
937	:	00FFF3A2;
938	:	00FFEF05;
939	:	00FFD7EF;
940	:	00FFD918;
941	:	00FFDA04;
942	:	00FFEB62;
943	:	00FFF832;
944	:	000001AE;
945	:	00000168;
946	:	000001C6;
947	:	00FFFC54;
948	:	00FFFD67;
949	:	00FFFAE0;
950	:	00FFFC7A;
951	:	00FFF713;
952	:	00FFFE44;
953	:	00FFF970;
954	:	0000007E;
955	:	000000BD;
956	:	00FFFB61;
957	:	000001D7;
958	:	00000406;
959	:	000001EC;
960	:	00FFFAE7;
961	:	00FFFE0A;
962	:	00000145;
963	:	0000033E;
964	:	00FFFB74;
965	:	00FFFF75;
966	:	000001B7;
967	:	00FFFBA9;
968	:	00000000;
969	:	00000000;
970	:	00000000;
971	:	00000000;
972	:	00000000;
973	:	00000000;
974	:	00000000;
975	:	00000000;
976	:	00000000;
977	:	00000000;
978	:	00000000;
979	:	00000000;
980	:	00000000;
981	:	00000000;
982	:	00000000;
983	:	00000000;
984	:	00000000;
985	:	00000000;
986	:	00000000;
987	:	00000000;
988	:	00000000;
989	:	00000000;
990	:	00000000;
991	:	00000000;
992	:	00000000;
993	:	00000000;
994	:	00000000;
995	:	00000000;
996	:	00000000;
997	:	00000000;
998	:	00000000;
999	:	00000000;
1000	:	00000000;
1001	:	00000000;
1002	:	00000000;
1003	:	00000000;
1004	:	00000000;
1005	:	00000000;
1006	:	00000000;
1007	:	00000000;
1008	:	00000000;
1009	:	00000000;
1010	:	00000000;
1011	:	00000000;
1012	:	00000000;
1013	:	00000000;
1014	:	00000000;
1015	:	00000000;
1016	:	00000000;
1017	:	00000000;
1018	:	00000000;
1019	:	00000000;
1020	:	00000000;
1021	:	00000000;
1022	:	00000000;
1023	:	00000000;
END;