WIDTH = 24;
DEPTH=1024;

ADDRESS_RADIX=UNS;
DATA_RADIX=HEX;

CONTENT BEGIN
0	:	00FFFCCA;
1	:	00000162;
2	:	0000056F;
3	:	00FFFE40;
4	:	00FFF0E4;
5	:	00FFFB54;
6	:	00000E24;
7	:	000011D7;
8	:	00FFFEF0;
9	:	000003C3;
10	:	00FFFC4B;
11	:	00FFFE3D;
12	:	00FFFBE8;
13	:	00000472;
14	:	00FFF9E3;
15	:	00FFF4B2;
16	:	0000021F;
17	:	0000239E;
18	:	00002070;
19	:	00000C0E;
20	:	000008FA;
21	:	000000D9;
22	:	00000101;
23	:	00FFFCE9;
24	:	00FFF3EC;
25	:	00FFF290;
26	:	00FFF534;
27	:	00001DCF;
28	:	00002294;
29	:	00001510;
30	:	00001232;
31	:	000011E9;
32	:	00001C3E;
33	:	00000310;
34	:	00FFFCC5;
35	:	00FFE8AE;
36	:	00FFE80F;
37	:	00FFE21C;
38	:	00FFF1F3;
39	:	00FFDE67;
40	:	00000C6A;
41	:	00000F05;
42	:	0000195C;
43	:	000011ED;
44	:	00FFF9CB;
45	:	00FFF46B;
46	:	00FFE272;
47	:	00FFDE14;
48	:	00FFD36A;
49	:	00FFD67C;
50	:	00FFD0AA;
51	:	00FFDCCF;
52	:	00FFEE95;
53	:	00FFD82F;
54	:	00FFDAB3;
55	:	00FFFF39;
56	:	00FFF27B;
57	:	00FFE72D;
58	:	00FFE01C;
59	:	00FFCFB3;
60	:	00FFEA3A;
61	:	00FFE246;
62	:	00FFC9F7;
63	:	00FFD584;
64	:	00FFEB10;
65	:	00FFD5B5;
66	:	00FFFE40;
67	:	00FFFD7C;
68	:	00FFF382;
69	:	00FFF08B;
70	:	00FFDF05;
71	:	00FFF13C;
72	:	00FFE36E;
73	:	00FFF493;
74	:	00002239;
75	:	000026EA;
76	:	000019AD;
77	:	000005ED;
78	:	000004AA;
79	:	000003F9;
80	:	0000049C;
81	:	00FFD949;
82	:	00FFD889;
83	:	00000B67;
84	:	000020AF;
85	:	00000A0C;
86	:	000013BD;
87	:	00001BD8;
88	:	000001E1;
89	:	000005BC;
90	:	00000306;
91	:	00FFF6E0;
92	:	00FFEAFC;
93	:	00FFD281;
94	:	000009A4;
95	:	00000911;
96	:	00FFFC22;
97	:	00000159;
98	:	00FFF731;
99	:	00FFFF92;
100	:	000000E8;
101	:	00FFFF3D;
102	:	00FFE382;
103	:	00FFDA8A;
104	:	00FFD5B2;
105	:	0000055C;
106	:	00FFE60F;
107	:	00FFF804;
108	:	00FFF437;
109	:	00FFF470;
110	:	0000012C;
111	:	000004F1;
112	:	00000257;
113	:	00FFFB5A;
114	:	00FFF0B0;
115	:	00FFE053;
116	:	00FFDF0B;
117	:	00FFEAC0;
118	:	00FFF6F7;
119	:	00FFFA78;
120	:	00FFF292;
121	:	00FFF98B;
122	:	00FFFBDE;
123	:	00FFF78E;
124	:	00FFFE72;
125	:	00000317;
126	:	000002FE;
127	:	00FFFCFF;
128	:	00FFFD3F;
129	:	000002A8;
130	:	000001D7;
131	:	00FFFDDD;
132	:	000011F0;
133	:	00001C0C;
134	:	00002033;
135	:	00002C53;
136	:	00003417;
137	:	0000238A;
138	:	000001C8;
139	:	00FFF430;
140	:	00FFF72D;
141	:	00FFF759;
142	:	00FFF880;
143	:	00001FFA;
144	:	00002193;
145	:	000031A9;
146	:	00003A7D;
147	:	00002E65;
148	:	00FFF5F9;
149	:	00FFEA51;
150	:	00FFFA3C;
151	:	00FFE474;
152	:	00FFE88C;
153	:	00FFF23D;
154	:	000014FF;
155	:	00003E70;
156	:	00002F27;
157	:	00002DBF;
158	:	000023B2;
159	:	000021D5;
160	:	00FFE9D9;
161	:	00FFD30A;
162	:	00FFD2BD;
163	:	00FFDC55;
164	:	00FFEFCE;
165	:	000020A4;
166	:	000039E9;
167	:	0000183B;
168	:	00001FDF;
169	:	000031E0;
170	:	00001A2E;
171	:	00FFFC7E;
172	:	00FFEA55;
173	:	00FFF2D0;
174	:	00FFE481;
175	:	00FFF2ED;
176	:	00FFFCC8;
177	:	00FFF2FE;
178	:	00000DF9;
179	:	00001AD2;
180	:	00004640;
181	:	00002C5E;
182	:	00001DF6;
183	:	00FFFF8B;
184	:	00FFE81D;
185	:	00FFF0FD;
186	:	00FFF281;
187	:	00FFD6A6;
188	:	00FFF5BD;
189	:	00001E4D;
190	:	00001A6C;
191	:	00002E75;
192	:	0000226E;
193	:	00001F1B;
194	:	0000142D;
195	:	00FFE7EE;
196	:	00FFE965;
197	:	00FFF652;
198	:	00FFE017;
199	:	00FFF33C;
200	:	000018BF;
201	:	00000807;
202	:	00003EFB;
203	:	00003D47;
204	:	00001ECF;
205	:	00FFE78F;
206	:	00FFEF90;
207	:	00FFECD4;
208	:	00FFF2BE;
209	:	000001D2;
210	:	00FFFA6E;
211	:	00FFFC80;
212	:	00001E03;
213	:	00002876;
214	:	00004128;
215	:	00FFF80D;
216	:	00FFD79E;
217	:	00FFDDC6;
218	:	00FFD96A;
219	:	00FFF844;
220	:	00FFFD5A;
221	:	00002299;
222	:	00002F6B;
223	:	000011A3;
224	:	0000245F;
225	:	0000020C;
226	:	00FFE14A;
227	:	00FFDDB7;
228	:	00FFDBBC;
229	:	00FFDF48;
230	:	00FFF360;
231	:	0000029D;
232	:	00001EA4;
233	:	000022E4;
234	:	00001D40;
235	:	000005F0;
236	:	00FFEF89;
237	:	00FFE73A;
238	:	00FFD23B;
239	:	00FFD595;
240	:	00FFE489;
241	:	00FFEE72;
242	:	00000735;
243	:	00000681;
244	:	0000008C;
245	:	00FFFB7E;
246	:	00FFF5C0;
247	:	00000049;
248	:	00FFF91D;
249	:	00FFF86A;
250	:	00FFF0A6;
251	:	00FFFB57;
252	:	000000D9;
253	:	00000391;
254	:	00000507;
255	:	00FFF879;
256	:	00FFEC93;
257	:	00FFDD34;
258	:	00FFD6C8;
259	:	00FFDC7C;
260	:	00FFDBF9;
261	:	00FFDF48;
262	:	00FFE877;
263	:	00FFF2CD;
264	:	00000A0D;
265	:	00001509;
266	:	00FFF3F7;
267	:	00000284;
268	:	00FFE537;
269	:	00FFD86C;
270	:	00FFD79C;
271	:	00FFDDC4;
272	:	00FFE0EF;
273	:	00FFD3CA;
274	:	00FFE337;
275	:	00000BCA;
276	:	000019B3;
277	:	00000504;
278	:	00000A19;
279	:	00FFEFF0;
280	:	00FFED58;
281	:	00000E2F;
282	:	00000AAC;
283	:	00FFF781;
284	:	00FFEF4A;
285	:	00FFF24A;
286	:	00000D1F;
287	:	00000BA1;
288	:	00001175;
289	:	0000210A;
290	:	000002DE;
291	:	00001258;
292	:	00001FDE;
293	:	00001E21;
294	:	00000177;
295	:	000003E3;
296	:	00FFF14A;
297	:	00000571;
298	:	00000511;
299	:	00FFF2E4;
300	:	00FFFF0B;
301	:	00000431;
302	:	00FFFB68;
303	:	00002F62;
304	:	00002C4E;
305	:	0000341B;
306	:	00FFFA78;
307	:	00FFE695;
308	:	00000039;
309	:	00FFF172;
310	:	00FFCA01;
311	:	00FFD8D1;
312	:	00FFE962;
313	:	000009F8;
314	:	000012BA;
315	:	000018CC;
316	:	00FFEBC4;
317	:	00FFCFB5;
318	:	00FFE2D7;
319	:	00FFFED1;
320	:	00FFF0BC;
321	:	00FFCD1F;
322	:	00FFD207;
323	:	00FFD1ED;
324	:	00FFD068;
325	:	00FFE558;
326	:	000005FA;
327	:	00FFF300;
328	:	00FFE8FF;
329	:	00FFFCB9;
330	:	0000048C;
331	:	00FFF75E;
332	:	00FFF1C7;
333	:	00FFE21B;
334	:	00FFD5E6;
335	:	00FFEDA9;
336	:	00001BB2;
337	:	000031B4;
338	:	00001024;
339	:	00FFEC2D;
340	:	00FFFC16;
341	:	00000CAC;
342	:	00FFFE09;
343	:	00FFF4E1;
344	:	00FFEBE1;
345	:	00FFF8D4;
346	:	000001FC;
347	:	0000246D;
348	:	00000D7A;
349	:	00000FA8;
350	:	0000040B;
351	:	00000A25;
352	:	00000D85;
353	:	00000A9B;
354	:	00001335;
355	:	00FFFFC0;
356	:	000018AC;
357	:	00002D6C;
358	:	00002B4D;
359	:	0000288B;
360	:	0000340D;
361	:	000004D9;
362	:	000001C9;
363	:	00000368;
364	:	00FFFE2F;
365	:	00000731;
366	:	00FFFE09;
367	:	00000C1A;
368	:	00001699;
369	:	00000750;
370	:	00000FBE;
371	:	00000397;
372	:	00FFFE43;
373	:	00FFFE5A;
374	:	00FFFCC2;
375	:	00000345;
376	:	00000B07;
377	:	0000272E;
378	:	000032E9;
379	:	00002117;
380	:	00001C55;
381	:	0000051B;
382	:	000005AC;
383	:	00000169;
384	:	000000C8;
385	:	000000F1;
386	:	00001CBC;
387	:	00001BF1;
388	:	000032DD;
389	:	00002E60;
390	:	00001E4C;
391	:	00FFFD0C;
392	:	000001B5;
393	:	00FFF6DE;
394	:	00FFEB6F;
395	:	0000006D;
396	:	00000987;
397	:	00000CBE;
398	:	0000136F;
399	:	00000FD8;
400	:	0000403A;
401	:	0000128C;
402	:	00FFF478;
403	:	00FFF9F9;
404	:	00FFED5B;
405	:	00FFEFA0;
406	:	00FFF6F7;
407	:	00FFFAD3;
408	:	00FFFF51;
409	:	00FFF991;
410	:	000024B6;
411	:	00001C59;
412	:	00003DA7;
413	:	000023BE;
414	:	00000AE0;
415	:	00FFF891;
416	:	00FFFAE3;
417	:	00FFFE8B;
418	:	00FFF9F6;
419	:	00FFFFA9;
420	:	00001461;
421	:	00000C7C;
422	:	00003390;
423	:	00005252;
424	:	000044EE;
425	:	00000DCC;
426	:	0000029B;
427	:	00000451;
428	:	00FFFA02;
429	:	00FFFFCB;
430	:	00000490;
431	:	00FFF0DE;
432	:	00FFF2AB;
433	:	00001DC6;
434	:	000021E2;
435	:	00001F67;
436	:	000005D2;
437	:	00FFFB9F;
438	:	00FFF914;
439	:	00000214;
440	:	00FFFFED;
441	:	00000DB2;
442	:	00FFFFAD;
443	:	00FFF04E;
444	:	00000C9D;
445	:	00FFE3B2;
446	:	00FFE407;
447	:	00FFF4E8;
448	:	00FFF68B;
449	:	00FFF854;
450	:	00FFF946;
451	:	00FFFE12;
452	:	000000D5;
453	:	00FFFC02;
454	:	000011D9;
455	:	00000DB2;
456	:	00FFFFC4;
457	:	000004E3;
458	:	00FFFC47;
459	:	00FFFE6D;
460	:	00FFFED5;
461	:	00FFFCC2;
462	:	00000D35;
463	:	00000CD8;
464	:	00001570;
465	:	000008B4;
466	:	000016E7;
467	:	00001AA7;
468	:	00FFFF9B;
469	:	0000091A;
470	:	00FFFB34;
471	:	00000731;
472	:	00FFFD6E;
473	:	00000AFF;
474	:	00002126;
475	:	00001E63;
476	:	00002175;
477	:	000037F4;
478	:	00001519;
479	:	00001535;
480	:	00000A01;
481	:	0000028C;
482	:	00FFFC30;
483	:	00000159;
484	:	000004CE;
485	:	00FFFD59;
486	:	00000171;
487	:	000003B8;
488	:	00000168;
489	:	00FFF9BD;
490	:	000000FA;
491	:	00FFFB7C;
492	:	00FFFABA;
493	:	00FFFEF8;
494	:	00000234;
495	:	000000C5;
496	:	000003AE;
497	:	00FFFC49;
498	:	000004C1;
499	:	00FFFBFF;
500	:	0000063C;
501	:	00FFF608;
502	:	00000764;
503	:	0000009C;
504	:	00000138;
505	:	0000002F;
506	:	0000004F;
507	:	00FFFF5C;
508	:	00FFF844;
509	:	00FFF7E9;
510	:	00FFE4E4;
511	:	00FFDD34;
512	:	00FFF5F3;
513	:	000021CA;
514	:	00000121;
515	:	00FFFCDF;
516	:	00000411;
517	:	000003BB;
518	:	00FFFD61;
519	:	00FFE75B;
520	:	00FFDEFF;
521	:	00FFC481;
522	:	00FFE3E8;
523	:	000018BE;
524	:	00002A64;
525	:	000030B2;
526	:	00001B6F;
527	:	00000532;
528	:	000000D4;
529	:	00FFFD33;
530	:	00FFD78E;
531	:	00FFC14F;
532	:	00FFD523;
533	:	00FFF9CF;
534	:	00FFFA3F;
535	:	00003560;
536	:	0000283A;
537	:	0000189B;
538	:	00000391;
539	:	00FFFF98;
540	:	00000214;
541	:	00FFE91D;
542	:	00FFE725;
543	:	00FFF506;
544	:	00FFD566;
545	:	00000910;
546	:	00002A3F;
547	:	00001B42;
548	:	00000285;
549	:	00FFF3B5;
550	:	00FFFE1E;
551	:	00000286;
552	:	00FFEA89;
553	:	00FFEA92;
554	:	00FFF3D0;
555	:	00FFE298;
556	:	00FFFDB9;
557	:	000013A5;
558	:	000005F6;
559	:	00FFEABF;
560	:	00FFF5CA;
561	:	00FFFD52;
562	:	00000019;
563	:	00FFEA71;
564	:	00FFF014;
565	:	00FFF250;
566	:	00FFE5FB;
567	:	00FFEC2D;
568	:	00FFD341;
569	:	00FFEA63;
570	:	00FFEB6E;
571	:	00FFFD89;
572	:	00000132;
573	:	000002AB;
574	:	00FFDA3B;
575	:	00FFE9F6;
576	:	00FFDA76;
577	:	00FFDC1F;
578	:	00FFE527;
579	:	00FFC966;
580	:	00FFE218;
581	:	00FFF42C;
582	:	000005C6;
583	:	00FFFD39;
584	:	000003A5;
585	:	0000043E;
586	:	00FFFF48;
587	:	00FFDF60;
588	:	00FFE302;
589	:	00FFEF9F;
590	:	00FFE435;
591	:	00FFEDE2;
592	:	00000AAA;
593	:	00000036;
594	:	00FFFE86;
595	:	000000AA;
596	:	000001E9;
597	:	00000275;
598	:	00FFFA14;
599	:	00FFFDFD;
600	:	00FFFAE1;
601	:	00FFFB92;
602	:	00000179;
603	:	000004CD;
604	:	00FFFC4B;
605	:	000006BB;
606	:	00000835;
607	:	00FFFA4F;
608	:	00FFEE3C;
609	:	000017D4;
610	:	00001A41;
611	:	0000134E;
612	:	00FFFE73;
613	:	00000E9C;
614	:	000005E0;
615	:	0000023D;
616	:	00000190;
617	:	00FFF5D9;
618	:	00000F76;
619	:	00001A34;
620	:	00002A70;
621	:	00001C13;
622	:	00FFF629;
623	:	000008F5;
624	:	0000097A;
625	:	00000DBE;
626	:	0000077B;
627	:	00FFFFBA;
628	:	00FFF465;
629	:	00FFF637;
630	:	00FFEDE6;
631	:	00FFF4C3;
632	:	00000606;
633	:	00FFF509;
634	:	00FFFBEF;
635	:	00FFF5D9;
636	:	00FFF93A;
637	:	00FFF553;
638	:	00FFFD63;
639	:	00FFF688;
640	:	00FFD563;
641	:	00FFD192;
642	:	00FFC832;
643	:	00FFF081;
644	:	000000D2;
645	:	00FFFB78;
646	:	00FFF49A;
647	:	00FFCE15;
648	:	00FFFC98;
649	:	00000500;
650	:	00FFFA0E;
651	:	00FFC4CF;
652	:	00FFAED2;
653	:	00FFE494;
654	:	00FFFFC4;
655	:	00001ACD;
656	:	000005B3;
657	:	0000148E;
658	:	0000042E;
659	:	00FFF450;
660	:	00000439;
661	:	0000012F;
662	:	00FFF045;
663	:	00FFDAF1;
664	:	00FFE838;
665	:	00FFFC08;
666	:	0000379F;
667	:	00001480;
668	:	0000132A;
669	:	00001A6D;
670	:	000008D2;
671	:	00000DB6;
672	:	0000002D;
673	:	00000326;
674	:	000000C7;
675	:	00FFED7C;
676	:	00000358;
677	:	00003A72;
678	:	00001FC0;
679	:	00002495;
680	:	000002AF;
681	:	00000C7F;
682	:	000015B1;
683	:	000027CD;
684	:	000011A4;
685	:	00FFFDAD;
686	:	00000199;
687	:	00002C64;
688	:	0000443B;
689	:	00001C82;
690	:	00002BDF;
691	:	000014E5;
692	:	0000011A;
693	:	00001386;
694	:	00002909;
695	:	00FFFE81;
696	:	000006BE;
697	:	00FFFDBA;
698	:	000011B3;
699	:	000026CC;
700	:	000002C2;
701	:	000009A3;
702	:	000001CA;
703	:	00FFF9D2;
704	:	0000096A;
705	:	00001FA1;
706	:	0000206B;
707	:	00FFFEF0;
708	:	00FFE360;
709	:	00FFEADA;
710	:	00000017;
711	:	00FFF719;
712	:	00FFF114;
713	:	00FFF4C3;
714	:	00FFF908;
715	:	00FFFCB0;
716	:	0000020E;
717	:	000007AD;
718	:	000000FE;
719	:	00000784;
720	:	00FFEFD3;
721	:	00FFF140;
722	:	00FFFB89;
723	:	00FFFE36;
724	:	0000013E;
725	:	000000BC;
726	:	00FFFEB7;
727	:	00000161;
728	:	00FFFE1B;
729	:	00FFFE8F;
730	:	00FFFD05;
731	:	000003C2;
732	:	00FFFB28;
733	:	00FFFD00;
734	:	00000142;
735	:	00000079;
736	:	00FFFD69;
737	:	00000442;
738	:	00FFFBCE;
739	:	00FFF3B3;
740	:	00FFF718;
741	:	00FFF8CA;
742	:	00FFF409;
743	:	000001E2;
744	:	00000218;
745	:	00000637;
746	:	00000239;
747	:	00FFFC08;
748	:	00FFFD74;
749	:	00000669;
750	:	00FFF3CC;
751	:	00FFF366;
752	:	00FFC339;
753	:	00FFF474;
754	:	00FFF102;
755	:	00000054;
756	:	00000806;
757	:	00FFFF9F;
758	:	00FFFD7D;
759	:	000000C8;
760	:	000006AA;
761	:	00FFF25F;
762	:	00FFE939;
763	:	00FFD74D;
764	:	00FFF06E;
765	:	00000865;
766	:	0000092B;
767	:	000007FD;
768	:	000002BE;
769	:	00FFFC17;
770	:	00FFFC29;
771	:	00FFEBC4;
772	:	00FFD1CC;
773	:	00FFF3CD;
774	:	00FFE7D6;
775	:	000008A3;
776	:	000024C3;
777	:	00000D2E;
778	:	00000D02;
779	:	00000109;
780	:	00FFFCC8;
781	:	0000027E;
782	:	00FFF296;
783	:	00FFE243;
784	:	00000736;
785	:	00FFF7C2;
786	:	00001493;
787	:	00002B51;
788	:	00FFFABC;
789	:	00000307;
790	:	00FFFCC4;
791	:	000003A9;
792	:	00000164;
793	:	00FFDF83;
794	:	00FFD50E;
795	:	00FFDB5B;
796	:	00FFE1FD;
797	:	000000E2;
798	:	00001180;
799	:	00FFE589;
800	:	00FFF461;
801	:	00FFF479;
802	:	0000025B;
803	:	00000098;
804	:	00FFD5B6;
805	:	00FFD3F0;
806	:	00FFC824;
807	:	00FFD384;
808	:	00FFE50B;
809	:	00FFE42A;
810	:	00FFE6D6;
811	:	00FFF44F;
812	:	000002D2;
813	:	000004A3;
814	:	00FFFC63;
815	:	00FFED95;
816	:	00FFD53D;
817	:	00FFC2E0;
818	:	00FFB2A9;
819	:	00FFDB52;
820	:	00FFFD8D;
821	:	00FFF4EB;
822	:	00000E63;
823	:	0000041E;
824	:	0000006E;
825	:	00FFFCCC;
826	:	00FFF3CA;
827	:	00FFE536;
828	:	00FFE338;
829	:	00FFC7DD;
830	:	00FFF7C5;
831	:	00FFFD9E;
832	:	00FFEFD2;
833	:	0000067C;
834	:	00FFF6B6;
835	:	00000145;
836	:	00FFFE6D;
837	:	00FFFD46;
838	:	00FFFA77;
839	:	00FFF88F;
840	:	0000008A;
841	:	00FFFE51;
842	:	00FFF07E;
843	:	000005FD;
844	:	0000068A;
845	:	000004D6;
846	:	0000030E;
847	:	00000252;
848	:	000000F4;
849	:	00FFFCDF;
850	:	00000246;
851	:	00FFFAD6;
852	:	00FFFD24;
853	:	000000D8;
854	:	000004DF;
855	:	0000005D;
856	:	000001DC;
857	:	00FFFE70;
858	:	00FFFF22;
859	:	0000000F;
860	:	00000459;
861	:	00000689;
862	:	00FFFADA;
863	:	00FFF7E3;
864	:	00FFF768;
865	:	00FFFA8B;
866	:	000002A6;
867	:	00FFFA56;
868	:	000003D9;
869	:	00FFFFCF;
870	:	000008ED;
871	:	00000C00;
872	:	00001913;
873	:	000002FB;
874	:	0000190D;
875	:	00001AD7;
876	:	00FFF26F;
877	:	00FFEE7C;
878	:	00000175;
879	:	00FFFC36;
880	:	000002E1;
881	:	0000099F;
882	:	000006AE;
883	:	0000374D;
884	:	00001823;
885	:	00001657;
886	:	0000056E;
887	:	000005AF;
888	:	00FFEAFE;
889	:	00FFF94A;
890	:	00FFFCD4;
891	:	00000241;
892	:	00000B92;
893	:	00001248;
894	:	00FFF7AA;
895	:	00FFEBD0;
896	:	00001396;
897	:	000026DA;
898	:	00000D1C;
899	:	00FFF742;
900	:	00FFFD99;
901	:	00FFFB94;
902	:	000002E8;
903	:	00FFFD9A;
904	:	00FFF19A;
905	:	00FFDF95;
906	:	00FFFED0;
907	:	00002605;
908	:	000030DD;
909	:	00001F28;
910	:	00FFE466;
911	:	00FFFE87;
912	:	00FFFD2A;
913	:	00FFFDBE;
914	:	00FFF69C;
915	:	00FFEA00;
916	:	00FFD70E;
917	:	00000C04;
918	:	0000285F;
919	:	00002718;
920	:	00FFF70B;
921	:	00FFD55C;
922	:	00FFF5C0;
923	:	00FFF9A5;
924	:	00FFFD70;
925	:	00FFFEAD;
926	:	00FFEF0A;
927	:	00FFED14;
928	:	00000049;
929	:	000020BA;
930	:	0000205D;
931	:	00FFF106;
932	:	00FFE09B;
933	:	00FFFE72;
934	:	00FFFF3B;
935	:	000005CD;
936	:	00FFFC9A;
937	:	00FFEF75;
938	:	00FFFD92;
939	:	00000131;
940	:	00000BCF;
941	:	0000008E;
942	:	00FFEBBB;
943	:	00FFFC00;
944	:	00FFFD49;
945	:	00FFFD9F;
946	:	00000436;
947	:	000000A4;
948	:	0000046C;
949	:	00000941;
950	:	000018BB;
951	:	0000231F;
952	:	00001F99;
953	:	00000599;
954	:	000008E3;
955	:	00FFFED5;
956	:	00000302;
957	:	000007F8;
958	:	00000AEA;
959	:	0000122D;
960	:	00003701;
961	:	00003DA9;
962	:	00004040;
963	:	00002969;
964	:	00000E47;
965	:	00FFF3CB;
966	:	00000061;
967	:	00FFFDB5;
968	:	00000000;
969	:	00000000;
970	:	00000000;
971	:	00000000;
972	:	00000000;
973	:	00000000;
974	:	00000000;
975	:	00000000;
976	:	00000000;
977	:	00000000;
978	:	00000000;
979	:	00000000;
980	:	00000000;
981	:	00000000;
982	:	00000000;
983	:	00000000;
984	:	00000000;
985	:	00000000;
986	:	00000000;
987	:	00000000;
988	:	00000000;
989	:	00000000;
990	:	00000000;
991	:	00000000;
992	:	00000000;
993	:	00000000;
994	:	00000000;
995	:	00000000;
996	:	00000000;
997	:	00000000;
998	:	00000000;
999	:	00000000;
1000	:	00000000;
1001	:	00000000;
1002	:	00000000;
1003	:	00000000;
1004	:	00000000;
1005	:	00000000;
1006	:	00000000;
1007	:	00000000;
1008	:	00000000;
1009	:	00000000;
1010	:	00000000;
1011	:	00000000;
1012	:	00000000;
1013	:	00000000;
1014	:	00000000;
1015	:	00000000;
1016	:	00000000;
1017	:	00000000;
1018	:	00000000;
1019	:	00000000;
1020	:	00000000;
1021	:	00000000;
1022	:	00000000;
1023	:	00000000;
END;