WIDTH = 24;
DEPTH=1024;

ADDRESS_RADIX=UNS;
DATA_RADIX=HEX;

CONTENT BEGIN
0	:	00FFF30F;
1	:	00FFFD79;
2	:	00FFEDD4;
3	:	00FFF85D;
4	:	00FFF156;
5	:	00FFECB2;
6	:	00FFEF28;
7	:	00FFFC38;
8	:	00FFFE97;
9	:	000002CA;
10	:	00FFFE2E;
11	:	00000696;
12	:	00003538;
13	:	0000207E;
14	:	00002358;
15	:	00001701;
16	:	00001458;
17	:	00001618;
18	:	0000126C;
19	:	0000061F;
20	:	00FFFEE6;
21	:	0000019E;
22	:	000015B2;
23	:	00003902;
24	:	00002497;
25	:	00002373;
26	:	0000316E;
27	:	000024F7;
28	:	00000910;
29	:	00001677;
30	:	00FFF7CF;
31	:	00FFFF67;
32	:	00FFFD16;
33	:	00001B69;
34	:	000011A8;
35	:	00000D00;
36	:	00002DDF;
37	:	00003131;
38	:	00001BAE;
39	:	00001035;
40	:	00FFFE40;
41	:	00FFE693;
42	:	00FFFC7E;
43	:	00FFFBA8;
44	:	00FFE908;
45	:	00FFFC96;
46	:	00FFF188;
47	:	0000000D;
48	:	00001A71;
49	:	000011ED;
50	:	00FFF311;
51	:	00FFE375;
52	:	00FFF04D;
53	:	00FFFC4B;
54	:	00FFFE08;
55	:	00FFDB59;
56	:	00FFC79A;
57	:	00FFDF67;
58	:	00FFC9D8;
59	:	00FFF6C1;
60	:	00000992;
61	:	00000940;
62	:	00000339;
63	:	00FFF942;
64	:	00FFFE90;
65	:	00FFFF76;
66	:	00FFF3BB;
67	:	00FFFFE7;
68	:	00FFE006;
69	:	00FFD7D9;
70	:	00FFFE7E;
71	:	000000A4;
72	:	00FFEEEA;
73	:	00FFE07F;
74	:	000002A6;
75	:	000004E7;
76	:	00FFFE52;
77	:	00000EDD;
78	:	0000240D;
79	:	00FFFC1E;
80	:	000002D4;
81	:	00FFE85B;
82	:	00FFE27C;
83	:	00FFD80F;
84	:	00FFE777;
85	:	00FFFE9F;
86	:	00FFF9C2;
87	:	00FFFD3F;
88	:	0000026C;
89	:	00001519;
90	:	00004828;
91	:	00001E7C;
92	:	00FFDC82;
93	:	00FFD087;
94	:	00FFE0DB;
95	:	00FFF79E;
96	:	00FFFC7A;
97	:	00FFFD8A;
98	:	00FFFC7E;
99	:	00FFE2FA;
100	:	00FFFD5F;
101	:	00002382;
102	:	00FFF707;
103	:	00FFCCC7;
104	:	00FFECFE;
105	:	00FFFBA2;
106	:	00FFFF71;
107	:	000000F0;
108	:	00FFFF58;
109	:	0000022E;
110	:	00FFE2A6;
111	:	00000309;
112	:	00FFECDD;
113	:	00FFF6FA;
114	:	00FFE9E1;
115	:	00FFFA36;
116	:	00000515;
117	:	00FFFFA3;
118	:	000001E7;
119	:	00FFFF80;
120	:	000001F5;
121	:	00FFF9B8;
122	:	00FFFE10;
123	:	00FFF91D;
124	:	00000A21;
125	:	00FFFF57;
126	:	00000C91;
127	:	00000571;
128	:	00000D69;
129	:	000018BB;
130	:	000028EB;
131	:	00FFF511;
132	:	00FFF6E8;
133	:	00FFF0F9;
134	:	00FFE98D;
135	:	00FFEE8D;
136	:	00FFF4DB;
137	:	000007C5;
138	:	0000099D;
139	:	00FFF9AB;
140	:	00FFEEFB;
141	:	00FFFD14;
142	:	000003B2;
143	:	00FFF75E;
144	:	00FFEE07;
145	:	00FFE91A;
146	:	00FFF5FC;
147	:	00FFF504;
148	:	00FFF8CC;
149	:	00FFDF88;
150	:	00FFB15D;
151	:	00FFC1A5;
152	:	00FFD629;
153	:	00FFED83;
154	:	00FFFC88;
155	:	00FFF228;
156	:	00FFFCDA;
157	:	000014AB;
158	:	00000200;
159	:	00FFDD61;
160	:	00FFC2C4;
161	:	00FFDB6A;
162	:	00FFD325;
163	:	00FFE39B;
164	:	00FFF713;
165	:	00FFFB97;
166	:	00000469;
167	:	00001165;
168	:	00001B47;
169	:	0000187F;
170	:	00FFEAED;
171	:	00FFBB5B;
172	:	00FFE8ED;
173	:	00FFE77F;
174	:	00FFE6F9;
175	:	000009F5;
176	:	00000CF9;
177	:	00000754;
178	:	00000714;
179	:	00FFFDA2;
180	:	00000A0E;
181	:	00FFD797;
182	:	00FFA2AB;
183	:	00FFE36A;
184	:	00FFECC4;
185	:	00FFFB63;
186	:	000012C1;
187	:	00000B7A;
188	:	00000117;
189	:	00FFF08F;
190	:	00FFE7C7;
191	:	00FFF8CD;
192	:	00FFDD9C;
193	:	00FFC3A4;
194	:	00FFD718;
195	:	00FFF59D;
196	:	00FFFC10;
197	:	0000004F;
198	:	000004C7;
199	:	00000003;
200	:	00FFEE28;
201	:	00FFD434;
202	:	00FFECF8;
203	:	00FFCFB9;
204	:	00FFCC89;
205	:	00FFE543;
206	:	00000B7B;
207	:	00FFF58F;
208	:	00000196;
209	:	00FFFD96;
210	:	000000EE;
211	:	00001318;
212	:	00000B57;
213	:	00FFEBFD;
214	:	00FFE36D;
215	:	00FFE7AC;
216	:	00FFEE88;
217	:	00000983;
218	:	00000426;
219	:	00FFF345;
220	:	00000582;
221	:	00000405;
222	:	00000D97;
223	:	00FFFF46;
224	:	00FFEE58;
225	:	00FFE6DA;
226	:	00FFF803;
227	:	00FFFB0C;
228	:	00FFF8FA;
229	:	00000227;
230	:	00FFFC9F;
231	:	00000534;
232	:	00000449;
233	:	00000244;
234	:	00FFFBA8;
235	:	00FFFFB5;
236	:	00000083;
237	:	0000011D;
238	:	000003DB;
239	:	00000652;
240	:	000007E6;
241	:	00FFFF52;
242	:	00000B85;
243	:	000029B6;
244	:	00001727;
245	:	00002FC1;
246	:	00001616;
247	:	00FFEEC7;
248	:	00FFCF10;
249	:	00FFC236;
250	:	00FFE0DE;
251	:	00FFFA18;
252	:	00FFF45B;
253	:	00000E86;
254	:	0000172E;
255	:	00FFFCB8;
256	:	00000755;
257	:	00000EE5;
258	:	00FFEC12;
259	:	00FFD5F0;
260	:	00FFDA11;
261	:	000000E6;
262	:	00FFF2EF;
263	:	00FFF5B5;
264	:	00FFFC7E;
265	:	0000022F;
266	:	00FFF2CA;
267	:	000009C9;
268	:	00FFFDE2;
269	:	00FFD9F7;
270	:	00FFE328;
271	:	00FFF19C;
272	:	00FFFD69;
273	:	00FFEE93;
274	:	00FFF5E3;
275	:	00FFEC64;
276	:	00FFCD7D;
277	:	00FFE234;
278	:	00000209;
279	:	00000239;
280	:	00FFFCCE;
281	:	000012DB;
282	:	00001D6B;
283	:	00002767;
284	:	000000B3;
285	:	00FFFD18;
286	:	00FFE8A0;
287	:	00001051;
288	:	00001BED;
289	:	00003D41;
290	:	00FFE633;
291	:	00FFDF8C;
292	:	0000290F;
293	:	00001CF8;
294	:	00000A18;
295	:	00FFF8FB;
296	:	00FFFEDB;
297	:	00001A30;
298	:	00004C11;
299	:	00003351;
300	:	00002DBA;
301	:	00FFE65F;
302	:	00FFF1AC;
303	:	00FFECF8;
304	:	00FFE052;
305	:	00FFE6F0;
306	:	00FFF390;
307	:	00FFFB72;
308	:	0000386C;
309	:	00003E55;
310	:	00003DCB;
311	:	00002AB6;
312	:	00FFEB02;
313	:	00FFB9A3;
314	:	00FFE68E;
315	:	00FFCDD6;
316	:	00FFD446;
317	:	00FFEC56;
318	:	00FFF5EA;
319	:	00002B57;
320	:	000007BC;
321	:	000020F8;
322	:	00002479;
323	:	00FFDEF1;
324	:	00FFEA7A;
325	:	00FFE706;
326	:	00FFEB40;
327	:	00000EA6;
328	:	00FFFD85;
329	:	00FFF9D0;
330	:	000011C3;
331	:	000013A4;
332	:	00FFFF66;
333	:	00FFFE4A;
334	:	00000574;
335	:	00FFF29F;
336	:	00FFF1B3;
337	:	00000313;
338	:	0000075B;
339	:	00FFFF07;
340	:	00FFFC34;
341	:	00FFF2B7;
342	:	00001C0D;
343	:	00000796;
344	:	000015F7;
345	:	000006D3;
346	:	00FFF70B;
347	:	00FFFDE4;
348	:	0000091E;
349	:	00FFFF50;
350	:	00FFFCF8;
351	:	0000021B;
352	:	00FFF953;
353	:	00FFF3C4;
354	:	00FFF0C1;
355	:	00FFFDD1;
356	:	00FFFD7E;
357	:	00FFFD17;
358	:	0000025D;
359	:	00FFFE54;
360	:	00FFFA29;
361	:	00FFFE5A;
362	:	00000058;
363	:	000002FF;
364	:	0000055A;
365	:	00000180;
366	:	00000B29;
367	:	00FFF8C8;
368	:	00FFDDCD;
369	:	00FFDC5D;
370	:	00FFEA7E;
371	:	00FFEEB0;
372	:	00FFFF2D;
373	:	00FFF90A;
374	:	0000021B;
375	:	00FFFE15;
376	:	000002E8;
377	:	00000788;
378	:	00FFF04B;
379	:	00000227;
380	:	00000ADA;
381	:	00000A45;
382	:	00000865;
383	:	00000243;
384	:	00FFFD31;
385	:	00FFFFAC;
386	:	00FFF848;
387	:	00FFFC8D;
388	:	00FFFEDB;
389	:	00000211;
390	:	00000EFF;
391	:	000039E3;
392	:	0000248D;
393	:	000007CD;
394	:	00FFEE32;
395	:	00FFFE31;
396	:	0000001B;
397	:	0000008E;
398	:	00FFFBD1;
399	:	00FFF85B;
400	:	00FFFFDB;
401	:	000013E1;
402	:	00002C0E;
403	:	00001C22;
404	:	00000F73;
405	:	00FFF50D;
406	:	00FFFE30;
407	:	00000252;
408	:	00FFFB5D;
409	:	000013AC;
410	:	00001295;
411	:	00FFE722;
412	:	00FFFAF4;
413	:	00000DC2;
414	:	00FFFFA5;
415	:	00FFEEC9;
416	:	00FFF3FA;
417	:	00FFFF16;
418	:	00FFFCAA;
419	:	00000C58;
420	:	00000FD7;
421	:	00001E9B;
422	:	0000002A;
423	:	00FFDB6C;
424	:	00FFEE02;
425	:	00FFE6C9;
426	:	00FFDDF7;
427	:	0000066F;
428	:	00FFFDE6;
429	:	00000193;
430	:	0000142C;
431	:	0000103D;
432	:	00000B2B;
433	:	00FFF7AB;
434	:	00FFF57F;
435	:	000002A2;
436	:	00FFE10D;
437	:	0000129B;
438	:	000019CF;
439	:	00FFFBE3;
440	:	00FFFD4D;
441	:	000009EB;
442	:	00001082;
443	:	00001B2F;
444	:	00001340;
445	:	00001820;
446	:	00002505;
447	:	00000FEC;
448	:	00001113;
449	:	00000C7A;
450	:	00000045;
451	:	00FFEF04;
452	:	00FFEFF1;
453	:	000000AB;
454	:	000014BE;
455	:	0000137B;
456	:	00002DF4;
457	:	000025B6;
458	:	00003482;
459	:	000012A5;
460	:	00000784;
461	:	00FFFEB2;
462	:	00FFFAE9;
463	:	00FFEE5E;
464	:	00000332;
465	:	0000030D;
466	:	0000180C;
467	:	00002EE8;
468	:	0000275B;
469	:	00003D5F;
470	:	00001FA2;
471	:	0000032C;
472	:	000001CF;
473	:	00FFFB66;
474	:	00000739;
475	:	00FFFEBA;
476	:	00FFFC5E;
477	:	00FFF619;
478	:	00FFFBCE;
479	:	00FFFAAB;
480	:	000006FE;
481	:	00000355;
482	:	00FFFC25;
483	:	00FFFCB5;
484	:	00FFFEAF;
485	:	00FFFA4E;
486	:	00FFF99F;
487	:	00FFFD2B;
488	:	00FFF306;
489	:	00FFDE7F;
490	:	00FFF485;
491	:	00FFF99B;
492	:	000002FB;
493	:	00FFFC2D;
494	:	00FFFBD7;
495	:	00FFFF9B;
496	:	00FFF468;
497	:	00FFF7DD;
498	:	000002A2;
499	:	00000D2F;
500	:	00001BC9;
501	:	000026B2;
502	:	00002343;
503	:	00FFFBED;
504	:	00FFFA96;
505	:	00FFFD72;
506	:	00FFFC56;
507	:	00FFF38E;
508	:	0000074A;
509	:	0000212B;
510	:	00000EC3;
511	:	00002AEE;
512	:	00003013;
513	:	000034D0;
514	:	0000178F;
515	:	0000027E;
516	:	00FFFEDD;
517	:	00FFECB7;
518	:	00FFF2E7;
519	:	00FFF031;
520	:	00000BCF;
521	:	000023F9;
522	:	00000D3F;
523	:	00002446;
524	:	000000B5;
525	:	00FFFB6D;
526	:	00FFFE21;
527	:	0000041E;
528	:	00FFF3D2;
529	:	00FFF5F7;
530	:	0000083C;
531	:	000034DF;
532	:	000020B9;
533	:	00FFE62C;
534	:	00000161;
535	:	00FFE6D7;
536	:	00FFF5CE;
537	:	00FFFE9C;
538	:	00FFFD5E;
539	:	00FFFFEA;
540	:	00001168;
541	:	00001534;
542	:	00001A14;
543	:	00000BD9;
544	:	00000BB6;
545	:	00001D21;
546	:	0000229B;
547	:	000005C2;
548	:	000001C4;
549	:	00FFFB4E;
550	:	00FFFD66;
551	:	00001159;
552	:	00FFE5DA;
553	:	000004C9;
554	:	00001B38;
555	:	00000A26;
556	:	00001C6C;
557	:	00002B81;
558	:	00002456;
559	:	000000B9;
560	:	00FFFDDA;
561	:	00FFF8BF;
562	:	00FFE7D7;
563	:	00FFEE29;
564	:	00002221;
565	:	000027EE;
566	:	00002930;
567	:	00001D8B;
568	:	000020BE;
569	:	0000074E;
570	:	00000091;
571	:	00FFFAFC;
572	:	00FFF7F4;
573	:	00FFEF9E;
574	:	00FFFCA1;
575	:	00FFFFA6;
576	:	00002A35;
577	:	000008F0;
578	:	00000D61;
579	:	00000D33;
580	:	0000070D;
581	:	00FFFF6D;
582	:	00FFFCDC;
583	:	00FFF821;
584	:	00FFFB8B;
585	:	00FFF7D0;
586	:	00FFF572;
587	:	00FFF49E;
588	:	00FFFD9A;
589	:	00FFFC7A;
590	:	0000073D;
591	:	00FFFE14;
592	:	00FFFCD4;
593	:	0000008A;
594	:	00FFFD61;
595	:	000000F3;
596	:	00FFF976;
597	:	00000483;
598	:	00FFFDB0;
599	:	00000462;
600	:	00000449;
601	:	00FFFFD6;
602	:	00FFFB5B;
603	:	00FFFC80;
604	:	00000345;
605	:	00000644;
606	:	000001B9;
607	:	00FFFC41;
608	:	00FFFAD4;
609	:	00000574;
610	:	00FFF645;
611	:	00FFF699;
612	:	0000046B;
613	:	000002C5;
614	:	000001DC;
615	:	00FFFC3F;
616	:	000005DC;
617	:	00FFF943;
618	:	00FFF05E;
619	:	00FFFDB3;
620	:	00FFE7C9;
621	:	00FFFCAB;
622	:	00FFF291;
623	:	00FFF740;
624	:	00000B8F;
625	:	00FFFCDF;
626	:	00FFFBF7;
627	:	00FFF66E;
628	:	00FFF9DD;
629	:	00FFFD63;
630	:	00001B1B;
631	:	00002392;
632	:	00FFEB0C;
633	:	00000D4B;
634	:	00000662;
635	:	00001F95;
636	:	00FFF8F9;
637	:	00FFFAE8;
638	:	00000E26;
639	:	00000B12;
640	:	0000253C;
641	:	00000361;
642	:	000025C2;
643	:	000015CF;
644	:	00FFF882;
645	:	00001E87;
646	:	00000942;
647	:	00FFF33A;
648	:	00FFFB29;
649	:	00FFF38B;
650	:	000017CA;
651	:	00003205;
652	:	00002DCB;
653	:	00002AEA;
654	:	00FFEB94;
655	:	000031F2;
656	:	00001CE8;
657	:	0000061F;
658	:	00FFFA56;
659	:	00FFFEB2;
660	:	00FFFD15;
661	:	00000F66;
662	:	0000313A;
663	:	000005A1;
664	:	00FFF9B8;
665	:	000004F7;
666	:	00004CED;
667	:	000041B5;
668	:	000017A8;
669	:	00000662;
670	:	00FFFE6C;
671	:	0000063C;
672	:	000006A3;
673	:	000003CA;
674	:	00FFF5DB;
675	:	0000007A;
676	:	000024C2;
677	:	00005E8C;
678	:	000036F6;
679	:	00003EB7;
680	:	00001927;
681	:	00FFFAAE;
682	:	00001794;
683	:	00FFFC20;
684	:	00FFF541;
685	:	00FFDC24;
686	:	00001940;
687	:	000046B6;
688	:	000056B8;
689	:	000024A1;
690	:	000019CF;
691	:	00FFFF74;
692	:	00FFFE22;
693	:	00002801;
694	:	000027E8;
695	:	000015D0;
696	:	000004E1;
697	:	00001ED9;
698	:	00000616;
699	:	00001B52;
700	:	000018B4;
701	:	0000171F;
702	:	00000298;
703	:	00FFFD43;
704	:	000017C6;
705	:	00002050;
706	:	00002424;
707	:	00002D3A;
708	:	00001430;
709	:	00FFFB34;
710	:	00FFF822;
711	:	00FFEE67;
712	:	00FFEAA8;
713	:	00FFEB2F;
714	:	00FFFA7E;
715	:	0000062D;
716	:	00FFFD6E;
717	:	00FFEB45;
718	:	00000605;
719	:	00FFF5A5;
720	:	0000026F;
721	:	0000036E;
722	:	000001C5;
723	:	000011FA;
724	:	000002AA;
725	:	0000008E;
726	:	00FFFEE5;
727	:	00FFFB26;
728	:	00FFFEB9;
729	:	00FFF8B7;
730	:	0000076D;
731	:	00FFF6B2;
732	:	00FFED7D;
733	:	00FFE886;
734	:	00FFFEA7;
735	:	00000023;
736	:	0000000C;
737	:	0000049E;
738	:	00FFFA9F;
739	:	00FFED35;
740	:	00FFEF64;
741	:	00FFEB12;
742	:	00FFEDD2;
743	:	00FFFC53;
744	:	00001064;
745	:	0000096E;
746	:	000003EC;
747	:	000003C4;
748	:	00FFFB65;
749	:	00FFF287;
750	:	00FFD2A3;
751	:	00FFD84D;
752	:	00FFE9B5;
753	:	0000038B;
754	:	000033F1;
755	:	00003357;
756	:	00002666;
757	:	00000181;
758	:	00FFFCA2;
759	:	000002BE;
760	:	00FFEC70;
761	:	00FFD7B5;
762	:	00FFC51D;
763	:	00FFE3A9;
764	:	0000211A;
765	:	0000263A;
766	:	00002D58;
767	:	00002A89;
768	:	00000AD0;
769	:	0000015B;
770	:	0000032B;
771	:	00FFEA9C;
772	:	00FFD97D;
773	:	00FFE87C;
774	:	00FFE38C;
775	:	00001D5C;
776	:	00000B55;
777	:	0000010F;
778	:	0000024B;
779	:	00FFFC73;
780	:	00FFFE3A;
781	:	000001F8;
782	:	00FFFA91;
783	:	00FFF88C;
784	:	00FFE42B;
785	:	00FFE14A;
786	:	00FFE26A;
787	:	00FFEEF2;
788	:	00FFE467;
789	:	00FFE076;
790	:	00FFFB80;
791	:	00FFFD24;
792	:	00FFFB8E;
793	:	00FFF263;
794	:	00FFFB3D;
795	:	00FFF761;
796	:	00FFDDD8;
797	:	00FFEBA1;
798	:	00FFED3F;
799	:	00000E27;
800	:	00FFFC02;
801	:	00000122;
802	:	00FFFEDC;
803	:	00FFFE44;
804	:	00FFFC61;
805	:	00FFEFCE;
806	:	00FFF6D8;
807	:	00FFFB5A;
808	:	00FFE3BC;
809	:	000000BD;
810	:	0000112B;
811	:	00000559;
812	:	00000B07;
813	:	00FFFE7D;
814	:	00FFFC1B;
815	:	00FFF378;
816	:	00FFF023;
817	:	00FFFBD3;
818	:	00FFEE72;
819	:	0000145D;
820	:	00000E70;
821	:	00FFFE66;
822	:	00000512;
823	:	000003C6;
824	:	0000017F;
825	:	00FFFC6C;
826	:	000002F0;
827	:	00FFFB29;
828	:	00FFF46F;
829	:	00FFF74A;
830	:	00FFFDE7;
831	:	00FFF9C8;
832	:	0000017E;
833	:	0000024B;
834	:	00000171;
835	:	00FFFC31;
836	:	00FFFD66;
837	:	000001C7;
838	:	0000018F;
839	:	000002E1;
840	:	00FFFAD0;
841	:	00FFFFB8;
842	:	000002D7;
843	:	0000035A;
844	:	00000169;
845	:	00000258;
846	:	00FFFEE0;
847	:	00FFFB39;
848	:	000005CA;
849	:	00001CC2;
850	:	0000205B;
851	:	00FFEA64;
852	:	00FFE3E1;
853	:	00FFD042;
854	:	00FFEC89;
855	:	00FFFA5B;
856	:	00FFFB72;
857	:	00FFFA50;
858	:	00FFFD85;
859	:	00FFFD36;
860	:	00FFF62D;
861	:	00FFF67C;
862	:	00FFFCF4;
863	:	00FFF99B;
864	:	00FFEAF0;
865	:	00000D55;
866	:	00FFFD8B;
867	:	00FFFB44;
868	:	00000112;
869	:	000001BB;
870	:	00FFF143;
871	:	00FFE574;
872	:	00FFDB0B;
873	:	00FFF5EB;
874	:	00FFE4F1;
875	:	00FFF159;
876	:	00FFE82A;
877	:	00FFEFC6;
878	:	00FFF818;
879	:	00000017;
880	:	00FFFAEB;
881	:	00FFFA0D;
882	:	00FFFD89;
883	:	00FFFD83;
884	:	00FFFF3C;
885	:	000002C4;
886	:	00000C54;
887	:	000012B0;
888	:	00FFFAF6;
889	:	00FFFCDC;
890	:	00FFFFEA;
891	:	00000874;
892	:	0000061D;
893	:	000016D7;
894	:	00000C56;
895	:	00001E10;
896	:	000015D2;
897	:	00FFFD65;
898	:	00FFFC81;
899	:	00FFFE94;
900	:	00000483;
901	:	0000026F;
902	:	00000AB4;
903	:	00000A8A;
904	:	000020E9;
905	:	000016F8;
906	:	00002470;
907	:	00FFF169;
908	:	00FFDF16;
909	:	00FFEC2D;
910	:	00FFFA0B;
911	:	00000717;
912	:	00FFFF24;
913	:	00000495;
914	:	000009B8;
915	:	00001521;
916	:	00FFF510;
917	:	0000043D;
918	:	00FFFD7A;
919	:	00FFFB12;
920	:	00FFF7CC;
921	:	00FFEE6B;
922	:	00FFFCC6;
923	:	00FFFE28;
924	:	00FFFAFA;
925	:	00000328;
926	:	000020D1;
927	:	000019E3;
928	:	00FFFDCF;
929	:	00001CDE;
930	:	00000234;
931	:	00FFE22F;
932	:	00FFEEA9;
933	:	00000584;
934	:	00000363;
935	:	00FFF9DF;
936	:	00FFFA5E;
937	:	00000014;
938	:	00FFF5E5;
939	:	00FFDA48;
940	:	00FFDE7F;
941	:	00FFDDBB;
942	:	00FFE426;
943	:	00FFFC49;
944	:	00FFFBB9;
945	:	00000122;
946	:	00000137;
947	:	0000004E;
948	:	000001AF;
949	:	0000005A;
950	:	00FFF6C1;
951	:	00FFEF02;
952	:	00FFF489;
953	:	00FFFDF8;
954	:	00FFFD93;
955	:	00FFFAFA;
956	:	00FFFD00;
957	:	00FFFB05;
958	:	0000024E;
959	:	0000045C;
960	:	000003AA;
961	:	00FFFFCF;
962	:	00000093;
963	:	00FFFF7F;
964	:	000003AA;
965	:	00FFFDF8;
966	:	00FFFC0E;
967	:	00FFFD1D;
968	:	00000000;
969	:	00000000;
970	:	00000000;
971	:	00000000;
972	:	00000000;
973	:	00000000;
974	:	00000000;
975	:	00000000;
976	:	00000000;
977	:	00000000;
978	:	00000000;
979	:	00000000;
980	:	00000000;
981	:	00000000;
982	:	00000000;
983	:	00000000;
984	:	00000000;
985	:	00000000;
986	:	00000000;
987	:	00000000;
988	:	00000000;
989	:	00000000;
990	:	00000000;
991	:	00000000;
992	:	00000000;
993	:	00000000;
994	:	00000000;
995	:	00000000;
996	:	00000000;
997	:	00000000;
998	:	00000000;
999	:	00000000;
1000	:	00000000;
1001	:	00000000;
1002	:	00000000;
1003	:	00000000;
1004	:	00000000;
1005	:	00000000;
1006	:	00000000;
1007	:	00000000;
1008	:	00000000;
1009	:	00000000;
1010	:	00000000;
1011	:	00000000;
1012	:	00000000;
1013	:	00000000;
1014	:	00000000;
1015	:	00000000;
1016	:	00000000;
1017	:	00000000;
1018	:	00000000;
1019	:	00000000;
1020	:	00000000;
1021	:	00000000;
1022	:	00000000;
1023	:	00000000;
END;