WIDTH = 24;
DEPTH=1024;

ADDRESS_RADIX=UNS;
DATA_RADIX=HEX;

CONTENT BEGIN
0	:	000003B2;
1	:	00000821;
2	:	000011C6;
3	:	00000790;
4	:	0000100B;
5	:	00FFED7D;
6	:	00FFF650;
7	:	00FFFF31;
8	:	00FFFE1F;
9	:	000007CB;
10	:	00000E18;
11	:	00FFF70A;
12	:	00FFFC89;
13	:	00000AF0;
14	:	00FFF83A;
15	:	00000037;
16	:	00000256;
17	:	00FFFA46;
18	:	000011DB;
19	:	0000091C;
20	:	000007A7;
21	:	00FFFBD3;
22	:	00FFF3A0;
23	:	000010AE;
24	:	000013E3;
25	:	00000025;
26	:	00000D16;
27	:	00001373;
28	:	00FFF4D6;
29	:	00FFED04;
30	:	00FFF95C;
31	:	00FFECD8;
32	:	00000A90;
33	:	00FFF0CD;
34	:	00000B69;
35	:	00FFF606;
36	:	00000431;
37	:	00FFFE30;
38	:	00FFFC6B;
39	:	00FFFCFE;
40	:	00FFFB2F;
41	:	00000630;
42	:	00FFF09C;
43	:	00FFF035;
44	:	00000201;
45	:	000007EE;
46	:	00FFFF50;
47	:	00FFF6D8;
48	:	00FFFE3E;
49	:	00FFEDDB;
50	:	000009B5;
51	:	00001115;
52	:	00000635;
53	:	00000953;
54	:	000007D5;
55	:	00FFF312;
56	:	000013AA;
57	:	00000B0E;
58	:	00FFEDC2;
59	:	00000289;
60	:	000011A4;
61	:	00000636;
62	:	00FFEC28;
63	:	00FFFF70;
64	:	00FFF93B;
65	:	00FFEEC7;
66	:	00FFFFA9;
67	:	00FFF3B8;
68	:	00FFF1B2;
69	:	000006E8;
70	:	000012FC;
71	:	0000070E;
72	:	000007B2;
73	:	000012F7;
74	:	00FFF0BE;
75	:	00000C1A;
76	:	000003DC;
77	:	00FFFD03;
78	:	00000E7C;
79	:	00000F6D;
80	:	000010F0;
81	:	00000F4F;
82	:	00FFF9D7;
83	:	00FFF4DB;
84	:	00001093;
85	:	00FFF137;
86	:	00000792;
87	:	0000096D;
88	:	00000DFD;
89	:	00FFF24B;
90	:	00FFFE2C;
91	:	000010EB;
92	:	000001B2;
93	:	00FFF488;
94	:	00FFFAA4;
95	:	00000E72;
96	:	00000850;
97	:	000011C8;
98	:	00000FC9;
99	:	00000D73;
100	:	00FFF87F;
101	:	00FFF28C;
102	:	00FFED7A;
103	:	0000118B;
104	:	00FFEC0A;
105	:	0000089A;
106	:	00FFF71B;
107	:	00FFF02A;
108	:	00FFFBD1;
109	:	00000206;
110	:	00FFFB30;
111	:	0000012B;
112	:	000004D9;
113	:	0000128F;
114	:	00000072;
115	:	000010E8;
116	:	000012DE;
117	:	0000010D;
118	:	00FFFD70;
119	:	00FFEFC4;
120	:	00000E41;
121	:	00FFF487;
122	:	00FFFD1D;
123	:	000010C8;
124	:	00FFED0F;
125	:	000004EF;
126	:	00FFEDA6;
127	:	00000818;
128	:	00FFF701;
129	:	00FFEE79;
130	:	00FFF30C;
131	:	0000032F;
132	:	000010E3;
133	:	00000FD1;
134	:	00FFF27D;
135	:	0000077C;
136	:	00FFF561;
137	:	00FFF3B9;
138	:	00FFF7F7;
139	:	00001013;
140	:	00001406;
141	:	00000E09;
142	:	00000B09;
143	:	0000000A;
144	:	00FFF6CE;
145	:	00000F81;
146	:	000009AC;
147	:	000011AF;
148	:	00000B99;
149	:	00FFF4DA;
150	:	00FFFE57;
151	:	00000DE9;
152	:	00FFECFA;
153	:	00000E66;
154	:	00FFFD41;
155	:	000005C1;
156	:	00000EBE;
157	:	00000D45;
158	:	000006D1;
159	:	00001348;
160	:	00FFF937;
161	:	00FFFC4B;
162	:	00FFF820;
163	:	00FFFF04;
164	:	00FFECB8;
165	:	00000C90;
166	:	00FFFCA4;
167	:	00000946;
168	:	00FFF14B;
169	:	00FFED37;
170	:	000002BE;
171	:	00FFF5F9;
172	:	00FFF024;
173	:	0000020F;
174	:	00FFEE8A;
175	:	00FFFE49;
176	:	00FFEF9B;
177	:	00FFFC97;
178	:	00000D49;
179	:	00FFF5CA;
180	:	0000010B;
181	:	00FFFF74;
182	:	0000136D;
183	:	00000E82;
184	:	00FFF175;
185	:	00FFEE8C;
186	:	0000029A;
187	:	00FFF45B;
188	:	00FFF8E6;
189	:	00FFFA7E;
190	:	00000F51;
191	:	0000115F;
192	:	00FFF76F;
193	:	0000053F;
194	:	00FFFFB6;
195	:	00000966;
196	:	00000C65;
197	:	00FFF766;
198	:	00001199;
199	:	00FFF735;
200	:	00FFFD4E;
201	:	00FFFE7D;
202	:	000001E4;
203	:	00FFF743;
204	:	00FFEE32;
205	:	00FFF82E;
206	:	0000119A;
207	:	00000DFE;
208	:	000008D9;
209	:	00FFEE6F;
210	:	00001083;
211	:	00FFFD9A;
212	:	00000D10;
213	:	0000022F;
214	:	000008BA;
215	:	00FFFB75;
216	:	00FFF359;
217	:	00FFF2F7;
218	:	000013A8;
219	:	0000115C;
220	:	00001140;
221	:	00FFEDBC;
222	:	00FFF5B1;
223	:	00000D65;
224	:	0000013B;
225	:	000008C7;
226	:	00000174;
227	:	00FFF305;
228	:	00000D6D;
229	:	00000F18;
230	:	00FFF30D;
231	:	00000861;
232	:	00FFFFF8;
233	:	0000115E;
234	:	00FFFAED;
235	:	00FFFDA4;
236	:	00000AF3;
237	:	00000102;
238	:	000000C8;
239	:	00FFF5F8;
240	:	000011ED;
241	:	00FFFB5C;
242	:	00FFFC76;
243	:	0000090B;
244	:	00FFEC96;
245	:	000001FE;
246	:	000005C0;
247	:	00FFF25E;
248	:	00FFFDCE;
249	:	00FFF882;
250	:	00FFFDA2;
251	:	00000928;
252	:	00FFFFBE;
253	:	00001397;
254	:	00FFF602;
255	:	00FFEC35;
256	:	00FFF280;
257	:	00001313;
258	:	0000088E;
259	:	00FFEE38;
260	:	00FFF539;
261	:	00000AC1;
262	:	00FFEE73;
263	:	00FFF227;
264	:	00FFFB48;
265	:	00000D3F;
266	:	00FFEC54;
267	:	00000B67;
268	:	00FFF65B;
269	:	00FFF20A;
270	:	00000C94;
271	:	00FFEF01;
272	:	00FFF183;
273	:	00000CF6;
274	:	00FFEFB0;
275	:	00FFF498;
276	:	00FFFC73;
277	:	00FFECF1;
278	:	00000804;
279	:	00FFEE01;
280	:	00FFEFAE;
281	:	00000428;
282	:	000004BE;
283	:	00FFEE6E;
284	:	00FFF957;
285	:	00FFFF40;
286	:	00FFEC01;
287	:	00FFEEB3;
288	:	00000A53;
289	:	00FFF2B4;
290	:	000007E7;
291	:	00000580;
292	:	000007C8;
293	:	00FFED9B;
294	:	00001111;
295	:	00000766;
296	:	00FFF5C1;
297	:	00FFFB3C;
298	:	00FFF9EE;
299	:	00001208;
300	:	00FFF89E;
301	:	00FFFB64;
302	:	00000F74;
303	:	00FFF296;
304	:	00FFF8BD;
305	:	00FFF8DA;
306	:	00FFF250;
307	:	00FFFF51;
308	:	00FFF10C;
309	:	00FFF7FF;
310	:	00FFF947;
311	:	00000AC6;
312	:	00000F91;
313	:	00FFFA61;
314	:	00000324;
315	:	00000B4B;
316	:	000006C3;
317	:	00FFED9A;
318	:	00001157;
319	:	00FFFEF0;
320	:	00FFED0C;
321	:	00FFECF4;
322	:	000004CA;
323	:	00FFF0C2;
324	:	00000505;
325	:	000012B5;
326	:	000011A8;
327	:	00000B18;
328	:	00FFFC45;
329	:	00000360;
330	:	00FFF16C;
331	:	00FFFAC0;
332	:	000008AF;
333	:	00000D29;
334	:	000008F9;
335	:	000007DC;
336	:	00FFFC79;
337	:	0000025E;
338	:	00FFFD33;
339	:	00FFEFD7;
340	:	00FFF2EF;
341	:	00000F6C;
342	:	00FFFBB3;
343	:	00000CC6;
344	:	000005DF;
345	:	00000911;
346	:	00000F17;
347	:	00FFFEBB;
348	:	000001C6;
349	:	00FFEE5C;
350	:	00000FFA;
351	:	00FFF330;
352	:	0000110C;
353	:	00000310;
354	:	00FFFF1A;
355	:	00FFF9B4;
356	:	00001115;
357	:	00000C8B;
358	:	00FFED97;
359	:	00FFF531;
360	:	00FFF95A;
361	:	0000072B;
362	:	00000A2E;
363	:	00000FB7;
364	:	0000084B;
365	:	00FFF476;
366	:	00FFF169;
367	:	00000122;
368	:	00000F4D;
369	:	00FFF3F5;
370	:	00FFF095;
371	:	00000C70;
372	:	00FFEC7A;
373	:	00FFEC93;
374	:	00FFF1D3;
375	:	00000FC7;
376	:	00FFF7EF;
377	:	00FFF2BA;
378	:	00FFFF01;
379	:	00FFF3C9;
380	:	00FFEF4A;
381	:	00FFF6E3;
382	:	0000021D;
383	:	00FFEC2D;
384	:	00FFF96F;
385	:	00FFF10B;
386	:	00FFEC75;
387	:	00000FCF;
388	:	000007C6;
389	:	0000037F;
390	:	00001361;
391	:	00000110;
392	:	000010C6;
393	:	00FFFC5C;
394	:	00001189;
395	:	000000CE;
396	:	0000089D;
397	:	00001075;
398	:	00FFF195;
399	:	00000D3D;
400	:	00000DFA;
401	:	00001301;
402	:	00FFFE91;
403	:	00000386;
404	:	00000BD9;
405	:	00001146;
406	:	00FFEFA2;
407	:	00000053;
408	:	00FFF376;
409	:	000012E1;
410	:	000000FE;
411	:	00000D0A;
412	:	000009B0;
413	:	00000F64;
414	:	0000012E;
415	:	000009C5;
416	:	00000A48;
417	:	00FFED9D;
418	:	00FFFA42;
419	:	0000005B;
420	:	00FFFFDB;
421	:	00000EBA;
422	:	000007F3;
423	:	00FFF2B2;
424	:	00FFF070;
425	:	00000312;
426	:	00000A2F;
427	:	00FFF324;
428	:	00FFEDB2;
429	:	00000A21;
430	:	00FFF17A;
431	:	00000406;
432	:	00FFF98C;
433	:	00FFF87C;
434	:	00FFFCC3;
435	:	00FFFD6E;
436	:	00000129;
437	:	00FFF17C;
438	:	0000008D;
439	:	000006AA;
440	:	00FFED3F;
441	:	00FFF0B2;
442	:	00FFFFF5;
443	:	00000248;
444	:	0000054A;
445	:	0000092F;
446	:	00000714;
447	:	00FFF764;
448	:	00FFF155;
449	:	00FFFF5E;
450	:	00FFF439;
451	:	00FFF956;
452	:	00FFF139;
453	:	00000F1E;
454	:	00FFF258;
455	:	000008E1;
456	:	00FFF68E;
457	:	00FFEDA6;
458	:	00FFFFB9;
459	:	00FFEFA1;
460	:	00FFEE57;
461	:	00FFEE36;
462	:	00FFFCBA;
463	:	00FFEE21;
464	:	00FFFF75;
465	:	000008A5;
466	:	00FFFBE3;
467	:	0000123C;
468	:	00FFF9B1;
469	:	00000C60;
470	:	000004C1;
471	:	00000F7C;
472	:	00FFFFCE;
473	:	00000E3C;
474	:	000012B1;
475	:	00FFF52F;
476	:	00FFF934;
477	:	00000FB9;
478	:	00000AF6;
479	:	000012DC;
480	:	00FFEE4B;
481	:	00FFF9E1;
482	:	000004BC;
483	:	00FFF04A;
484	:	00000FB5;
485	:	00FFFFDB;
486	:	00FFEE35;
487	:	00FFEC3D;
488	:	0000094A;
489	:	00FFEC5C;
490	:	00FFF345;
491	:	00000D45;
492	:	00000802;
493	:	00000425;
494	:	00FFF3EE;
495	:	00FFF252;
496	:	0000134D;
497	:	00FFF0EE;
498	:	000006F3;
499	:	00000368;
500	:	00FFF9F3;
501	:	00FFF8DF;
502	:	0000120F;
503	:	00001038;
504	:	00FFF1D5;
505	:	00FFECF1;
506	:	000012C2;
507	:	00000244;
508	:	00001316;
509	:	00FFFB6E;
510	:	00FFF9E7;
511	:	00FFF096;
512	:	00FFF3D4;
513	:	00000FAF;
514	:	00FFFDBF;
515	:	00FFFD7C;
516	:	00000796;
517	:	00FFF503;
518	:	000010AD;
519	:	00000E8E;
520	:	0000077A;
521	:	00FFEDFB;
522	:	00FFF14C;
523	:	00FFF063;
524	:	000003D6;
525	:	00FFFA92;
526	:	00FFF629;
527	:	00FFFD37;
528	:	00FFEE67;
529	:	00FFF030;
530	:	00FFF7A8;
531	:	00FFF19A;
532	:	00000D06;
533	:	00FFED70;
534	:	00000E60;
535	:	0000035E;
536	:	0000123F;
537	:	000007D6;
538	:	00FFF2F3;
539	:	00001030;
540	:	00000D18;
541	:	00FFEC15;
542	:	00000FBE;
543	:	00000630;
544	:	000002CF;
545	:	00FFEF1F;
546	:	0000111B;
547	:	00001065;
548	:	00FFF0DF;
549	:	00FFF2D4;
550	:	00FFF620;
551	:	00FFFA19;
552	:	00FFF8D4;
553	:	0000091A;
554	:	00000BE1;
555	:	00FFF02C;
556	:	00001380;
557	:	00FFEDE9;
558	:	00FFFC7F;
559	:	00FFED65;
560	:	000003AA;
561	:	00FFF19D;
562	:	000008A1;
563	:	000011AC;
564	:	00000350;
565	:	00FFF1D9;
566	:	00000630;
567	:	00FFFE8D;
568	:	00FFEC4E;
569	:	00001122;
570	:	00FFF757;
571	:	00000D6C;
572	:	000007B9;
573	:	000004CC;
574	:	000009CE;
575	:	000000F6;
576	:	0000062C;
577	:	0000079E;
578	:	00FFFFD6;
579	:	00FFF68E;
580	:	00FFF5E8;
581	:	00FFFB98;
582	:	00FFEE95;
583	:	00000905;
584	:	00001294;
585	:	00FFF34F;
586	:	000009A7;
587	:	00FFF939;
588	:	00FFF2DE;
589	:	00FFFADE;
590	:	00FFF6C3;
591	:	00FFF93E;
592	:	000006BB;
593	:	00FFED6E;
594	:	0000007D;
595	:	000009A9;
596	:	00FFFF51;
597	:	00000B9B;
598	:	000003EF;
599	:	00000FA7;
600	:	00FFF2D1;
601	:	0000110A;
602	:	00FFFB20;
603	:	00000A9F;
604	:	00000A72;
605	:	000006D0;
606	:	00001074;
607	:	00000939;
608	:	00FFEF4C;
609	:	0000128E;
610	:	0000066D;
611	:	000003C2;
612	:	0000016E;
613	:	00FFFA3C;
614	:	00FFF15D;
615	:	00FFFD12;
616	:	00FFF1ED;
617	:	00FFF413;
618	:	00000774;
619	:	00000DB7;
620	:	000004E8;
621	:	00000CAD;
622	:	00FFF212;
623	:	00FFF569;
624	:	000011C2;
625	:	00000BE6;
626	:	00FFED66;
627	:	00000697;
628	:	00000FFC;
629	:	00FFF833;
630	:	00FFED6B;
631	:	00FFECCA;
632	:	00FFF075;
633	:	00FFED62;
634	:	00FFFA03;
635	:	00000824;
636	:	00FFFF7D;
637	:	00000BF5;
638	:	00FFF455;
639	:	0000136B;
640	:	00FFF59A;
641	:	000009C4;
642	:	0000061D;
643	:	00FFFAF6;
644	:	00FFEC31;
645	:	00000FB2;
646	:	00FFF083;
647	:	00000774;
648	:	00000484;
649	:	00FFEC8B;
650	:	00FFF9D1;
651	:	000003FD;
652	:	000004D2;
653	:	00FFF019;
654	:	0000139A;
655	:	00000758;
656	:	00000992;
657	:	00000265;
658	:	00FFF72B;
659	:	00000BE9;
660	:	00000575;
661	:	00FFFD77;
662	:	00FFEE21;
663	:	00000E8D;
664	:	00000D8A;
665	:	000011A5;
666	:	000007B2;
667	:	00FFF2D4;
668	:	00000CFA;
669	:	00000378;
670	:	00FFF42C;
671	:	00FFED98;
672	:	0000012B;
673	:	00FFEEC2;
674	:	000002F1;
675	:	00001103;
676	:	00FFFBB5;
677	:	00000EE1;
678	:	000011B4;
679	:	00000108;
680	:	00FFF20C;
681	:	0000009E;
682	:	00FFF51F;
683	:	000010F9;
684	:	00FFF076;
685	:	00000F90;
686	:	00FFF1AA;
687	:	00FFEFE2;
688	:	00FFED8C;
689	:	00000301;
690	:	00FFEEF3;
691	:	00000142;
692	:	00FFFA00;
693	:	000006C1;
694	:	00000ECF;
695	:	00000E22;
696	:	00000D83;
697	:	00FFEF4E;
698	:	000007CE;
699	:	00001035;
700	:	00001358;
701	:	00000E7D;
702	:	00000E45;
703	:	00FFF7EE;
704	:	00000C60;
705	:	00FFF45E;
706	:	00000F05;
707	:	00000DB6;
708	:	0000020D;
709	:	00FFFE41;
710	:	00FFFC2B;
711	:	00FFFDC6;
712	:	00FFFEF8;
713	:	00000A34;
714	:	00000AEE;
715	:	00000469;
716	:	000000D8;
717	:	00FFF4BC;
718	:	00FFF127;
719	:	0000094E;
720	:	00000684;
721	:	00000C37;
722	:	00000643;
723	:	00FFFF29;
724	:	00FFF49D;
725	:	00000D20;
726	:	00001053;
727	:	00000191;
728	:	0000002A;
729	:	00FFED60;
730	:	00FFED5A;
731	:	00FFFE7E;
732	:	0000057F;
733	:	000006CC;
734	:	00FFFDC4;
735	:	00000DA4;
736	:	00000E66;
737	:	00001250;
738	:	00FFF5F9;
739	:	00000680;
740	:	00FFF078;
741	:	00FFF704;
742	:	00FFFE6A;
743	:	000000AD;
744	:	0000026F;
745	:	00FFFEC9;
746	:	00FFEC16;
747	:	00001185;
748	:	00FFEFE9;
749	:	000001A0;
750	:	00FFED7E;
751	:	00000AF0;
752	:	00FFFDF1;
753	:	000006CD;
754	:	00000591;
755	:	00000DC3;
756	:	00FFEF8D;
757	:	00000E77;
758	:	0000107B;
759	:	00FFF66F;
760	:	00FFF444;
761	:	000009B8;
762	:	00FFF21E;
763	:	00001365;
764	:	000004DA;
765	:	0000139C;
766	:	00FFFD9F;
767	:	00000750;
768	:	00FFEFF7;
769	:	00000B3E;
770	:	00FFEC18;
771	:	00FFF333;
772	:	00FFF6A5;
773	:	00000ED4;
774	:	00FFF372;
775	:	00FFFB25;
776	:	00FFF199;
777	:	00FFF6D3;
778	:	00FFF1CE;
779	:	00000A24;
780	:	000006A1;
781	:	00FFF234;
782	:	00000D44;
783	:	000001FF;
784	:	00000967;
785	:	00FFF511;
786	:	00FFED22;
787	:	000011E9;
788	:	000011F1;
789	:	00000F15;
790	:	00FFEF54;
791	:	00000570;
792	:	00FFF774;
793	:	00000094;
794	:	00FFEF7C;
795	:	00000119;
796	:	00FFF281;
797	:	00FFF332;
798	:	00FFF277;
799	:	00000538;
800	:	00000391;
801	:	00FFF777;
802	:	00000D61;
803	:	00FFFBA8;
804	:	0000003D;
805	:	00FFF06B;
806	:	00FFFD68;
807	:	00000C44;
808	:	000006A9;
809	:	00000074;
810	:	00FFFCD2;
811	:	00000E0D;
812	:	00000673;
813	:	00000B62;
814	:	000013DF;
815	:	00000E5F;
816	:	00000C9E;
817	:	00FFF721;
818	:	0000132D;
819	:	000005B9;
820	:	00FFFFA6;
821	:	000004A0;
822	:	00FFF442;
823	:	00000510;
824	:	0000086E;
825	:	00FFFFE8;
826	:	00FFF996;
827	:	000012A7;
828	:	00000153;
829	:	00FFF484;
830	:	00FFFAA0;
831	:	00FFFEB0;
832	:	00FFF8D8;
833	:	00000AB8;
834	:	00FFED73;
835	:	00000F54;
836	:	00000A31;
837	:	00FFF864;
838	:	00000CC8;
839	:	00FFEC07;
840	:	00001085;
841	:	00000799;
842	:	00FFFCCC;
843	:	00000F18;
844	:	00FFF32B;
845	:	00000F4C;
846	:	00FFFEF8;
847	:	00FFF0CB;
848	:	00FFEE39;
849	:	00001166;
850	:	0000055D;
851	:	00FFF3AA;
852	:	00FFFEA7;
853	:	00FFF8CD;
854	:	00FFF256;
855	:	000002B4;
856	:	00000760;
857	:	00000577;
858	:	00FFFA1F;
859	:	00FFFF3B;
860	:	00000CF5;
861	:	00FFF306;
862	:	00000F42;
863	:	00000ED3;
864	:	00000FAD;
865	:	00FFF81C;
866	:	00000C47;
867	:	00FFFF3F;
868	:	00FFED07;
869	:	0000015F;
870	:	000000F2;
871	:	00000295;
872	:	00000503;
873	:	00FFFDD4;
874	:	00FFF527;
875	:	00000B2E;
876	:	000006AE;
877	:	00000FF1;
878	:	00FFF4E1;
879	:	00000575;
880	:	00000886;
881	:	00FFF897;
882	:	00FFEFD8;
883	:	000004D3;
884	:	000006AE;
885	:	00FFF66A;
886	:	00FFECAB;
887	:	00000232;
888	:	00FFFAC4;
889	:	00000FBA;
890	:	00FFFB77;
891	:	000002DF;
892	:	00000270;
893	:	0000120D;
894	:	00FFEF94;
895	:	00001021;
896	:	00FFF564;
897	:	00000941;
898	:	00FFF3B1;
899	:	00FFF492;
900	:	00FFF693;
901	:	00FFF232;
902	:	00FFF18B;
903	:	00FFFCFC;
904	:	00FFF75D;
905	:	00000AD2;
906	:	00FFECA0;
907	:	00000864;
908	:	00001187;
909	:	00000AB1;
910	:	00FFEE65;
911	:	000001E9;
912	:	00FFFEA2;
913	:	00FFF9CF;
914	:	00FFECCE;
915	:	00FFF7E8;
916	:	00000994;
917	:	00FFECEB;
918	:	00FFF39E;
919	:	00000858;
920	:	00001075;
921	:	00000A16;
922	:	00FFEE27;
923	:	00000B4E;
924	:	00FFFF7E;
925	:	00000840;
926	:	00FFF516;
927	:	00FFED8E;
928	:	00FFF0CA;
929	:	00000764;
930	:	00000BAE;
931	:	00FFEF00;
932	:	0000032C;
933	:	00FFF224;
934	:	00FFFFCA;
935	:	00001179;
936	:	00000677;
937	:	00000366;
938	:	00FFFBC1;
939	:	00FFEF4D;
940	:	00FFF031;
941	:	00FFFDB7;
942	:	00FFF5FE;
943	:	00FFEE43;
944	:	00FFF4ED;
945	:	00FFFA44;
946	:	000012BD;
947	:	000004B3;
948	:	00FFF5A8;
949	:	0000064A;
950	:	00000753;
951	:	00000638;
952	:	00FFFB72;
953	:	00FFFCEE;
954	:	00FFF0A5;
955	:	0000015A;
956	:	0000003F;
957	:	00FFF99C;
958	:	00FFFFDA;
959	:	00FFFEB4;
960	:	00FFFEAB;
961	:	00FFFCA6;
962	:	00FFF8F1;
963	:	00000EB6;
964	:	00FFF9FE;
965	:	00000EB4;
966	:	00FFF816;
967	:	000001C9;
968	:	00000000;
969	:	00000000;
970	:	00000000;
971	:	00000000;
972	:	00000000;
973	:	00000000;
974	:	00000000;
975	:	00000000;
976	:	00000000;
977	:	00000000;
978	:	00000000;
979	:	00000000;
980	:	00000000;
981	:	00000000;
982	:	00000000;
983	:	00000000;
984	:	00000000;
985	:	00000000;
986	:	00000000;
987	:	00000000;
988	:	00000000;
989	:	00000000;
990	:	00000000;
991	:	00000000;
992	:	00000000;
993	:	00000000;
994	:	00000000;
995	:	00000000;
996	:	00000000;
997	:	00000000;
998	:	00000000;
999	:	00000000;
1000	:	00000000;
1001	:	00000000;
1002	:	00000000;
1003	:	00000000;
1004	:	00000000;
1005	:	00000000;
1006	:	00000000;
1007	:	00000000;
1008	:	00000000;
1009	:	00000000;
1010	:	00000000;
1011	:	00000000;
1012	:	00000000;
1013	:	00000000;
1014	:	00000000;
1015	:	00000000;
1016	:	00000000;
1017	:	00000000;
1018	:	00000000;
1019	:	00000000;
1020	:	00000000;
1021	:	00000000;
1022	:	00000000;
1023	:	00000000;
END;