WIDTH = 24;
DEPTH=1024;

ADDRESS_RADIX=UNS;
DATA_RADIX=HEX;

CONTENT BEGIN
0	:	00FFF647;
1	:	00FFE9CE;
2	:	00FFDC55;
3	:	00FFDD91;
4	:	00FFD614;
5	:	00FFEE95;
6	:	00FFF8C8;
7	:	00000545;
8	:	00FFFD79;
9	:	00000059;
10	:	00000465;
11	:	00FFF613;
12	:	00FFD199;
13	:	00FFD4B3;
14	:	00FFBBE0;
15	:	00FFCAE9;
16	:	00FFD92F;
17	:	000004E5;
18	:	000014EC;
19	:	000006F9;
20	:	000005B7;
21	:	0000036A;
22	:	00FFFB08;
23	:	00FFE5FC;
24	:	00FFDF1C;
25	:	00FFE971;
26	:	00FFE46C;
27	:	00FFF96A;
28	:	0000136E;
29	:	00002298;
30	:	000012CF;
31	:	00000504;
32	:	00FFFD5C;
33	:	00001238;
34	:	0000034B;
35	:	00FFEA06;
36	:	000009B2;
37	:	00FFF439;
38	:	000006EB;
39	:	000037C3;
40	:	000024A8;
41	:	00000CF1;
42	:	00000DC9;
43	:	000001D1;
44	:	00001E70;
45	:	00000635;
46	:	00FFF56A;
47	:	0000081B;
48	:	00FFEAF7;
49	:	000006BE;
50	:	00003D1E;
51	:	000029A7;
52	:	00000EF5;
53	:	000013DC;
54	:	00FFFCE8;
55	:	0000363E;
56	:	00000DB1;
57	:	00000E8E;
58	:	00000998;
59	:	00FFFBA7;
60	:	00001460;
61	:	00002C53;
62	:	0000211B;
63	:	00001022;
64	:	000010C9;
65	:	00FFFE74;
66	:	00001CA7;
67	:	000020CE;
68	:	00003114;
69	:	000019F7;
70	:	0000050F;
71	:	00001593;
72	:	00001DFE;
73	:	00002651;
74	:	0000183A;
75	:	00FFFE33;
76	:	000001AB;
77	:	000029FA;
78	:	00001B6C;
79	:	00001D4E;
80	:	0000128A;
81	:	00FFF229;
82	:	00FFF5B9;
83	:	00000F78;
84	:	00000773;
85	:	00FFFDA7;
86	:	00FFF350;
87	:	00FFFDDA;
88	:	00002D5F;
89	:	0000160A;
90	:	00000BA5;
91	:	00FFFAD9;
92	:	00FFE2AE;
93	:	00FFEAFB;
94	:	00FFF3DB;
95	:	00FFE591;
96	:	00FFF1A2;
97	:	00FFF307;
98	:	00FFFF66;
99	:	00000041;
100	:	00FFEAFF;
101	:	00FFF880;
102	:	00FFEF62;
103	:	00FFECC9;
104	:	00FFEED2;
105	:	00FFE140;
106	:	00FFE7E1;
107	:	00FFF95E;
108	:	00FFFC72;
109	:	00000050;
110	:	00FFFB56;
111	:	00FFF824;
112	:	00FFFFF0;
113	:	00FFF1A8;
114	:	00FFF872;
115	:	00FFEF92;
116	:	00FFEBA4;
117	:	00FFF20E;
118	:	00FFF9B4;
119	:	00FFF88E;
120	:	00000162;
121	:	00FFF7DD;
122	:	00FFF121;
123	:	00FFF38F;
124	:	00FFE6D9;
125	:	000009D2;
126	:	000019CD;
127	:	00001A38;
128	:	00001817;
129	:	000013B0;
130	:	0000198E;
131	:	00001763;
132	:	00FFF977;
133	:	00FFF452;
134	:	00FFF41C;
135	:	000002F0;
136	:	0000107D;
137	:	00001304;
138	:	00000FE4;
139	:	00000038;
140	:	00FFEE46;
141	:	00FFFAC7;
142	:	00FFFA4E;
143	:	00000068;
144	:	0000028A;
145	:	000004A7;
146	:	00001522;
147	:	00001BEE;
148	:	00000E17;
149	:	000007DE;
150	:	00000AEB;
151	:	00000539;
152	:	0000123B;
153	:	00000AE2;
154	:	0000028B;
155	:	00FFFC49;
156	:	00FFFD39;
157	:	00FFFB00;
158	:	00FFF915;
159	:	00FFF2AE;
160	:	00FFE266;
161	:	00FFCD04;
162	:	00FFDC95;
163	:	00FFF189;
164	:	00FFF9BC;
165	:	000002EC;
166	:	00000163;
167	:	00FFF638;
168	:	00FFF45B;
169	:	00FFE154;
170	:	00FFDD5A;
171	:	00FFCA8E;
172	:	00FFD7A7;
173	:	00FFC7A4;
174	:	00FFD5DC;
175	:	00FFF0EB;
176	:	00FFF8E3;
177	:	00FFF9E2;
178	:	00000DD2;
179	:	000013F7;
180	:	00FFFE41;
181	:	00FFE42A;
182	:	00FFD78B;
183	:	00FFC776;
184	:	00FFBFEC;
185	:	00FFCBFE;
186	:	00FFE69B;
187	:	00FFFFBF;
188	:	00FFF9B2;
189	:	00000ED0;
190	:	00FFFD11;
191	:	00FFF27B;
192	:	00FFFC67;
193	:	00FFD7A9;
194	:	00FFD001;
195	:	00FFE3D3;
196	:	00FFF0D9;
197	:	00FFF531;
198	:	00000174;
199	:	00000288;
200	:	000017F6;
201	:	000013BA;
202	:	000006FC;
203	:	00000008;
204	:	00FFF42E;
205	:	00FFEEC5;
206	:	00FFEB0D;
207	:	00FFED1F;
208	:	00FFF4B1;
209	:	00FFFEC3;
210	:	00FFFD8C;
211	:	00000625;
212	:	00FFF784;
213	:	00FFFC22;
214	:	000006BB;
215	:	00FFF1DB;
216	:	00FFD9A3;
217	:	00FFD8AC;
218	:	00FFF2BC;
219	:	00FFFAE4;
220	:	00FFFE3E;
221	:	00FFF7EA;
222	:	00FFF675;
223	:	00FFFE7F;
224	:	00FFF96A;
225	:	00FFFBCF;
226	:	00FFEC2A;
227	:	00FFDBA5;
228	:	00FFE532;
229	:	00FFF872;
230	:	00FFFD4A;
231	:	00FFFCB5;
232	:	00000340;
233	:	00000324;
234	:	0000054D;
235	:	00FFFA7B;
236	:	0000019E;
237	:	00FFFB5F;
238	:	00000394;
239	:	00FFFBCC;
240	:	00FFFE9C;
241	:	000001AC;
242	:	00FFF8F2;
243	:	0000048B;
244	:	00000179;
245	:	000005EA;
246	:	00000EA6;
247	:	00FFE781;
248	:	00FFE6DD;
249	:	00FFF832;
250	:	00FFF26E;
251	:	00FFFCD7;
252	:	00FFFE97;
253	:	00000154;
254	:	00001343;
255	:	000017CB;
256	:	00001886;
257	:	00001741;
258	:	00001234;
259	:	00000113;
260	:	00FFF3BE;
261	:	00FFF028;
262	:	00FFF87D;
263	:	00000452;
264	:	00001FC8;
265	:	0000132D;
266	:	00001FB0;
267	:	000018C1;
268	:	00002619;
269	:	00002FB2;
270	:	00FFFE64;
271	:	00FFFDD5;
272	:	00FFF0CD;
273	:	00FFF36C;
274	:	00FFF994;
275	:	0000133A;
276	:	00002840;
277	:	00001034;
278	:	00002518;
279	:	00000DCB;
280	:	00FFF111;
281	:	00FFFA15;
282	:	00000843;
283	:	00FFE86B;
284	:	00FFF4DC;
285	:	00FFFBA6;
286	:	00001441;
287	:	00001D07;
288	:	000012D5;
289	:	0000011F;
290	:	00FFE7C6;
291	:	00FFF969;
292	:	00FFFC58;
293	:	00001AE4;
294	:	00001A47;
295	:	00FFFE66;
296	:	00FFFF85;
297	:	000020C5;
298	:	000005A9;
299	:	000000D3;
300	:	00FFDBE1;
301	:	00FFFA56;
302	:	00FFFED3;
303	:	00001F7B;
304	:	00002564;
305	:	00002B31;
306	:	0000071A;
307	:	00FFF982;
308	:	00000200;
309	:	00FFDDEF;
310	:	00FFD9D0;
311	:	00FFD5AC;
312	:	000004AF;
313	:	000021DC;
314	:	00000718;
315	:	000000AA;
316	:	00001520;
317	:	00FFF556;
318	:	000000CB;
319	:	00FFED9D;
320	:	00FFE89C;
321	:	00FFD791;
322	:	00FFE946;
323	:	00000D3F;
324	:	00FFFE68;
325	:	0000096A;
326	:	0000117F;
327	:	00000BB0;
328	:	00FFFE0B;
329	:	00000179;
330	:	00FFF7BF;
331	:	00FFE9E0;
332	:	00FFF083;
333	:	00FFF981;
334	:	00FFF92E;
335	:	0000107E;
336	:	000008F3;
337	:	00FFF27A;
338	:	00FFF482;
339	:	00FFFD04;
340	:	00FFFEC7;
341	:	00FFF473;
342	:	00FFEB35;
343	:	00FFEFAD;
344	:	00FFE453;
345	:	00FFF3BC;
346	:	000003EF;
347	:	00FFFA5D;
348	:	00FFF19C;
349	:	00FFFD9D;
350	:	00FFFF5C;
351	:	00000195;
352	:	00FFF33D;
353	:	00FFEA21;
354	:	00FFEC8F;
355	:	00FFF689;
356	:	00FFF563;
357	:	00FFE934;
358	:	00FFFE7A;
359	:	00FFFF29;
360	:	00FFFA6F;
361	:	00000261;
362	:	00000591;
363	:	00FFFBA7;
364	:	00FFFEF5;
365	:	00000560;
366	:	00000B9B;
367	:	00FFFD98;
368	:	00000E6F;
369	:	00000562;
370	:	00000390;
371	:	00000054;
372	:	000002DE;
373	:	000001C6;
374	:	000002C9;
375	:	0000016B;
376	:	00FFFE4A;
377	:	00FFFF2A;
378	:	00FFFD4E;
379	:	00FFEB63;
380	:	00FFF97E;
381	:	00FFFB38;
382	:	00FFF9F1;
383	:	00FFF37D;
384	:	00000137;
385	:	00FFFC11;
386	:	000001E4;
387	:	000011BC;
388	:	00000B12;
389	:	00FFEF85;
390	:	00FFECB3;
391	:	00FFF871;
392	:	00FFF45E;
393	:	00FFF71D;
394	:	00FFFC31;
395	:	00FFFED1;
396	:	0000004D;
397	:	00FFFFE8;
398	:	00000510;
399	:	00FFF2B0;
400	:	00FFECE4;
401	:	00FFEBB8;
402	:	00FFEAB1;
403	:	00FFEBC0;
404	:	00FFDC4B;
405	:	00FFEF9F;
406	:	00000094;
407	:	000005BF;
408	:	000002C4;
409	:	00FFF340;
410	:	00FFDF65;
411	:	00FFD359;
412	:	00FFDED7;
413	:	00FFE37E;
414	:	00FFE145;
415	:	00FFF89B;
416	:	00FFFDDF;
417	:	00000315;
418	:	000004B3;
419	:	00FFF6A7;
420	:	00FFDA10;
421	:	00FFD4EA;
422	:	00FFCE3D;
423	:	00FFD2EA;
424	:	00FFF7B1;
425	:	00FFFB31;
426	:	0000086C;
427	:	00FFF857;
428	:	000001D0;
429	:	00FFFCE7;
430	:	00FFF52F;
431	:	00FFE406;
432	:	00FFC9FA;
433	:	00000170;
434	:	00000D45;
435	:	00000DC5;
436	:	000013CE;
437	:	00000808;
438	:	00FFF936;
439	:	000000B0;
440	:	00000202;
441	:	00FFFC33;
442	:	00FFF6CD;
443	:	00FFF320;
444	:	00001A3A;
445	:	0000037A;
446	:	00FFFDF4;
447	:	00000A21;
448	:	000002E8;
449	:	00000925;
450	:	00FFFE3F;
451	:	00FFFE65;
452	:	000016CE;
453	:	00001350;
454	:	00000BD4;
455	:	00FFF748;
456	:	00000DC8;
457	:	000015B3;
458	:	00FFFF19;
459	:	0000045E;
460	:	00FFFDB1;
461	:	00FFFC65;
462	:	00FFFDB8;
463	:	000001F2;
464	:	000010E3;
465	:	0000108C;
466	:	00FFFBC1;
467	:	00FFE0EE;
468	:	00FFECE5;
469	:	00FFFA79;
470	:	00FFFB6A;
471	:	00FFFDD7;
472	:	00FFFF61;
473	:	00FFFD60;
474	:	00FFFB7A;
475	:	00FFF28E;
476	:	00FFFD21;
477	:	00FFF561;
478	:	00FFF9E3;
479	:	00FFF793;
480	:	00FFF6CC;
481	:	00FFFAAF;
482	:	00000264;
483	:	00FFFC8C;
484	:	00000313;
485	:	00FFF8B0;
486	:	00FFFE92;
487	:	00FFFD0C;
488	:	00FFFF0F;
489	:	00FFFB98;
490	:	00FFFF5F;
491	:	000001D5;
492	:	00FFFCDF;
493	:	00000361;
494	:	000001A8;
495	:	00FFFC16;
496	:	00FFF7AF;
497	:	00FFF354;
498	:	00FFF2C0;
499	:	00FFEF90;
500	:	00FFFA9E;
501	:	000023CC;
502	:	00001F34;
503	:	000008D1;
504	:	00FFFCB0;
505	:	00000219;
506	:	00FFFF8D;
507	:	00FFF296;
508	:	00FFEEB6;
509	:	00FFF4C9;
510	:	00FFF058;
511	:	000011F3;
512	:	00003069;
513	:	0000388C;
514	:	00001C4F;
515	:	000002B5;
516	:	00FFFD3F;
517	:	00FFF602;
518	:	00FFEB29;
519	:	00FFEDF6;
520	:	00FFD4FD;
521	:	00FFEE6D;
522	:	00003CB9;
523	:	00001D85;
524	:	00003496;
525	:	00002942;
526	:	00000045;
527	:	00FFFD32;
528	:	00000161;
529	:	00FFEF88;
530	:	00FFE8FB;
531	:	00FFD92A;
532	:	00000D85;
533	:	000038C5;
534	:	00001622;
535	:	000023BA;
536	:	00002171;
537	:	0000035A;
538	:	00000042;
539	:	00000BB6;
540	:	00FFF964;
541	:	00FFF86F;
542	:	00FFE7BF;
543	:	00002565;
544	:	0000146F;
545	:	00000FD4;
546	:	0000110C;
547	:	0000143E;
548	:	00000013;
549	:	0000053C;
550	:	00FFFD86;
551	:	0000017D;
552	:	00FFF1B4;
553	:	00FFEA49;
554	:	00FFF46D;
555	:	00FFE4AF;
556	:	00FFF97E;
557	:	00FFF57E;
558	:	000004F5;
559	:	0000018D;
560	:	0000012B;
561	:	000008FB;
562	:	00001305;
563	:	0000004C;
564	:	00FFDFD0;
565	:	00FFE1EB;
566	:	00FFF323;
567	:	00FFD502;
568	:	00FFDCC7;
569	:	00FFF90B;
570	:	000003AE;
571	:	00FFFBDB;
572	:	00000220;
573	:	00000DDC;
574	:	000006D0;
575	:	00FFE5CE;
576	:	00FFE90B;
577	:	00FFECBC;
578	:	00FFEAF3;
579	:	00FFF9C2;
580	:	00FFF9CC;
581	:	0000011C;
582	:	00000100;
583	:	000000AF;
584	:	000006E4;
585	:	0000078C;
586	:	000003DA;
587	:	000007D6;
588	:	00FFFF07;
589	:	00FFFDBC;
590	:	00FFF972;
591	:	00FFFE36;
592	:	00FFFD3C;
593	:	0000012D;
594	:	00FFFD20;
595	:	00FFFBBB;
596	:	0000058A;
597	:	00FFF85F;
598	:	00FFFE9D;
599	:	00FFFC78;
600	:	00FFFA1B;
601	:	00FFFE4F;
602	:	00FFFD30;
603	:	00000413;
604	:	00FFFFE8;
605	:	00FFFC6C;
606	:	00FFFE44;
607	:	00FFFBE0;
608	:	00FFF859;
609	:	00FFFF22;
610	:	000002D1;
611	:	00000066;
612	:	00000119;
613	:	00FFFF76;
614	:	00000315;
615	:	000002B5;
616	:	00000199;
617	:	00FFFC0A;
618	:	00FFF76F;
619	:	00FFF8DA;
620	:	000009D0;
621	:	00001B15;
622	:	00002A43;
623	:	0000387E;
624	:	000012DF;
625	:	000002D7;
626	:	00000083;
627	:	00000205;
628	:	00FFF4A8;
629	:	00FFF409;
630	:	00FFE578;
631	:	000005F4;
632	:	00004432;
633	:	00001FD7;
634	:	000018CA;
635	:	00FFF496;
636	:	0000101F;
637	:	00FFFE9E;
638	:	00FFFC9A;
639	:	00FFF54D;
640	:	00FFE9C1;
641	:	00FFE45C;
642	:	00FFFB45;
643	:	00000F9D;
644	:	0000180A;
645	:	000008CF;
646	:	00001735;
647	:	00000CE0;
648	:	00FFFAB8;
649	:	00FFF9EF;
650	:	00FFEB42;
651	:	00FFE6BA;
652	:	00FFE511;
653	:	00FFF103;
654	:	00FFFC27;
655	:	00FFED6D;
656	:	00FFFD11;
657	:	0000136C;
658	:	00000CD3;
659	:	00FFF9DA;
660	:	00000F77;
661	:	00FFEEEB;
662	:	00FFE1F0;
663	:	00FFD03F;
664	:	00FFE278;
665	:	00FFF7B0;
666	:	00FFE808;
667	:	00FFFE74;
668	:	00000854;
669	:	00FFF0EA;
670	:	00FFFA64;
671	:	000028F6;
672	:	00000A6F;
673	:	00FFF793;
674	:	00FFF7E4;
675	:	00FFF498;
676	:	00FFE67E;
677	:	00FFED4E;
678	:	00FFECFF;
679	:	00FFF976;
680	:	00FFFFD5;
681	:	00FFFD6E;
682	:	000013B5;
683	:	000023E7;
684	:	00001005;
685	:	000013F0;
686	:	00000EFD;
687	:	00FFFEA0;
688	:	00FFEFD6;
689	:	00FFEC7C;
690	:	00FFF9D1;
691	:	00FFF9FF;
692	:	00FFFA49;
693	:	00001BD8;
694	:	00001D36;
695	:	000025EC;
696	:	00002203;
697	:	00002244;
698	:	00001FD3;
699	:	00FFF387;
700	:	00FFFD16;
701	:	00000175;
702	:	00000364;
703	:	00FFFA8A;
704	:	00001D78;
705	:	0000305E;
706	:	000027C3;
707	:	000020B9;
708	:	00001537;
709	:	00002047;
710	:	00000B98;
711	:	00FFF579;
712	:	00FFF997;
713	:	00FFFD0F;
714	:	0000036E;
715	:	0000017D;
716	:	00000424;
717	:	00000691;
718	:	0000061C;
719	:	00FFF985;
720	:	00FFED4A;
721	:	00FFF07A;
722	:	0000008E;
723	:	00FFF8F5;
724	:	000000C4;
725	:	00FFFAFC;
726	:	000000DD;
727	:	00FFFC27;
728	:	00FFFE30;
729	:	00FFF72A;
730	:	00FFFDF8;
731	:	00FFF614;
732	:	00FFF2B1;
733	:	00FFF8BD;
734	:	00FFFF78;
735	:	0000033E;
736	:	00FFFDDD;
737	:	0000058F;
738	:	00FFF94D;
739	:	00FFF212;
740	:	00FFF978;
741	:	00000098;
742	:	00FFF592;
743	:	00FFECB4;
744	:	00FFE93A;
745	:	00FFFC26;
746	:	00FFFD7A;
747	:	00000191;
748	:	00000207;
749	:	00FFFD0A;
750	:	0000065B;
751	:	00FFEE40;
752	:	00FFFAB3;
753	:	00FFF4D6;
754	:	00FFE8E4;
755	:	00000339;
756	:	00000712;
757	:	00000094;
758	:	0000031E;
759	:	0000067A;
760	:	00001145;
761	:	000019D6;
762	:	00000E65;
763	:	00FFF17D;
764	:	00FFEB82;
765	:	00FFF364;
766	:	00000764;
767	:	00000DFC;
768	:	000010FB;
769	:	00FFFC4F;
770	:	00FFF4B0;
771	:	00000CC7;
772	:	00001D81;
773	:	00000BDF;
774	:	00FFE605;
775	:	00FFFB43;
776	:	0000132B;
777	:	000021D8;
778	:	00001EF7;
779	:	000010CF;
780	:	00FFFD78;
781	:	00FFFE74;
782	:	0000112A;
783	:	00000006;
784	:	00FFE66C;
785	:	00FFE7F5;
786	:	00000EC4;
787	:	00002E6C;
788	:	00002234;
789	:	00002B68;
790	:	00FFFEDD;
791	:	0000028C;
792	:	00000197;
793	:	000007DD;
794	:	00FFF639;
795	:	00FFE80E;
796	:	00FFF661;
797	:	00001994;
798	:	0000229D;
799	:	00000FE8;
800	:	00002416;
801	:	0000021E;
802	:	00FFFE2A;
803	:	00FFFD5D;
804	:	00FFFE14;
805	:	00000AF9;
806	:	00FFF6A3;
807	:	00001417;
808	:	00001A3B;
809	:	0000101D;
810	:	00000897;
811	:	00001992;
812	:	00000802;
813	:	00000232;
814	:	0000026F;
815	:	000001E6;
816	:	000002BC;
817	:	00FFFFCD;
818	:	00000120;
819	:	00FFF825;
820	:	0000176C;
821	:	0000113F;
822	:	00000455;
823	:	00FFF920;
824	:	00000631;
825	:	00000558;
826	:	00FFFD8A;
827	:	00FFFA5A;
828	:	00FFF0FB;
829	:	00FFF175;
830	:	00FFFC76;
831	:	00FFF3EA;
832	:	00000518;
833	:	0000003B;
834	:	000000FC;
835	:	00000543;
836	:	00000212;
837	:	000002E7;
838	:	00FFFDEC;
839	:	00FFFE6C;
840	:	00FFFB26;
841	:	00FFFC34;
842	:	00FFFB3A;
843	:	00FFFD29;
844	:	00FFFF09;
845	:	00FFFF0E;
846	:	00000125;
847	:	000004A2;
848	:	0000008C;
849	:	0000169C;
850	:	000015E1;
851	:	00000C45;
852	:	0000076D;
853	:	00FFF895;
854	:	00FFFB81;
855	:	00000DBB;
856	:	00FFFBDD;
857	:	000000C9;
858	:	00FFFDBF;
859	:	000004C7;
860	:	0000094A;
861	:	00FFF775;
862	:	00FFFF5F;
863	:	00FFFDF2;
864	:	00FFFF7C;
865	:	000000D0;
866	:	00000829;
867	:	00FFFE96;
868	:	00FFFDDD;
869	:	00FFFDE6;
870	:	0000027E;
871	:	00000263;
872	:	00FFFF1B;
873	:	00000899;
874	:	00FFFF8C;
875	:	000002C7;
876	:	000001DB;
877	:	000007F0;
878	:	00000423;
879	:	000001CA;
880	:	00FFFCDC;
881	:	00000918;
882	:	00FFFD12;
883	:	000005F3;
884	:	00FFFBE0;
885	:	00FFD463;
886	:	00FFD798;
887	:	00FFE982;
888	:	00FFF43E;
889	:	00FFFF6D;
890	:	000001D8;
891	:	00000295;
892	:	00FFF7BD;
893	:	00FFE141;
894	:	00FFDD57;
895	:	00FFB88C;
896	:	00FFC07C;
897	:	00FFD73F;
898	:	00FFEAA3;
899	:	00FFF9A0;
900	:	00FFFF6F;
901	:	00FFFEAE;
902	:	00FFFC1B;
903	:	00FFF7BC;
904	:	000002ED;
905	:	00FFF6B4;
906	:	00FFD0CB;
907	:	00FFF1A3;
908	:	000006FE;
909	:	00FFFF57;
910	:	00FFEEA3;
911	:	00FFFE41;
912	:	00000091;
913	:	00FFFDB4;
914	:	00FFF396;
915	:	00FFF05D;
916	:	00000BED;
917	:	00000C50;
918	:	00000E57;
919	:	00001713;
920	:	00001210;
921	:	00FFFA06;
922	:	00FFFD93;
923	:	00FFFF61;
924	:	00FFFFFE;
925	:	00FFFC73;
926	:	00FFF366;
927	:	00000977;
928	:	00000B4A;
929	:	00FFE9C6;
930	:	00000352;
931	:	00001430;
932	:	00000843;
933	:	00FFFF4E;
934	:	00FFFE75;
935	:	00FFFF12;
936	:	00FFFDB0;
937	:	000002C8;
938	:	00FFF40D;
939	:	00FFFCF2;
940	:	0000090D;
941	:	00000638;
942	:	000009CD;
943	:	00FFF6F4;
944	:	00000010;
945	:	000002FB;
946	:	00FFFE4D;
947	:	00000138;
948	:	00FFFB62;
949	:	00FFFB6E;
950	:	00FFFE74;
951	:	00000058;
952	:	00FFF841;
953	:	00FFFEED;
954	:	00FFFB2C;
955	:	00FFFDEC;
956	:	00FFFB19;
957	:	00FFFB32;
958	:	00FFFF15;
959	:	00FFFF8B;
960	:	00FFFE6E;
961	:	00FFFCC2;
962	:	0000022B;
963	:	00FFFBC8;
964	:	0000038E;
965	:	00FFFF2D;
966	:	000000C9;
967	:	00FFFBD0;
968	:	00000000;
969	:	00000000;
970	:	00000000;
971	:	00000000;
972	:	00000000;
973	:	00000000;
974	:	00000000;
975	:	00000000;
976	:	00000000;
977	:	00000000;
978	:	00000000;
979	:	00000000;
980	:	00000000;
981	:	00000000;
982	:	00000000;
983	:	00000000;
984	:	00000000;
985	:	00000000;
986	:	00000000;
987	:	00000000;
988	:	00000000;
989	:	00000000;
990	:	00000000;
991	:	00000000;
992	:	00000000;
993	:	00000000;
994	:	00000000;
995	:	00000000;
996	:	00000000;
997	:	00000000;
998	:	00000000;
999	:	00000000;
1000	:	00000000;
1001	:	00000000;
1002	:	00000000;
1003	:	00000000;
1004	:	00000000;
1005	:	00000000;
1006	:	00000000;
1007	:	00000000;
1008	:	00000000;
1009	:	00000000;
1010	:	00000000;
1011	:	00000000;
1012	:	00000000;
1013	:	00000000;
1014	:	00000000;
1015	:	00000000;
1016	:	00000000;
1017	:	00000000;
1018	:	00000000;
1019	:	00000000;
1020	:	00000000;
1021	:	00000000;
1022	:	00000000;
1023	:	00000000;
END;